{"<s>":0,"<pad>":1,"</s>":2,"!":3,"\"":4,"#":5,"$":6,"%":7,"&":8,"'":9,"(":10,")":11,"*":12,"+":13,",":14,"-":15,".":16,"/":17,"0":18,"1":19,"2":20,"3":21,"4":22,"5":23,"6":24,"7":25,"8":26,"9":27,":":28,";":29,"<":30,"=":31,">":32,"?":33,"@":34,"A":35,"B":36,"C":37,"D":38,"E":39,"F":40,"G":41,"H":42,"I":43,"J":44,"K":45,"L":46,"M":47,"N":48,"O":49,"P":50,"Q":51,"R":52,"S":53,"T":54,"U":55,"V":56,"W":57,"X":58,"Y":59,"Z":60,"[":61,"\\":62,"]":63,"^":64,"_":65,"`":66,"a":67,"b":68,"c":69,"d":70,"e":71,"f":72,"g":73,"h":74,"i":75,"j":76,"k":77,"l":78,"m":79,"n":80,"o":81,"p":82,"q":83,"r":84,"s":85,"t":86,"u":87,"v":88,"w":89,"x":90,"y":91,"z":92,"{":93,"|":94,"}":95,"~":96,"¡":97,"¢":98,"£":99,"¤":100,"¥":101,"¦":102,"§":103,"¨":104,"©":105,"ª":106,"«":107,"¬":108,"®":109,"¯":110,"°":111,"±":112,"²":113,"³":114,"´":115,"µ":116,"¶":117,"·":118,"¸":119,"¹":120,"º":121,"»":122,"¼":123,"½":124,"¾":125,"¿":126,"À":127,"Á":128,"Â":129,"Ã":130,"Ä":131,"Å":132,"Æ":133,"Ç":134,"È":135,"É":136,"Ê":137,"Ë":138,"Ì":139,"Í":140,"Î":141,"Ï":142,"Ð":143,"Ñ":144,"Ò":145,"Ó":146,"Ô":147,"Õ":148,"Ö":149,"×":150,"Ø":151,"Ù":152,"Ú":153,"Û":154,"Ü":155,"Ý":156,"Þ":157,"ß":158,"à":159,"á":160,"â":161,"ã":162,"ä":163,"å":164,"æ":165,"ç":166,"è":167,"é":168,"ê":169,"ë":170,"ì":171,"í":172,"î":173,"ï":174,"ð":175,"ñ":176,"ò":177,"ó":178,"ô":179,"õ":180,"ö":181,"÷":182,"ø":183,"ù":184,"ú":185,"û":186,"ü":187,"ý":188,"þ":189,"ÿ":190,"Ā":191,"ā":192,"Ă":193,"ă":194,"Ą":195,"ą":196,"Ć":197,"ć":198,"Ĉ":199,"ĉ":200,"Ċ":201,"ċ":202,"Č":203,"č":204,"Ď":205,"ď":206,"Đ":207,"đ":208,"Ē":209,"ē":210,"Ĕ":211,"ĕ":212,"Ė":213,"ė":214,"Ę":215,"ę":216,"Ě":217,"ě":218,"Ĝ":219,"ĝ":220,"Ğ":221,"ğ":222,"Ġ":223,"ġ":224,"Ģ":225,"ģ":226,"Ĥ":227,"ĥ":228,"Ħ":229,"ħ":230,"Ĩ":231,"ĩ":232,"Ī":233,"ī":234,"Ĭ":235,"ĭ":236,"Į":237,"į":238,"İ":239,"ı":240,"Ĳ":241,"ĳ":242,"Ĵ":243,"ĵ":244,"Ķ":245,"ķ":246,"ĸ":247,"Ĺ":248,"ĺ":249,"Ļ":250,"ļ":251,"Ľ":252,"ľ":253,"Ŀ":254,"ŀ":255,"Ł":256,"ł":257,"Ń":258,"se":259,"in":260,"re":261,"on":262,"at":263,"er":264,"Ġ=":265,"or":266,"st":267,"Ġt":268,"sel":269,"self":270,"en":271,"de":272,"ar":273,"Ġi":274,"al":275,"me":276,"an":277,"le":278,"Ġself":279,"Ġc":280,"Ġf":281,"he":282,"Ġre":283,"ion":284,"it":285,"ur":286,"Ġp":287,"Ġ<":288,"ct":289,"Ġn":290,"ce":291,"Ġin":292,"ge":293,"Ġa":294,"ame":295,"ro":296,"Ġif":297,"):":298,"Ġs":299,"\"\"":300,"Ġe":301,"Ġo":302,"Ġde":303,"Ġ'":304,"ue":305,"ut":306,"lo":307,"ent":308,"ing":309,"Ġthe":310,"pe":311,"Ġd":312,"fi":313,"li":314,"urn":315,"ate":316,"turn":317,"ss":318,"Ġb":319,"ot":320,"Ġdef":321,"un":322,"id":323,"Ġ#":324,"co":325,"one":326,"ra":327,"Ġm":328,"._":329,"Ġw":330,"ad":331,"Ġreturn":332,"Ġ</":333,"--":334,"la":335,"()":336,"Ġfor":337,"None":338,"val":339,"mp":340,"Ġis":341,"and":342,"name":343,"get":344,"Ġ\"":345,"te":346,"ul":347,"pt":348,"ke":349,"ata":350,"Ġto":351,"ype":352,"Ġ(":353,"arg":354,"ch":355,"ri":356,"\"\"\"":357,"',":358,"di":359,"Ġst":360,"um":361,"il":362,"Ġ\"\"\"":363,"up":364,"el":365,"ck":366,"ter":367,"ed":368,"('":369,"is":370,"))":371,"Ġnot":372,"ma":373,"ath":374,"ol":375,"con":376,"__":377,"es":378,"th":379,"set":380,"ation":381,"ser":382,"xt":383,"value":384,"Ġof":385,"args":386,"ver":387,"am":388,"ĠNone":389,"['":390,"ĠT":391,"']":392,"ode":393,"ect":394,"Ġ:":395,"as":396,"par":397,"ult":398,"Ġcon":399,"key":400,"type":401,"ror":402,"end":403,"Ġl":404,"Ġ+":405,"')":406,"ap":407,"Ġand":408,"':":409,"orm":410,"ta":411,"ble":412,"sp":413,"Ġh":414,"ve":415,"ime":416,"int":417,"ction":418,"Ġ{":419,"iz":420,"Ġ*":421,"Ġex":422,"path":423,"ig":424,"all":425,"od":426,"Ġth":427,"Ġel":428,"to":429,"ption":430,"Ġ[":431,"(\"":432,"list":433,"Ġelse":434,"Ġ1":435,"age":436,"bj":437,"Ġg":438,"ile":439,"Ġ_":440,"Ġ%":441,"Ġu":442,"\",":443,"form":444,"tr":445,"qu":446,"Ġor":447,"data":448,"ment":449,"Ġlo":450,"----":451,"Ġbe":452,"po":453,"Ġ==":454,"ith":455,"Ġco":456,"str":457,"Ġ-":458,"file":459,"Ġ0":460,"vi":461,"ance":462,"ren":463,"Ġr":464,"00":465,"ite":466,"ort":467,"per":468,"ise":469,"ĠA":470,"Er":471,"put":472,"que":473,"Ġdata":474,"Error":475,"rue":476,"et":477,"pro":478,"param":479,"kw":480,"ine":481,"Ġvalue":482,"res":483,"ist":484,"Ġas":485,"Re":486,"Ġname":487,"fig":488,"),":489,"ĠI":490,"ĠS":491,"ase":492,"ub":493,"rom":494,"art":495,"app":496,"Ġme":497,"ize":498,"Ġstr":499,"ord":500,"Ġse":501,"us":502,"Ġra":503,"alse":504,"out":505,"che":506,"ĠC":507,"ĠF":508,"kwargs":509,"ic":510,"stance":511,"eld":512,"ew":513,"ex":514,"able":515,"fo":516,"Ġv":517,"Ġpro":518,"ack":519,"Ġdi":520,"ow":521,"Ġres":522,"ry":523,"ers":524,"init":525,"time":526,"format":527,"\":":528,"Ġraise":529,"\")":530,"Ġpar":531,"quest":532,"add":533,"ly":534,"ms":535,"bject":536,"ext":537,"Ġwith":538,"our":539,"ĠP":540,"fa":541,"red":542,"='":543,".__":544,"ci":545,"Ġ`":546,"],":547,"__(":548,"text":549,"Ġy":550,"date":551,"rent":552,"Ġfile":553,"sion":554,"Ġan":555,"lass":556,"])":557,"ht":558,"dex":559,"ff":560,"sc":561,"sh":562,"append":563,"url":564,"code":565,"Ġget":566,"ind":567,"mple":568,"Ġma":569,"Ġkey":570,"ange":571,"ource":572,"ure":573,"len":574,"Ġch":575,"Ġlen":576,"Ġ>":577,"Ġx":578,"Ġ__":579,"Ġfrom":580,"gg":581,"Ġlist":582,"unt":583,"mm":584,"tri":585,"op":586,"bu":587,"ls":588,"instance":589,"jo":590,"pre":591,"ĠD":592,"Ġexce":593,"lif":594,"oc":595,"Ġpa":596,"atch":597,"ip":598,"Ġ**":599,"ĠE":600,"error":601,"cess":602,"der":603,"Ġelif":604,"pa":605,"col":606,"Ġset":607,"Ġ2":608,"ity":609,"Ġout":610,"Ġon":611,"thod":612,"rint":613,"ssage":614,"read":615,"attr":616,"Ġ)":617,"bo":618,"ust":619,"ho":620,"ield":621,"..":622,"Ġhe":623,"reate":624,"Ġtry":625,"ument":626,"ray":627,"config":628,"onse":629,"dict":630,"und":631,"im":632,"os":633,"ule":634,"ĠThe":635,"Ġen":636,"sed":637,"Ġ{}":638,"roup":639,"dir":640,"Ġresult":641,"info":642,"low":643,"py":644,"Ġexcept":645,"odel":646,"mo":647,"ive":648,"ph":649,"Ġwh":650,"ĠTrue":651,"dd":652,"mb":653,"True":654,"Ġtype":655,"ign":656,"Ġal":657,"ory":658,"ag":659,"ĠRe":660,"==":661,"ran":662,"version":663,"size":664,"ute":665,"ĠN":666,"ssion":667,").":668,"Ġthis":669,"om":670,"ĠFalse":671,"ted":672,"vent":673,"ces":674,"Ġisinstance":675,"Ġthat":676,"ca":677,"ĠM":678,"iv":679,"In":680,"valid":681,"ild":682,"ary":683,"array":684,"ameter":685,"Ġla":686,"sponse":687,"[\"":688,"ĠV":689,"Ġtime":690,"ken":691,"Ġpath":692,"Ġcol":693,"ill":694,"bel":695,"load":696,"Ġro":697,"ir":698,"Ġit":699,"ition":700,"Ġnp":701,"umb":702,"Ġnew":703,"Ġby":704,"ork":705,"False":706,"class":707,"ator":708,"Ġprint":709,"Ġpre":710,"lu":711,"ĠL":712,"Ġwe":713,"Ġ[]":714,"cal":715,"son":716,"Ġun":717,"Ġos":718,"update":719,"'.":720,"rite":721,"ery":722,"Ġat":723,"=\"":724,"ys":725,"nect":726,"ER":727,"unction":728,"ore":729,"lic":730,"log":731,"ial":732,"min":733,"join":734,"():":735,"Ġ+=":736,"ptions":737,"tent":738,"line":739,"ari":740,"ep":741,"fe":742,"sa":743,"Ġare":744,"index":745,"Ġk":746,"vice":747,"Ġsup":748,"port":749,"start":750,"ault":751,"lock":752,"cur":753,"lient":754,"gger":755,"Ġint":756,"Ġrequest":757,"Ġobject":758,"gs":759,"\"]":760,"mage":761,"ded":762,"ĠO":763,"##":764,"pp":765,"rect":766,"json":767,"ĠR":768,"Ġdefault":769,"ings":770,"peci":771,"alue":772,"ape":773,"mmand":774,"trib":775,"node":776,"fault":777,"umber":778,"arget":779,"tain":780,"base":781,"umn":782,"--------":783,"count":784,"act":785,"lay":786,"``":787,"atus":788,"Ġ''":789,"lit":790,"Con":791,"yn":792,"query":793,"field":794,"ts":795,"lement":796,"sen":797,"scri":798,"back":799,"state":800,"Ġargs":801,"ON":802,"ress":803,"user":804,"ĠU":805,"Ġall":806,"IN":807,"uth":808,"Ġhas":809,"ann":810,"Ġid":811,"ies":812,"ĠG":813,"late":814,"ang":815,"Ġ``":816,"string":817,"Ġuser":818,"argument":819,"pi":820,"Ġadd":821,"ac":822,"Ġconfig":823,"Ġcur":824,"loat":825,"odule":826,"ener":827,"unc":828,"max":829,"ĠB":830,"Ġwill":831,"word":832,"lin":833,"ĠIf":834,"ther":835,"ask":836,"Ġnode":837,"ok":838,"Ġkwargs":839,"Ġte":840,"mat":841,"ĠW":842,"by":843,"gth":844,"Ġfil":845,"ception":846,"].":847,"Ġline":848,"fix":849,"mport":850,"ty":851,"ard":852,"Ġsub":853,"ll":854,"Ġsh":855,"Ġdo":856,"map":857,"turns":858,"{}":859,"\".":860,"tp":861,"group":862,"Ġpo":863,"request":864,"tra":865,"ader":866,"AT":867,"obj":868,"ml":869,"ifi":870,"own":871,"heck":872,"write":873,"Ġlog":874,"ameters":875,"ave":876,"Ġ/":877,"ight":878,"Ġfield":879,"sub":880,"ab":881,"if":882,"Ġext":883,"bug":884,"ec":885,"da":886,"Ġ!":887,"**":888,"Ġle":889,"Ġoutput":890,"Ġdict":891,"ated":892,"RE":893,"pos":894,"arch":895,"ound":896,"ant":897,"Ġ!=":898,"Ġstring":899,"point":900,"mit":901,"ST":902,"rame":903,"},":904,"Ġresponse":905,"qui":906,"uld":907,"Ġmethod":908,"Ġ\\":909,"uct":910,"sert":911,"wa":912,"default":913,"ample":914,"Ġsuper":915,"())":916,"Ġite":917,"cation":918,"ree":919,"ket":920,"Ġ3":921,"Ġ>>":922,"from":923,"gra":924,"md":925,"work":926,"vel":927,"Ġcomp":928,"ĠValue":929,"Ġuse":930,"Ġerror":931,"result":932,"Ġmax":933,"Ġ'''":934,"cord":935,"ject":936,"([":937,"comp":938,"split":939,"spa":940,"lace":941,"iter":942,"Type":943,"Ġfunction":944,"method":945,"ump":946,"tern":947,"object":948,"ĠH":949,"Ġstart":950,"label":951,"ĠEx":952,"Ġne":953,"params":954,"ĠValueError":955,"Ġspeci":956,"Ġ>>>":957,"Ġop":958,"Ġbu":959,"Ex":960,"arn":961,"items":962,"call":963,"ler":964,"debug":965,"Ġmessage":966,"Ġparam":967,"lot":968,"stri":969,"message":970,"row":971,"'):":972,"ull":973,"model":974,"Ġno":975,"ream":976,"ĠTh":977,"lib":978,"values":979,"cs":980,"Ġpass":981,"ron":982,"we":983,"ĠIn":984,"rep":985,"ations":986,"ans":987,"Ġcan":988,"Ġbo":989,"Ġurl":990,"sor":991,"Ġz":992,"uple":993,"Ġindex":994,"Ġimport":995,"St":996,"server":997,"item":998,"Ġvalues":999,"its":1000,"with":1001,"ĠReturns":1002,"LE":1003,"Ġso":1004,"ence":1005,"temp":1006,"for":1007,"reg":1008,"space":1009,"Ġinput":1010,"inter":1011,"ariable":1012,"nection":1013,"be":1014,"ste":1015,"Ġrange":1016,"lat":1017,"Ġapp":1018,":`":1019,"Ġend":1020,"ds":1021,"pect":1022,"token":1023,"[:":1024,"Ġinstance":1025,"run":1026,"Ġ}":1027,"shape":1028,"ses":1029,"ix":1030,"Ġac":1031,"Name":1032,"ote":1033,"ax":1034,"Ġcall":1035,"clu":1036,"01":1037,"Ġcont":1038,"output":1039,"Ġcreate":1040,"Ġother":1041,"com":1042,"move":1043,"tes":1044,"num":1045,"'],":1046,"Ġbase":1047,"idth":1048,"OR":1049,"Ġstate":1050,"sg":1051,"====":1052,"ptional":1053,"Ġj":1054,"Ġmodel":1055,"hand":1056,"keys":1057,"parse":1058,"aders":1059,"filen":1060,"return":1061,"Ġcheck":1062,"ĠThis":1063,"ak":1064,"Ke":1065,"ension":1066,"itle":1067,"ding":1068,"ost":1069,"Ġlogger":1070,"fil":1071,"ich":1072,"new":1073,"lp":1074,"status":1075,"DE":1076,"ils":1077,"Ġreg":1078,"iven":1079,"Ġret":1080,"Ġitem":1081,"Ġcurrent":1082,"filename":1083,"ME":1084,"Ġrun":1085,"tribute":1086,"ref":1087,"input":1088,"table":1089,"Ġtext":1090,"'t":1091,"ou":1092,"Ġ|":1093,"Ġversion":1094,"ft":1095,"no":1096,"ach":1097,"create":1098,"func":1099,"gin":1100,"Ġent":1101,"bs":1102,"Ġax":1103,"names":1104,"Ġnumber":1105,"AN":1106,"ature":1107,"select":1108,"nd":1109,"source":1110,"AL":1111,"var":1112,"().":1113,"limit":1114,"tings":1115,"((":1116,"main":1117,"module":1118,"Ġcontain":1119,"][":1120,"...":1121,"view":1122,"Co":1123,"(),":1124,"Key":1125,"annel":1126,"Ġper":1127,"ID":1128,"'s":1129,"Ġtran":1130,"ename":1131,"Ġfloat":1132,"client":1133,"Ġdis":1134,"Ġobj":1135,"np":1136,"sing":1137,"Ġmin":1138,"'])":1139,"service":1140,"Ġmust":1141,"Ġevent":1142,"lob":1143,"Ġformat":1144,"Pro":1145,"sk":1146,"Ġtarget":1147,"vert":1148,"Ġparams":1149,"filter":1150,"og":1151,"ors":1152,"Ġspecifi":1153,"event":1154,"mode":1155,"Ġcode":1156,"df":1157,"Ġgiven":1158,"Ġlin":1159,"adata":1160,"Ġvalid":1161,"rap":1162,"rc":1163,"led":1164,"Ġone":1165,"Ġused":1166,"net":1167,"host":1168,"Ġquery":1169,"//":1170,"Ġca":1171,"check":1172,"cls":1173,"ody":1174,"ments":1175,"Ġ->":1176,"scription":1177,"ally":1178,"hould":1179,"clo":1180,"ne":1181,"10":1182,"sum":1183,"Ġpy":1184,"De":1185,"Ġwhich":1186,"Ġtemp":1187,"Ġsu":1188,"db":1189,"Ġrow":1190,"context":1191,"content":1192,"response":1193,"####":1194,"process":1195,"thon":1196,"ght":1197,"Ġparent":1198,"so":1199,"not":1200,"000":1201,"sy":1202,"'),":1203,"off":1204,"has":1205,"orted":1206,".\"\"\"":1207,"amp":1208,"Ġhave":1209,"rid":1210,"Ġ4":1211,"types":1212,"Ġdate":1213,"lable":1214,"Ġsource":1215,"Ġparser":1216,"ched":1217,"Ġread":1218,"doc":1219,"api":1220,"raw":1221,"Ġargument":1222,"clude":1223,"AR":1224,"use":1225,"ution":1226,"options":1227,"msg":1228,"Ġmsg":1229,"Ġarray":1230,"ctions":1231,"Par":1232,"feren":1233,"utes":1234,"Ġonly":1235,"Ġmatch":1236,"Ġtra":1237,"SE":1238,"Ġimage":1239,"Ġshould":1240,").__":1241,"Ġassert":1242,"Ġtoken":1243,"Ġsize":1244,"Ġcontext":1245,"Ġ{'":1246,"Data":1247,"Ġcal":1248,"do":1249,"mt":1250,"pts":1251,"ong":1252,"su":1253,"oth":1254,"Ġclass":1255,")))":1256,"rectory":1257,"length":1258,"block":1259,"ast":1260,"target":1261,"pop":1262,"Ġcontin":1263,"image":1264,"Ġinter":1265,"Ġhand":1266,"command":1267,"column":1268,"try":1269,"irst":1270,"Ġcolumn":1271,"ackage":1272,"ay":1273,"old":1274,"Ġgroup":1275,"uration":1276,"si":1277,"pec":1278,"err":1279,"Ġpart":1280,"Ġ{\"":1281,"Ġcommand":1282,"tadata":1283,"Ġopen":1284,"Ġ@":1285,"ists":1286,"lete":1287,"cre":1288,"auth":1289,"Ġtag":1290,"Ġnum":1291,"cy":1292,"32":1293,"Ġfilename":1294,"Ġup":1295,"ĠPar":1296,"ĠAr":1297,"ates":1298,"Id":1299,"://":1300,"chema":1301,"Ġcls":1302,"av":1303,"inal":1304,"gging":1305,"Ġcontent":1306,"ual":1307,"job":1308,"Ġcontinue":1309,"pr":1310,"mi":1311,"ark":1312,"rial":1313,"ain":1314,"unk":1315,"match":1316,"Ġpos":1317,"Ġany":1318,"Ġlabel":1319,"12":1320,"ĠCon":1321,"files":1322,"Res":1323,"ids":1324,"ical":1325,"session":1326,"idget":1327,"ĠQ":1328,"tag":1329,"pri":1330,"ps":1331,"[-":1332,"Ġmat":1333,"Ġupdate":1334,"otal":1335,"def":1336,"resh":1337,"sent":1338,"Ġhelp":1339,"Ġelement":1340,"cl":1341,"ĠDe":1342,"Ġ--------":1343,"stem":1344,"Ġfirst":1345,"lean":1346,"EN":1347,"PI":1348,"here":1349,"http":1350,"face":1351,"Ġjson":1352,"Ġyield":1353,"Ġsp":1354,"fields":1355,"strip":1356,"lper":1357,"64":1358,"Ġ('":1359,"TI":1360,"Ġtable":1361,"Ġdoc":1362,"parent":1363,"Ġoptions":1364,"ĠException":1365,"Ġval":1366,"]:":1367,"Me":1368,"mbda":1369,"ync":1370,"of":1371,"trans":1372,"Ġ['":1373,"Ġwhile":1374,"indow":1375,"range":1376,"ld":1377,"Ġchar":1378,"root":1379,"Ġtuple":1380,"'))":1381,"level":1382,"ked":1383,"Se":1384,"Ġclient":1385,"reak":1386,"Ġsys":1387,"ĠX":1388,"Ġeach":1389,"Ġbool":1390,"queue":1391,"Ġver":1392,"core":1393,"quired":1394,"cache":1395,"File":1396,"onent":1397,"ats":1398,"Ġmode":1399,"Ġinit":1400,"idx":1401,"find":1402,"link":1403,"io":1404,"Ġfa":1405,"ference":1406,"sign":1407,"man":1408,"Ġfound":1409,"alt":1410,"Ġwhen":1411,"test":1412,"cent":1413,"Ġfiles":1414,"float":1415,"Ġsy":1416,"viron":1417,"attern":1418,"Ġht":1419,"Ġover":1420,"ures":1421,"width":1422,"ister":1423,"ns":1424,"rix":1425,"Ġaction":1426,"TE":1427,"ped":1428,"rank":1429,"andom":1430,"are":1431,"color":1432,"Ġgener":1433,"parser":1434,"current":1435,"swith":1436,"ick":1437,"prefix":1438,"order":1439,"address":1440,"comm":1441,"ormal":1442,"helper":1443,"store":1444,"ify":1445,"quence":1446,"Ġarg":1447,"ries":1448,")]":1449,"frame":1450,"like":1451,"Ġwork":1452,"bro":1453,"cond":1454,"replace":1455,"ffer":1456,"Ġfilter":1457,"open":1458,"part":1459,"Ġ.":1460,"iled":1461,"last":1462,"ized":1463,"ume":1464,"Ġspecified":1465,"igh":1466,"change":1467,"Ġbut":1468,"To":1469,"umpy":1470,"struct":1471,"ous":1472,"train":1473,"right":1474,"Set":1475,"loc":1476,"Ġtrans":1477,"Un":1478,"Ġsign":1479,"ifier":1480,"AC":1481,"resource":1482,"header":1483,"Ġact":1484,"ĠY":1485,"List":1486,"tributes":1487,"Ġmodule":1488,"cor":1489,"ved":1490,"En":1491,"sample":1492,"uni":1493,"number":1494,"local":1495,"cket":1496,"gn":1497,"Ġhost":1498,"mpty":1499,"title":1500,"copy":1501,"arning":1502,"Ġtest":1503,"yle":1504,"env":1505,"ud":1506,"ting":1507,"action":1508,"(*":1509,"coding":1510,"lines":1511,"Ġresults":1512,"teg":1513,"Ġmo":1514,"Ġoff":1515,"Ġ5":1516,"SI":1517,"Ġpoint":1518,"plot":1519,"Ġvariable":1520,"pend":1521,"ccess":1522,"Ġdoes":1523,"Ġattr":1524,"Ġstatus":1525,"ract":1526,"stamp":1527,"Ġq":1528,"Ġcor":1529,"contain":1530,"ches":1531,"Ġiter":1532,"pert":1533,"Ġ\"\"":1534,"})":1535,"wait":1536,"Ġlast":1537,"raph":1538,")):":1539,"Ġauth":1540,"cmd":1541,"Ġlength":1542,"ai":1543,"ateg":1544,"izer":1545,"ĠJ":1546,"task":1547,"PE":1548,"Ġport":1549,"RO":1550,"Ġmake":1551,"connect":1552,"stream":1553,"ten":1554,"ctionary":1555,"offset":1556,"::":1557,"Ġbreak":1558,"fore":1559,"\"},":1560,"Ġinto":1561,"Ġblock":1562,"methods":1563,"Ġfe":1564,"Ġrecord":1565,"child":1566,"Ġresource":1567,"Ġprocess":1568,"lobal":1569,"lower":1570,"ert":1571,"uri":1572,"ĠParameters":1573,"ĠArgs":1574,"0000":1575,"iss":1576,"vis":1577,"FI":1578,"older":1579,"peration":1580,"pass":1581,"exec":1582,"Ar":1583,"element":1584,"xy":1585,"TT":1586,"ager":1587,"cade":1588,"ible":1589,"function":1590,"perties":1591,"print":1592,"ĠType":1593,"Ġ'.":1594,"Ġgetattr":1595,"bin":1596,"(_":1597,"Ġpri":1598,"Ġserver":1599,"utils":1600,"Ġ--":1601,"Ġass":1602,"Ġsc":1603,"dim":1604,"25":1605,"build":1606,"mbol":1607,"={":1608,"lease":1609,"ocket":1610,"Ġlocal":1611,"template":1612,"cli":1613,"'].":1614,"step":1615,"Di":1616,"fact":1617,"Exception":1618,"Ġoptional":1619,"Ġdist":1620,"Ġcount":1621,"Ġback":1622,"Ġparse":1623,"project":1624,"Ġtask":1625,"Str":1626,"close":1627,"yload":1628,"11":1629,"Ġload":1630,"Get":1631,"']:":1632,"Value":1633,"logger":1634,"vid":1635,"LO":1636,"gen":1637,"DO":1638,"Ġusing":1639,"box":1640,"req":1641,"Ġorder":1642,"brocade":1643,"uid":1644,"Ġsession":1645,"Ġinfo":1646,"Ġ----------":1647,"Ġuni":1648,"fter":1649,"ib":1650,"mail":1651,"Ġrep":1652,"ating":1653,"Ġthen":1654,"encode":1655,"Ġlogging":1656,"ustom":1657,"top":1658,"ner":1659,"uto":1660,"Ġ'%":1661,"page":1662,"ined":1663,"Ġhasattr":1664,"lt":1665,"Ġsample":1666,"search":1667,"']['":1668,"cul":1669,"Ġnext":1670,"ont":1671,"lugin":1672,"Ġexist":1673,"Ġqu":1674,"annot":1675,"Ġdest":1676,"Ser":1677,"ql":1678,"Ġchange":1679,"ready":1680,"headers":1681,"lection":1682,"lan":1683,"std":1684,"rt":1685,"GE":1686,"Ġneed":1687,"CO":1688,"Ġad":1689,"scal":1690,"Ġdel":1691,"Ġcmd":1692,"bytes":1693,"pected":1694,"ake":1695,"Ġparameters":1696,"fir":1697,"Ġwas":1698,"settings":1699,"les":1700,"Ġheaders":1701,"imum":1702,"Ġav":1703,"Lo":1704,"Ġheader":1705,"lication":1706,"Ġenum":1707,"ization":1708,"({":1709,"mary":1710,"16":1711,"Ġchild":1712,"record":1713,"Ġarguments":1714,"ĠSe":1715,"Ġtemplate":1716,"exp":1717,"Ġcolor":1718,"du":1719,"Ġyou":1720,"ome":1721,"RL":1722,"mote":1723,"Ġhttp":1724,"Ġtimeout":1725,"licy":1726,"Ch":1727,"Ġfunc":1728,"hash":1729,"graph":1730,"send":1731,"play":1732,"perty":1733,"Ġnet":1734,"rit":1735,"script":1736,"Ġexp":1737,"Class":1738,"oi":1739,"Ġfla":1740,"gener":1741,"ton":1742,"Ġproject":1743,"char":1744,"meta":1745,"SS":1746,"Ġ>=":1747,"UT":1748,"serial":1749,"ident":1750,"ĠKey":1751,"container":1752,"channel":1753,"dic":1754,"ĠCo":1755,"uster":1756,"ative":1757,"Ġ...":1758,"zer":1759,"========":1760,"timeout":1761,"connection":1762,"Ġtf":1763,"tree":1764,"UL":1765,"Ġfind":1766,"mon":1767,"gment":1768,"02":1769,"flow":1770,"ions":1771,"99":1772,"Ġ----":1773,"cope":1774,"Ġroot":1775,"ensions":1776,"Ġmult":1777,"fn":1778,"Ġparameter":1779,"other":1780,"Ġcase":1781,"\"):":1782,"Ġfields":1783,"axis":1784,"Ġallow":1785,"Ġdb":1786,"Ġconnection":1787,"Ġnames":1788,"tx":1789,"formation":1790,"`.":1791,"remove":1792,"html":1793,"Ġdirectory":1794,"fla":1795,"conds":1796,"Ġed":1797,"Ġdtype":1798,"ailable":1799,"nown":1800,"Ġprovi":1801,"body":1802,"paths":1803,"handle":1804,"orage":1805,"Ġoffset":1806,"Ġ..":1807,".')":1808,"startswith":1809,"post":1810,"bose":1811,"metadata":1812,"callback":1813,"Ġnamespace":1814,"mg":1815,"Ġpage":1816,"''":1817,"Ġdictionary":1818,"Ġstream":1819,"Ġmap":1820,"Ġ]":1821,"dis":1822,"Ġkeys":1823,"location":1824,"Ġsame":1825,"Ġorig":1826,"ING":1827,"ternal":1828,"mission":1829,"util":1830,"ĠTypeError":1831,"Ġ&":1832,"Ġvar":1833,"Ġref":1834,"Ġselect":1835,"LI":1836,"ency":1837,".\")":1838,"Ġsen":1839,"Ġshape":1840,"Ġservice":1841,"ential":1842,"---":1843,":]":1844,"Ġ<=":1845,"down":1846,"MA":1847,"Ġexec":1848,"Ġform":1849,"Col":1850,"Ġident":1851,"atures":1852,"ĠAn":1853,"AD":1854,"pth":1855,"Ġprefix":1856,"abled":1857,"utf":1858,"xml":1859,"las":1860,"Ġdf":1861,"ning":1862,"Ġlay":1863,"variable":1864,"ias":1865,"RI":1866,"erate":1867,"ide":1868,"Ġaxis":1869,"ell":1870,"ins":1871,"next":1872,"Ġentry":1873,"pk":1874,"ush":1875,"save":1876,"]]":1877,"tocol":1878,"Ġwrite":1879,"ens":1880,"lect":1881,"Ġdiff":1882,"points":1883,"Ġman":1884,"Time":1885,"spec":1886,"ass":1887,"mplement":1888,"description":1889,"Ġcl":1890,"04":1891,"Ġ6":1892,"Ġinitial":1893,"ear":1894,"tro":1895,"exists":1896,"Ġbuild":1897,"pack":1898,"14":1899,"Ġwhere":1900,"go":1901,"Ġyang":1902,"ster":1903,"Ġnumpy":1904,"dices":1905,"Ġinst":1906,"Ġlines":1907,"TY":1908,"delete":1909,"ail":1910,"Ġjob":1911,"Ġalready":1912,"datetime":1913,"decode":1914,"handler":1915,"atic":1916,"Ġstep":1917,"Ġlevel":1918,"qual":1919,"erge":1920,"itions":1921,"pub":1922,"olume":1923,"Element":1924,"stack":1925,"Ġaddress":1926,"dered":1927,"]))":1928,"lambda":1929,"Ġar":1930,"Ġbody":1931,"=[":1932,"########":1933,"ob":1934,"objects":1935,"itor":1936,"Ġreturns":1937,"NA":1938,"etch":1939,"Ġdatetime":1940,"pha":1941,"33":1942,"derr":1943,"Ġcache":1944,"Ġlimit":1945,"Ġattribute":1946,"gram":1947,"conf":1948,"make":1949,"ĠID":1950,"fg":1951,"addr":1952,"riter":1953,"Ġenumerate":1954,"verse":1955,"teger":1956,"Ġ8":1957,"dot":1958,"Ġvi":1959,"Ġframe":1960,"Ġbytes":1961,"full":1962,"Po":1963,"Ġscal":1964,"the":1965,"rtype":1966,"dtype":1967,"ities":1968,"Ġph":1969,"direct":1970,"mask":1971,"Ġcallback":1972,"nodes":1973,"del":1974,"cp":1975,"cat":1976,"Ġchannel":1977,"sup":1978,"results":1979,"ttribute":1980,"ingle":1981,"Ġrequired":1982,"Ġthan":1983,"Ġerr":1984,"UN":1985,"peri":1986,"Ġmay":1987,"wer":1988,"Ġmore":1989,"pression":1990,"ĠGet":1991,"cry":1992,"----------------":1993,"tran":1994,"dump":1995,"Not":1996,"Ġold":1997,"Ġsettings":1998,"angu":1999,"ector":2000,"disp":2001,"ĠWe":2002,"const":2003,"Ġapi":2004,"mod":2005,"mark":2006,"ward":2007,"ĠPy":2008,"gh":2009,"mory":2010,"ported":2011,"stop":2012,"Ġpackage":2013,"wise":2014,"Object":2015,"lation":2016,"Ġthere":2017,"anguage":2018,"fy":2019,"Ġ\"%":2020,"only":2021,"Ġword":2022,"columns":2023,"package":2024,"Ġreturned":2025,"Ġcopy":2026,"now":2027,"entry":2028,"15":2029,"tric":2030,"fer":2031,"rop":2032,"(**":2033,"Ġpassword":2034,"]['":2035,"Ġplot":2036,"Ġenv":2037,"CE":2038,"est":2039,"parameters":2040,"Ġsearch":2041,"ĠTO":2042,"schema":2043,"DI":2044,"bar":2045,"network":2046,"Add":2047,"Ġobjects":2048,"').":2049,"}'.":2050,"Ġraw":2051,"over":2052,"Ġstruct":2053,"Ġnon":2054,"password":2055,"Frame":2056,"Ġthread":2057,")),":2058,"FA":2059,"Ġitems":2060,"Ġsum":2061,"cle":2062,"Ġremove":2063,"style":2064,"CH":2065,"term":2066,"present":2067,"Ġtitle":2068,"[:,":2069,"quire":2070,"istr":2071,"ĠSet":2072,"vironment":2073,"Ġclo":2074,"Ġab":2075,"Ġtw":2076,"Field":2077,"Config":2078,"extend":2079,"Ġinclude":2080,"Ġsome":2081,"grid":2082,"round":2083,"bit":2084,"left":2085,"ATE":2086,"ility":2087,"ML":2088,"ification":2089,"String":2090,"TTP":2091,"Ġdim":2092,"Ġdescription":2093,"ponse":2094,"Ġmetadata":2095,"batch":2096,"\\\\":2097,"ĠK":2098,"seq":2099,"au":2100,"buffer":2101,"pc":2102,"MP":2103,"weight":2104,"gex":2105,"pol":2106,"difi":2107,"Ġtotal":2108,"comple":2109,"Ġerrors":2110,"wrap":2111,"Ġsorted":2112,"ics":2113,"mag":2114,"tags":2115,"Ġtop":2116,"Ġlink":2117,"Ġter":2118,"ants":2119,"ols":2120,"src":2121,"ĠFor":2122,"cept":2123,"Ġextra":2124,"first":2125,"assed":2126,"Ġlocation":2127,"ui":2128,"ollow":2129,"inst":2130,"ie":2131,"option":2132,"Ġcomm":2133,"rs":2134,"Ġ-------":2135,"ĠPro":2136,"Dict":2137,"cc":2138,"Ġ'/":2139,"Ġregister":2140,"No":2141,"rate":2142,"orig":2143,"Ġdevice":2144,"rule":2145,"show":2146,"Ġsingle":2147,"ANG":2148,"Text":2149,"device":2150,"TH":2151,"ctx":2152,"ash":2153,"13":2154,"The":2155,"ern":2156,"Ġ'-":2157,"Ġoption":2158,"Ġhandle":2159,"Ġbet":2160,"PO":2161,"tuple":2162,"Ġwidth":2163,"Ġsk":2164,"Ġ10":2165,"Ġcom":2166,"gine":2167,"section":2168,"20":2169,")[":2170,"Ġgraph":2171,"lasses":2172,"Path":2173,"layer":2174,"labels":2175,"Request":2176,"my":2177,"ose":2178,"gest":2179,"Ġprovided":2180,"=(":2181,"mber":2182,"let":2183,"ining":2184,"itional":2185,"Ġgen":2186,"ĠUn":2187,"LA":2188,"hed":2189,"Strain":2190,"unter":2191,"Ġafter":2192,"opts":2193,"resp":2194,"Ġfull":2195,"ĠData":2196,"Ġcoord":2197,"idd":2198,"ĠSt":2199,"CT":2200,"raise":2201,"ular":2202,"active":2203,"Hand":2204,"true":2205,"Ġbefore":2206,"saction":2207,"ĠCreate":2208,"edge":2209,"Ġconst":2210,"lice":2211,"very":2212,"vices":2213,"total":2214,"ude":2215,"ript":2216,"sets":2217,"Ġwrap":2218,"ĠAdd":2219,"tails":2220,"mult":2221,"perator":2222,"ween":2223,"'][":2224,"Ite":2225,"ĠReturn":2226,"scale":2227,"Ġinformation":2228,"org":2229,"system":2230,"ĠList":2231,"pattern":2232,"exception":2233,"okup":2234,"Ġawait":2235,"Ġcomple":2236,"ĠDefault":2237,"access":2238,"Ġ'--":2239,"sys":2240,"ret":2241,"Ġstop":2242,"Parser":2243,"24":2244,"Bo":2245,"username":2246,"ĠKeyError":2247,"Ġmeta":2248,"bound":2249,"ait":2250,"warning":2251,"ful":2252,"opt":2253,"Node":2254,"Ġpassed":2255,".\"":2256,",-":2257,"ride":2258,"CON":2259,"af":2260,"Ġdocument":2261,"coord":2262,"Ġdown":2263,"ranch":2264,"Ġexc":2265,"ategory":2266,"Ġlib":2267,"Ġhash":2268,"Ġind":2269,"Ġnetwork":2270,"gress":2271,"Ġmain":2272,"hether":2273,"Ġchunk":2274,"Ġschema":2275,"ĠTODO":2276,"cies":2277,"dist":2278,"Ġsave":2279,"Ġexception":2280,"ĠNot":2281,"acter":2282,"issing":2283,"ling":2284,"exit":2285,"Ġrest":2286,"cret":2287,"redential":2288,"Ġ'\\":2289,"bool":2290,"Ġresp":2291,"utton":2292,"Ġcolumns":2293,"Widget":2294,"medi":2295,"\"],":2296,"lyph":2297,"height":2298,"Sub":2299,"wh":2300,"loop":2301,"Ġtmp":2302,"Ġ',":2303,"KE":2304,"mean":2305,"Ġag":2306,"fs":2307,"Ġstd":2308,"],[":2309,"Ġempty":2310,"ither":2311,"Ġidx":2312,"55":2313,"ason":2314,"Ġpayload":2315,"Ġavailable":2316,"exc":2317,"Ġtri":2318,"Ġconfiguration":2319,"keep":2320,"Ġits":2321,"ULT":2322,"Th":2323,"stdout":2324,"groups":2325,"vals":2326,"TYPE":2327,"alog":2328,"vious":2329,"Form":2330,"Ġview":2331,"Ġrequests":2332,"ĠExample":2333,"ination":2334,"duct":2335,"can":2336,"Ġlambda":2337,"olution":2338,"directory":2339,"ĠAPI":2340,"Ġnodes":2341,"stats":2342,"speci":2343,"SON":2344,"random":2345,"Ġattributes":2346,"Ġencoding":2347,"Ġfin":2348,"Ġnormal":2349,"State":2350,"Ġasync":2351,"iple":2352,"ek":2353,"Ġopt":2354,"Ġ'_":2355,"alid":2356,"domain":2357,"`,":2358,"NAME":2359,"Ġweight":2360,"}\".":2361,"Ġglobal":2362,"matrix":2363,"Ġmatrix":2364,"FF":2365,"Ġ(\"":2366,".,":2367,"Ġedge":2368,"03":2369,"ater":2370,"Ġrule":2371,"Ġcreated":2372,"Ġbin":2373,"vate":2374,"Ġsequence":2375,"ffix":2376,"Ġsend":2377,"Invalid":2378,"TION":2379,"Ġbatch":2380,"zone":2381,"initial":2382,"gument":2383,"thread":2384,"manager":2385,"Ġ):":2386,"dest":2387,"Ġzip":2388,"olve":2389,"18":2390,"Ġshow":2391,"inition":2392,"tmp":2393,"zip":2394,"Ġrandom":2395,"pace":2396,"Ġpattern":2397,"position":2398,"Message":2399,"Ġap":2400,"timestamp":2401,"</":2402,"Ġpost":2403,"Ġfollow":2404,"Ġplt":2405,"Ġ'{":2406,"tect":2407,"sort":2408,"wd":2409,"comment":2410,"rection":2411,"reshold":2412,"pen":2413,"delta":2414,"ensor":2415,"pping":2416,"Event":2417,"Ġsalt":2418,"Ġcli":2419,"Return":2420,"rows":2421,"\"])":2422,"gnore":2423,"Ġdatabase":2424,"rou":2425,"apping":2426,"Ġtree":2427,"Ġhandler":2428,"vider":2429,"entic":2430,"profile":2431,"Ġbeen":2432,"Ġright":2433,"Ġbetween":2434,"posit":2435,"00000":2436,"OG":2437,"Ġcomponent":2438,"Info":2439,"day":2440,"Ġtypes":2441,"Ġpub":2442,"Ġexists":2443,"EL":2444,"vari":2445,"Ġaccess":2446,"Ġ{}\".":2447,"Ġconvert":2448,"python":2449,"errors":2450,"diff":2451,"Ġdataset":2452,"ĠRun":2453,"OT":2454,"sig":2455,"ffi":2456,"window":2457,"conn":2458,"','":2459,"Ġcontaining":2460,"50":2461,"med":2462,"book":2463,"ww":2464,"66":2465,"\"))":2466,"properties":2467,"FAULT":2468,"namespace":2469,"execute":2470,"attrs":2471,"TER":2472,"Response":2473,"Ġexample":2474,"__,":2475,"Ġgo":2476,"itude":2477,"Ġsrc":2478,"aded":2479,"txt":2480,"ĠCheck":2481,"Ġlike":2482,"common":2483,"olean":2484,"Ġrepresent":2485,"19":2486,"words":2487,"Ġcontainer":2488,"ipe":2489,"models":2490,"US":2491,"Ġbound":2492,"Item":2493,"Ġnow":2494,"enu":2495,"Ġ[\"":2496,"serv":2497,"unit":2498,"returns":2499,"ived":2500,"Ġtags":2501,"thing":2502,"requ":2503,"bind":2504,"Ġreference":2505,"import":2506,"Ġloop":2507,"Ġdelete":2508,"side":2509,"Ġconnect":2510,"raint":2511,"dev":2512,"ng":2513,"Ġposition":2514,"Ġtwo":2515,"account":2516,"Ġ\".":2517,"Ġleft":2518,"fra":2519,"]):":2520,"Ġsplit":2521,"normal":2522,"Ġob":2523,"ents":2524,"RA":2525,"prot":2526,"widget":2527,"rec":2528,"Ġdir":2529,"ernel":2530,"pdate":2531,"Ġmask":2532,"Ġpk":2533,"symbol":2534,"=%":2535,"hist":2536,"Ġqueue":2537,"ĠMe":2538,"Ġ7":2539,"ink":2540,"ince":2541,"Ġhere":2542,"Ġforce":2543,"attributes":2544,"Ġren":2545,"coder":2546,"sn":2547,"Ġctx":2548,"Create":2549,"Ġdiffe":2550,"Index":2551,"sv":2552,"Ġdirect":2553,"known":2554,"valu":2555,"zeros":2556,"Ġskip":2557,"Ġusername":2558,"stderr":2559,"Ġip":2560,"chain":2561,"oice":2562,"\"),":2563,":%":2564,"wit":2565,"children":2566,"extra":2567,"rary":2568,"verage":2569,"Ġdepend":2570,"cause":2571,"abs":2572,"river":2573,"samples":2574,"Ġsuccess":2575,"ories":2576,"roll":2577,"interface":2578,"mal":2579,"23":2580,"Ġpoints":2581,"warn":2582,"istry":2583,"Ġcalcul":2584,"Ġconn":2585,"Ġcalled":2586,"Ġlong":2587,"Ġjust":2588,"tach":2589,"component":2590,"chunk":2591,"imp":2592,"ware":2593,"Ġreq":2594,"17":2595,"Ġcustom":2596,"``.":2597,"Size":2598,"Ġsort":2599,"Ġchars":2600,"Ġalso":2601,"lem":2602,"Ġserial":2603,"ĠAttribute":2604,"latform":2605,"Ġdefined":2606,"Ġaccount":2607,"Ġignore":2608,"radi":2609,"shot":2610,"mplemented":2611,"ĠRes":2612,"bot":2613,"oid":2614,"alys":2615,"cker":2616,"Ġsee":2617,"validate":2618,"Ġvari":2619,"Client":2620,"Ġcond":2621,"Le":2622,"TO":2623,"Ġfact":2624,"display":2625,"bl":2626,"VER":2627,"ift":2628,"expr":2629,"('\\":2630,"Ġlayer":2631,"Ġvis":2632,"Model":2633,"board":2634,"place":2635,"uuid":2636,"contro":2637,"ific":2638,"ĠURL":2639,"dataset":2640,"Handler":2641,"Ġverbose":2642,"Ġiss":2643,"Ġlabels":2644,"Ġsix":2645,"ilder":2646,"IO":2647,"fit":2648,"register":2649,"BU":2650,"stead":2651,"Result":2652,"Ġmark":2653,"Ġpython":2654,"bution":2655,"rest":2656,"AB":2657,"itial":2658,"git":2659,"ping":2660,"IT":2661,"Ġreplace":2662,"Ġparsed":2663,"EX":2664,"ĠOptional":2665,"Ġdisplay":2666,"AS":2667,"vars":2668,"aml":2669,"redentials":2670,"extmethods":2671,"cell":2672,"ssible":2673,"ĠDi":2674,"Bu":2675,"29":2676,"Ġexisting":2677,"Ġ{}'.":2678,"email":2679,"stat":2680,"Ġthem":2681,"Ġsa":2682,"80":2683,"100":2684,"Ġheight":2685,"Ġfeature":2686,"curity":2687,"hell":2688,"ĠQt":2689,"tf":2690,"Ġ},":2691,"Ġdon":2692,"Ġfig":2693,"ports":2694,"Ġfailed":2695,"ily":2696,"mount":2697,"67":2698,"ank":2699,"]),":2700,"Sh":2701,"uture":2702,"her":2703,"Ġoriginal":2704,"Ġwindow":2705,"oci":2706,"An":2707,"folder":2708,"upper":2709,"gor":2710,"ĠLOG":2711,"rans":2712,"Speci":2713,"Ġsig":2714,"Ġbyte":2715,"ators":2716,"Ġwant":2717,"By":2718,"ws":2719,"emp":2720,"Ġsection":2721,"Ġpair":2722,"Qu":2723,"payload":2724,"Ġexpected":2725,"Ġunit":2726,"ia":2727,"'}":2728,"Ġwait":2729,"socket":2730,"plugin":2731,"gorith":2732,"repo":2733,"cast":2734,"Ġextmethods":2735,"case":2736,"global":2737,"Ġremote":2738,"head":2739,"cols":2740,"cer":2741,"Ġstyle":2742,"attribute":2743,"('-":2744,"User":2745,"eded":2746,"Ġrows":2747,"scope":2748,"sequence":2749,"Ġ'{}":2750,"Lay":2751,"ves":2752,"enter":2753,"depth":2754,"Ġsignal":2755,"28":2756,"cho":2757,"ĠLo":2758,"UE":2759,"Ġstore":2760,"empty":2761,"sport":2762,"seconds":2763,"Ġunique":2764,"Comp":2765,"Ġopts":2766,"plo":2767,"trics":2768,"Ġmod":2769,"ĠPython":2770,"60":2771,"Ġmissing":2772,"Ġ\"\\":2773,"leep":2774,"ian":2775,"termin":2776,"rough":2777,"encies":2778,"cked":2779,"pair":2780,"ĠSee":2781,"year":2782,"Ġprofile":2783,"encoding":2784,"lative":2785,"Ġproperties":2786,"Ġoperation":2787,"ffect":2788,"Ġvariables":2789,"repr":2790,"ero":2791,"HE":2792,"pool":2793,"Out":2794,"dumps":2795,"site":2796,"indices":2797,"Or":2798,"alysis":2799,"Context":2800,"ĠAttributeError":2801,"ared":2802,"Ġsystem":2803,"tax":2804,"ATI":2805,"lated":2806,"operation":2807,"ĠRa":2808,"27":2809,"Ġconf":2810,"Ġelements":2811,"auto":2812,"https":2813,"ered":2814,"Ġeither":2815,"dirs":2816,"interval":2817,"Ġfail":2818,"ven":2819,"light":2820,"Ġgenerate":2821,"tail":2822,"pository":2823,"IP":2824,"idden":2825,"Ġpd":2826,"Ġinstead":2827,"respon":2828,"ersion":2829,"insert":2830,"environ":2831,"NT":2832,"Ġinteger":2833,"pid":2834,"cut":2835,"transform":2836,"olver":2837,"ites":2838,"Ġtimestamp":2839,"ĠYANG":2840,"Ġunicode":2841,"ĠIt":2842,"ority":2843,"Ġ9":2844,"IG":2845,"Found":2846,"desc":2847,"Ġregion":2848,"identifier":2849,"leg":2850,"sid":2851,"loads":2852,"Ġbecause":2853,"parts":2854,"Ġsocket":2855,"depend":2856,"He":2857,"allow":2858,"policy":2859,"Ġpe":2860,"05":2861,"ground":2862,"Ġsim":2863,"ithub":2864,"proxy":2865,"non":2866,"cfg":2867,"poch":2868,"ĠName":2869,"Ġextract":2870,"bits":2871,"Ġfn":2872,"Ġdomain":2873,"_,":2874,"Ġmon":2875,"Ġsymbol":2876,"Ġplugin":2877,"Ġxml":2878,"ET":2879,"aly":2880,"nt":2881,"cursor":2882,"trace":2883,"lish":2884,"Group":2885,"required":2886,"('/":2887,"Ġstrings":2888,"ĠTo":2889,"cluster":2890,"way":2891,"fin":2892,"score":2893,"lied":2894,"MO":2895,"long":2896,"features":2897,"andid":2898,"ango":2899,"dt":2900,"flags":2901,"NO":2902,"help":2903,"sq":2904,"Ġsupported":2905,"ighb":2906,"clean":2907,"cheme":2908,"document":2909,"KEY":2910,"classes":2911,"Ġscale":2912,"alled":2913,"used":2914,"Ġrece":2915,"lap":2916,"SC":2917,"Ġimp":2918,"hex":2919,".'":2920,"()))":2921,"Ġdebug":2922,"mbers":2923,"Ġge":2924,"cert":2925,"ĠNote":2926,"gorithm":2927,"Ġclean":2928,"fetch":2929,"strict":2930,"Ġseconds":2931,"abel":2932,"optional":2933,"ivity":2934,"URL":2935,"ured":2936,"Ġwhether":2937,"Ġthey":2938,"Ġabs":2939,"Ġprevious":2940,"storage":2941,"ogle":2942,"Ġspec":2943,"andard":2944,"Ġvalidate":2945,"Ġbased":2946,"Inter":2947,"signal":2948,"ould":2949,"__()":2950,"34":2951,"commit":2952,"Ġhttps":2953,"gre":2954,"Ġendpoint":2955,"Ġproperty":2956,"tom":2957,"={}":2958,"vision":2959,"region":2960,"Ġkeep":2961,"mbed":2962,"eno":2963,"ĠHTTP":2964,"Ġattrs":2965,"30":2966,"Array":2967,"Ġmean":2968,"tokens":2969,"adding":2970,"SO":2971,"ignment":2972,"ailed":2973,"DB":2974,"reference":2975,"serialize":2976,"entity":2977,"[:-":2978,"Ġsecond":2979,"Ġcell":2980,"esc":2981,"ĠJSON":2982,"Ġextensions":2983,"Ġ100":2984,"Base":2985,"('--":2986,"Ġmy":2987,"secret":2988,"At":2989,"('%":2990,"dr":2991,"ways":2992,"ier":2993,"Py":2994,"Ġdefining":2995,"Check":2996,"Ġbuf":2997,"()):":2998,"sql":2999,"asure":3000,"Ġcluster":3001,"lab":3002,"Ġflag":3003,"__)":3004,"feature":3005,"API":3006,"Dyn":3007,"ises":3008,"any":3009,"Ġstack":3010,"Ġcontains":3011,"Ġmultiple":3012,"remote":3013,"Ġmerge":3014,"ced":3015,"Box":3016,"Ġcursor":3017,"dified":3018,"Ġtransform":3019,"Ġotherwise":3020,"Content":3021,"report":3022,"Ġlat":3023,"rel":3024,"DEFAULT":3025,"Ġgrid":3026,"press":3027,"expected":3028,"Ġpol":3029,"cb":3030,"apshot":3031,"Ġseq":3032,"math":3033,"verbose":3034,"img":3035,"ored":3036,"Ġstri":3037,"Ġbot":3038,"UR":3039,"Ġ),":3040,"curs":3041,"ĠET":3042,"logging":3043,"moved":3044,"Ġwarn":3045,"csv":3046,"changed":3047,"dims":3048,"unicode":3049,"Ġparts":3050,"TR":3051,"mgmt":3052,"requency":3053,"Ġdifferent":3054,"angle":3055,"Ġscope":3056,"inates":3057,"App":3058,"just":3059,"Ġindent":3060,"Ġflags":3061,"cloud":3062,"rag":3063,"endpoint":3064,"GET":3065,"numpy":3066,"mapping":3067,"pl":3068,"Ġmapping":3069,"endswith":3070,"201":3071,"IL":3072,"hook":3073,"iew":3074,"Line":3075,"ggreg":3076,"Ġsn":3077,"OP":3078,"tered":3079,"metric":3080,"actions":3081,"Ġus":3082,"Ġencode":3083,"Auth":3084,"ED":3085,"Ġdisable":3086,"ilter":3087,"ended":3088,"izes":3089,"Ġinvalid":3090,"variables":3091,"Ġcorrespon":3092,"Ġ\"{":3093,"chedule":3094,"Format":3095,"Ġyour":3096,"lim":3097,"prec":3098,"UP":3099,"Ġfollowing":3100,"(\"%":3101,"fd":3102,"ndarray":3103,"PAT":3104,"Ġdistance":3105,"ĠSer":3106,"trie":3107,"buf":3108,"tract":3109,"arr":3110,"convert":3111,"custom":3112,"Ġcorrect":3113,"witch":3114,"Ġ((":3115,"cores":3116,"ĠRuntime":3117,"argv":3118,"Ġgra":3119,"ice":3120,"az":3121,"sec":3122,"alpha":3123,"release":3124,"(\"\\":3125,"asic":3126,"Ġadded":3127,"Ġsent":3128,"(-":3129,"()[":3130,"backend":3131,"unique":3132,"include":3133,"/{":3134,"jango":3135,"fill":3136,"where":3137,"Ġenvironment":3138,"real":3139,"norm":3140,"Ġmessages":3141,"44":3142,"crypt":3143,"-%":3144,"dirname":3145,"ĠEn":3146,"Ġfit":3147,"els":3148,"Ġmatches":3149,"Ġkeyword":3150,"ĠZ":3151,"SP":3152,"Ġ\",":3153,"Ġconver":3154,"ision":3155,"cap":3156,"collection":3157,"factory":3158,"spect":3159,"Ġinterface":3160,"'\\":3161,"center":3162,"/%":3163,"SH":3164,"gp":3165,"Ġrepo":3166,"``,":3167,"vo":3168,"Ġspecify":3169,"Ġtrace":3170,"Ġdefaults":3171,"Ġboth":3172,"defaults":3173,"uted":3174,"Ġ\"_":3175,"Ġalpha":3176,"FO":3177,"ĠDE":3178,"88":3179,"oices":3180,"AP":3181,"ĠComp":3182,"until":3183,"22":3184,"================":3185,"spe":3186,"Ġidentifier":3187,"property":3188,"ERR":3189,"Ġtake":3190,"byte":3191,"iod":3192,"ration":3193,"tex":3194,"alle":3195,"Ġbit":3196,"Failed":3197,"Code":3198,"sm":3199,"uplic":3200,"pare":3201,"ences":3202,"Pre":3203,"DynClass":3204,"states":3205,"ross":3206,"Sy":3207,"Ġbuffer":3208,"application":3209,"salt":3210,"author":3211,"PRO":3212,"Ġscript":3213,"Ġreport":3214,"Ġtrue":3215,"inputs":3216,"Ġrender":3217,"Ġpaths":3218,"Ġ})":3219,"database":3220,"success":3221,"Ġfinal":3222,"Ġindic":3223,"atio":3224,"force":3225,"-+":3226,"pted":3227,"ĠWh":3228,"DF":3229,"Ġstats":3230,":`~":3231,"units":3232,"Date":3233,"Ġpossible":3234,"cla":3235,"Run":3236,"Ġsepar":3237,"Ġexpression":3238,"ense":3239,"safe":3240,"Ġentity":3241,"stim":3242,"card":3243,"Ġstdout":3244,"Ġcollection":3245,"Ġfix":3246,"kind":3247,"Ġ\"/":3248,"Ġsamples":3249,"archive":3250,"Per":3251,"events":3252,"Ġtokens":3253,"Ġsure":3254,"clear":3255,"}'":3256,"Ġpipe":3257,"Loc":3258,"ynam":3259,"uint":3260,"ulation":3261,"Session":3262,"fail":3263,"__['":3264,"Ġsite":3265,"sync":3266,"Ġcert":3267,"draw":3268,"ĠOr":3269,"65":3270,"Ġcannot":3271,"GER":3272,"parameter":3273,"Ġindices":3274,"ze":3275,"licit":3276,"Reg":3277,"proto":3278,"Ġpop":3279,"exce":3280,"language":3281,"Ġthrough":3282,"Ġdt":3283,"patch":3284,"pix":3285,"ĠStr":3286,"na":3287,"bab":3288,"ĠRuntimeError":3289,"Input":3290,"QL":3291,"Ġcallable":3292,"utable":3293,"ĠUse":3294,"Argument":3295,"ik":3296,"Ġimg":3297,"tc":3298,"ire":3299,"pb":3300,"volume":3301,"Ġ_,":3302,"Ġsyn":3303,"Ġdecor":3304,"Ġow":3305,"Ġemail":3306,"nan":3307,"Read":3308,"Man":3309,"Species":3310,"vm":3311,"Image":3312,"ignore":3313,"imer":3314,"Ġvolume":3315,"factor":3316,"ker":3317,"setup":3318,"Ġdoesn":3319,"Map":3320,"umbers":3321,"Dis":3322,"lers":3323,"Ġtr":3324,"Ġdelta":3325,"Ġda":3326,"period":3327,"Ġmaximum":3328,"ending":3329,"Ġty":3330,"35":3331,"sure":3332,"nly":3333,"tab":3334,"Ġevery":3335,"Ġnote":3336,"ives":3337,"series":3338,"agent":3339,"Ġallowed":3340,"Ġrunning":3341,"mac":3342,"aries":3343,"__.":3344,"jobs":3345,"itive":3346,"role":3347,"37":3348,"master":3349,"}.":3350,"Ġ-=":3351,"mpt":3352,"ness":3353,"Ġhist":3354,"SION":3355,"FILE":3356,"lug":3357,"AM":3358,"lush":3359,"Ġdone":3360,"CK":3361,"compile":3362,"ffici":3363,"Ġsince":3364,"dat":3365,"Ġassoci":3366,"button":3367,"prop":3368,"periment":3369,"Ġutils":3370,"times":3371,"Ġauto":3372,"Ġwithout":3373,"complete":3374,"ĠFile":3375,"################":3376,"Ġthese":3377,"layout":3378,"gments":3379,"imple":3380,"ged":3381,"tools":3382,"68":3383,"Table":3384,"Ġour":3385,"win":3386,"Ġstat":3387,"regex":3388,"pipe":3389,"route":3390,"Ġlook":3391,"counter":3392,"Ġexit":3393,"tt":3394,"Count":3395,"ificate":3396,"(['":3397,"'''":3398,"arguments":3399,"Ġapply":3400,"skip":3401,"Ġclose":3402,"From":3403,"vas":3404,"flag":3405,"Qt":3406,"merge":3407,"ually":3408,"vide":3409,"Ġpresent":3410,"Ġasyn":3411,"eric":3412,"kets":3413,"Service":3414,"fname":3415,"bucket":3416,"install":3417,"andas":3418,"cessed":3419,"View":3420,"ATION":3421,"fast":3422,"__.__":3423,"protocol":3424,"leted":3425,"Ġuri":3426,"}\\":3427,"Ġdistri":3428,"ĠRaises":3429,"amily":3430,"Ġast":3431,"({'":3432,"admin":3433,"Ġloc":3434,"fmt":3435,"glyph":3436,"ient":3437,"Version":3438,"Ġmemory":3439,"Ġhigh":3440,"cii":3441,"extract":3442,"services":3443,"Ġevents":3444,"Ġbeing":3445,"ferences":3446,"Ġcomment":3447,"Ġappro":3448,"ams":3449,"Ġ\"--":3450,"Ġlanguage":3451,"Ġkw":3452,"ĠYANGDynClass":3453,"ĠGener":3454,"render":3455,"ru":3456,"ength":3457,"font":3458,"rl":3459,"Ġcould":3460,"hy":3461,"sleep":3462,"perations":3463,"lux":3464,"Ġinputs":3465,"Ġtheir":3466,"relation":3467,"={'":3468,"ux":3469,"sl":3470,"Call":3471,"vec":3472,"chron":3473,"Ġwithin":3474,"member":3475,"Ġ'')":3476,"Process":3477,"Ġaut":3478,"cimal":3479,"Ġchain":3480,"Ġsetup":3481,"elements":3482,"Ġfinally":3483,"alias":3484,"Ġ##":3485,"steps":3486,"pter":3487,"memory":3488,"sep":3489,"public":3490,"Ġmetric":3491,"For":3492,"distance":3493,"Ġ%(":3494,"End":3495,"ish":3496,"Ġspace":3497,"Ġmethods":3498,"Ġinstall":3499,"quires":3500,"Ġ,":3501,"Status":3502,"gb":3503,"Ġsupport":3504,"resources":3505,"less":3506,"Ġart":3507,"Ġstorage":3508,"Ġ\"{}":3509,"****":3510,"Tag":3511,"Ġvector":3512,"cluded":3513,"ilt":3514,"]+":3515,"Ġ\"-":3516,"tk":3517,"filters":3518,"ĠAny":3519,"Connection":3520,"gate":3521,"miss":3522,"docs":3523,"Ġzero":3524,"Ġfont":3525,"Ġannot":3526,"ĠNo":3527,"Ġsetattr":3528,"Ġpix":3529,"etri":3530,"Ġwidget":3531,"reset":3532,"modules":3533,"Ġbest":3534,"Ġabout":3535,"ENT":3536,"lookup":3537,"generate":3538,"ars":3539,"coe":3540,"ĠCh":3541,"enabled":3542,"75":3543,"null":3544,"vs":3545,"chine":3546,"ified":3547,"rf":3548,"().__":3549,"ters":3550,"rb":3551,"Ġdepth":3552,"dio":3553,"09":3554,"200":3555,"UM":3556,"sym":3557,"Column":3558,"HTTP":3559,"Ġdesc":3560,"Ġhtml":3561,"Ġspecific":3562,"69":3563,".*":3564,"olute":3565,"sist":3566,"Ġdownload":3567,"Ġfolder":3568,"Ġsuch":3569,"Ġlower":3570,"Ġtimes":3571,"Ġreal":3572,"Ġcompute":3573,"Ġwrit":3574,"}\"":3575,"Ġagain":3576,"Action":3577,"ometry":3578,"45":3579,"flat":3580,"tick":3581,"exceptions":3582,"49":3583,"ha":3584,"Ġsm":3585,"Ġequal":3586,"LOG":3587,"Ġauthor":3588,"login":3589,"after":3590,"Instance":3591,"okie":3592,"Valid":3593,"layers":3594,"ĠIP":3595,"cf":3596,"ĠIN":3597,"Ġhow":3598,"Ġsql":3599,"uter":3600,"Ġbranch":3601,"rtual":3602,"Number":3603,"zero":3604,"ene":3605,"Ġconstruct":3606,"apply":3607,"Ġproxy":3608,"Ġregex":3609,"summary":3610,"Ġweights":3611,"indent":3612,"ES":3613,"hes":3614,"ines":3615,"Ġrole":3616,"Al":3617,"DS":3618,"ues":3619,"39":3620,"stru":3621,"}{":3622,"lack":3623,"Ġterm":3624,"Cur":3625,"lon":3626,"span":3627,"Command":3628,"termine":3629,"('.":3630,"rece":3631,"Ġrequire":3632,"sole":3633,")\"":3634,"heet":3635,"Ġextension":3636,"Ġwhat":3637,"drop":3638,"tool":3639,"*(":3640,"Ġpool":3641,"Ġ))":3642,"weights":3643,"links":3644,"Ġgroups":3645,"QU":3646,"ERROR":3647,"Gener":3648,"hs":3649,"VAL":3650,"Ġfeatures":3651,"Ġscore":3652,"PATH":3653,"pad":3654,"()]":3655,"ALL":3656,"Ġ//":3657,"Ġunder":3658,"OL":3659,"month":3660,"this":3661,"lint":3662,"rer":3663,"Ġprop":3664,"Ġsignature":3665,"ORM":3666,"rand":3667,"counts":3668,"sim":3669,"ving":3670,"engine":3671,"spath":3672,"binary":3673,"ĠIO":3674,"ower":3675,"Ġwrapper":3676,"Log":3677,"nn":3678,"Ġactual":3679,"Ġstructure":3680,"Ġprotocol":3681,"Ġoperator":3682,"Ġcontents":3683,"curren":3684,"Ġperiod":3685,"category":3686,"dia":3687,"ancel":3688,"Ġfill":3689,"served":3690,"cos":3691,"Ġdecode":3692,"Ġfmt":3693,"Ġmath":3694,"alk":3695,"38":3696,"Ġrelative":3697,"SubElement":3698,"ases":3699,"_.":3700,"tries":3701,"igned":3702,"missions":3703,"contents":3704,"Ġmodels":3705,"cont":3706,"messages":3707,"ensity":3708,"Ġplace":3709,"Tra":3710,"_{":3711,"Layout":3712,"Ġsubprocess":3713,"Ġ16":3714,"axes":3715,"Ġactive":3716,"ä¸":3717,"Do":3718,"Ġtx":3719,"Ġchanges":3720,"{}'.":3721,"ulate":3722,"ĠUser":3723,"Ġjoin":3724,"__(**":3725,"=_":3726,"eq":3727,"sha":3728,"short":3729,"Ġsegment":3730,"DataFrame":3731,"Ġpad":3732,"Token":3733,"amma":3734,"Ext":3735,"bed":3736,"pan":3737,"Ġdetails":3738,"Ġfp":3739,"filepath":3740,"Ġreverse":3741,"commands":3742,"Ġprev":3743,"Start":3744,"Ġclick":3745,"details":3746,"ploy":3747,"vers":3748,"Ġ'*":3749,"Ġupdated":3750,"Query":3751,"Returns":3752,"Ġbucket":3753,"leaf":3754,"Ġcre":3755,"uting":3756,"ĠIndex":3757,"getattr":3758,"Ġmatching":3759,"github":3760,"AGE":3761,"ely":3762,"Ġfilters":3763,"channels":3764,"lex":3765,"history":3766,"none":3767,"ĠDo":3768,"08":3769,"Ġang":3770,"Ġ[])":3771,"ished":3772,"blem":3773,"multi":3774,"Ġmulti":3775,"gy":3776,"Label":3777,"Ac":3778,"ND":3779,"entication":3780,"77":3781,"Iter":3782,")])":3783,"osition":3784,"branch":3785,"als":3786,"Ġinterval":3787,"Update":3788,"POST":3789,"sted":3790,"ĠRE":3791,"Desc":3792,"suffix":3793,"threshold":3794,"lections":3795,"Ġneeded":3796,"syn":3797,"download":3798,"mut":3799,"Ġbackend":3800,"\"\\":3801,"Ġ'',":3802,"scribe":3803,"lain":3804,"slice":3805,"tensor":3806,"Ġapplication":3807,"expand":3808,"Ġretrie":3809,"Ġexclude":3810,"Ġroute":3811,"Ġentries":3812,"Ġ(%":3813,"setdefault":3814,"created":3815,"Point":3816,"rpc":3817,"rol":3818,"voc":3819,"Ġbinary":3820,"sqrt":3821,"example":3822,"\"]:":3823,"Of":3824,"Ġwould":3825,"\",\"":3826,"Ġfunctions":3827,"ĠValid":3828,"Ġboolean":3829,"rp":3830,"reshape":3831,"acters":3832,"ller":3833,"basename":3834,"Ġalways":3835,"Ġretry":3836,"Ġamount":3837,"unpack":3838,"Ġexpr":3839,"Ġcomplete":3840,"Ġim":3841,"Ġdestination":3842,"icle":3843,"Trans":3844,"ressed":3845,"ĠConfig":3846,"-+-+":3847,"web":3848,"Ġwarnings":3849,"Ġ201":3850,"48":3851,"Ġradi":3852,"CS":3853,"']))":3854,"ssl":3855,"Ġ'<":3856,"vector":3857,"mot":3858,"Ġfetch":3859,"Resource":3860,"edges":3861,"provider":3862,"Ġcorresponding":3863,"Ġ200":3864,"Ġho":3865,"ife":3866,"STR":3867,"Ġunits":3868,"SER":3869,"Ġseries":3870,"ount":3871,"Ġinstances":3872,"logy":3873,"Ġadditional":3874,"=\"\"":3875,"ascii":3876,"edit":3877,"reen":3878,"\"].":3879,"mar":3880,"Ġoc":3881,"='',":3882,"VE":3883,"expression":3884,"ĠOS":3885,"inf":3886,"Ġdraw":3887,"area":3888,"Ġchildren":3889,"come":3890,"omatic":3891,"js":3892,"ĠCol":3893,"Attribute":3894,"ĠCal":3895,",)":3896,"tore":3897,"loaded":3898,"colors":3899,"sorted":3900,":\\":3901,"tact":3902,"writer":3903,"tz":3904,"coords":3905,"Ġsuffix":3906,"duration":3907,"missing":3908,"images":3909,"Ġdimension":3910,"Ġtrain":3911,"ĠPath":3912,"BUG":3913,"dl":3914,"defined":3915,"invalid":3916,".)":3917,"maining":3918,"Ġcommon":3919,"Ġ{},":3920,"codes":3921,"Ġappend":3922,"Ġstderr":3923,"Ġyear":3924,"reader":3925,"Tree":3926,")'":3927,"Ġcfg":3928,"enum":3929,"track":3930,"Ġwho":3931,"ather":3932,"qa":3933,"meth":3934,"Ġoptim":3935,"MS":3936,"quences":3937,"ailf":3938,"Ġsetting":3939,"freq":3940,"Ġremoved":3941,"Ġevalu":3942,"Ġcomb":3943,"cm":3944,"UB":3945,"Ġbox":3946,"Ġbind":3947,"des":3948,"uring":3949,"Policy":3950,"Ġassume":3951,"high":3952,"second":3953,"ATA":3954,"Ġkernel":3955,"Ġhead":3956,"ACK":3957,"lear":3958,"cu":3959,"Ġfra":3960,"Ġpr":3961,"VI":3962,"cing":3963,"WS":3964,"ĠInvalid":3965,"AG":3966,"Ġrec":3967,"Ġensure":3968,"deredDict":3969,"Ġsym":3970,"Ġshort":3971,"fp":3972,"obs":3973,"tion":3974,"Manager":3975,"Ġdistribution":3976,"loss":3977,"Ġperform":3978,":-":3979,"Ġreason":3980,"ĠPer":3981,"ABLE":3982,"Ġmag":3983,"Ġfast":3984,"Ġ'__":3985,"Ġprivate":3986,"Ġprogress":3987,"Block":3988,"culate":3989,"changes":3990,"Ġnd":3991,"before":3992,"percent":3993,"Ġ{})":3994,"cd":3995,"tty":3996,"Ġaxes":3997,"%(":3998,"Ġcat":3999,"Ġiterable":4000,"writ":4001,"Ġrel":4002,"eval":4003,"seed":4004,"Ġday":4005,"mpls":4006,"Stream":4007,"Ġimages":4008,"signature":4009,"Ro":4010,"Ġassociated":4011,"utor":4012,"Ġlock":4013,"Button":4014,"undle":4015,"urface":4016,"IC":4017,"Ġ[],":4018,"07":4019,"PC":4020,"final":4021,"ship":4022,"Ġ[(":4023,"raises":4024,"\").":4025,"segment":4026,"istics":4027,"Source":4028,"acy":4029,"ones":4030,"menu":4031,"platform":4032,"Ġkind":4033,"SET":4034,"dec":4035,"ĠWhen":4036,"\"][\"":4037,"activ":4038,"Ġestim":4039,"hostname":4040,"Ġcategory":4041,"Ġ<<":4042,"days":4043,"Ġalias":4044,"google":4045,"Ġpick":4046,"partition":4047,"Ġdst":4048,"],[-":4049,"iteritems":4050,"Ġselected":4051,"gt":4052,"Ġtransaction":4053,"256":4054,"inv":4055,"arm":4056,"(__":4057,"Filter":4058,"ons":4059,"Ġverify":4060,"Ġexecute":4061,"tasks":4062,"specifi":4063,"Ġsubject":4064,"dst":4065,"configuration":4066,"NS":4067,"ZE":4068,"xx":4069,"Ġli":4070,"product":4071,"formed":4072,"ĠString":4073,"control":4074,"TIME":4075,"Ġtrack":4076,"running":4077,"Fe":4078,"gative":4079,"Ġfname":4080,"static":4081,"arted":4082,"Ġweb":4083,"icro":4084,"Ġslice":4085,"Ġglyph":4086,"cesses":4087,"INT":4088,"Ġexceptions":4089,"}}":4090,"Ġvia":4091,"Ġcommit":4092,"Temp":4093,"subject":4094,"amount":4095,"resses":4096,"Graph":4097,"BA":4098,"Ġrequested":4099,"redu":4100,"Server":4101,"proc":4102,"Ġrecords":4103,"Level":4104,"metrics":4105,"nb":4106,"istered":4107,"rules":4108,"verify":4109,"raints":4110,"oms":4111,",'":4112,"www":4113,"Ġcp":4114,"Ġstored":4115,"Ġdefinition":4116,"chronous":4117,"untry":4118,"Ġutil":4119,"Ġoverride":4120,"ĠQu":4121,"Ġmember":4122,"Ġpylint":4123,"Ġuntil":4124,"Ġflat":4125,"beta":4126,"Ed":4127,"Ġpolicy":4128,"Ġcommands":4129,"rm":4130,"Ġrelease":4131,"Window":4132,"single":4133,"Ġpacket":4134,"private":4135,":])":4136,"oriz":4137,"__(*":4138,"Mode":4139,"Ġchanged":4140,"etwork":4141,"sock":4142,"Ġpkg":4143,"ĠInitial":4144,"digest":4145,"Color":4146,"Ġcoordinates":4147,"Ġnoqa":4148,"pkg":4149,"actor":4150,"ii":4151,"sigma":4152,"'re":4153,"ynamic":4154,"Record":4155,"registry":4156,"END":4157,"Ġsav":4158,"Ġnamed":4159,"Ġmeans":4160,"ops":4161,"condition":4162,"Ġwere":4163,"Default":4164,"Ġcondition":4165,"entries":4166,"Ġcharacter":4167,"36":4168,"gno":4169,"Ġ\"\",":4170,"Ġ$":4171,"andidate":4172,"We":4173,"Ġdat":4174,"95":4175,"Implemented":4176,"astype":4177,"Ġgenerator":4178,"serializer":4179,"ĠTime":4180,"NotFound":4181,"Ġmu":4182,"ral":4183,"ache":4184,"Ġneeds":4185,"Ġleast":4186,"lip":4187,"note":4188,"bove":4189,"abspath":4190,"Ġtensor":4191,"faces":4192,"retry":4193,"tempt":4194,"26":4195,"Ġctypes":4196,"Ġcy":4197,"Ġstandard":4198,"40":4199,"Ġpublic":4200,"compute":4201,"atom":4202,"Could":4203,"cpu":4204,")/":4205,"mu":4206,"Ġids":4207,"ĠUpdate":4208,"ationError":4209,"ĠMake":4210,"ĠNumber":4211,"IS":4212,"Ġcoe":4213,"scriptor":4214,"upload":4215,"require":4216,"Ġgenerated":4217,")*":4218,"Ġway":4219,"As":4220,"ili":4221,"blocks":4222,")).":4223,"firm":4224,"tn":4225,"found":4226,"atches":4227,"exclude":4228,"Ġ')":4229,"driver":4230,"OK":4231,"users":4232,"}:":4233,"Ġmar":4234,"ĠAl":4235,"progress":4236,"Ġcompat":4237,"conv":4238,"CP":4239,">'":4240,"uff":4241,"Ġmost":4242,"cio":4243,"Mo":4244,"quote":4245,"sources":4246,"Ġaddr":4247,"Ġredirect":4248,"isfile":4249,"environment":4250,"(',":4251,"sumer":4252,"Initial":4253,"operator":4254,"components":4255,"ifest":4256,"flush":4257,"Ġnorm":4258,"Ġfd":4259,"Ġupload":4260,"velo":4261,"Ġfactor":4262,"Ġwx":4263,"shift":4264,"original":4265,"home":4266,"Ġdirection":4267,"Ġsupp":4268,"delay":4269,"generator":4270,"ĠArgument":4271,"Ġprobab":4272,"Ġlookup":4273,"Function":4274,"jor":4275,"fun":4276,"Ġrepr":4277,"Ġspe":4278,"Ġrate":4279,"ORD":4280,"done":4281,"Ġinsert":4282,"band":4283,"Ġcharacters":4284,"iler":4285,"outputs":4286,"available":4287,"ĠNotImplemented":4288,"Be":4289,"ĠExamples":4290,"Ġreset":4291,"Gui":4292,"Ġorigin":4293,"hour":4294,"Ġtermin":4295,"ĠBu":4296,"Ġengine":4297,"HT":4298,"Ġproduct":4299,"Ġbits":4300,"ĠNO":4301,"hidden":4302,"utc":4303,"GS":4304,"sd":4305,"scheme":4306,"ger":4307,"56":4308,"ells":4309,"Exec":4310,"Parse":4311,"Ġput":4312,"assert":4313,"origin":4314,"olved":4315,"plotlib":4316,"Ġupper":4317,"ada":4318,"]*":4319,"spaces":4320,"IF":4321,"Ġredu":4322,"bounds":4323,"grade":4324,"'\"":4325,"Ġfuture":4326,"erature":4327,"ression":4328,"Ġmany":4329,"pto":4330,"DIR":4331,"epoch":4332,"records":4333,"Ġflow":4334,"CA":4335,"This":4336,"ĠIOError":4337,"PRE":4338,"worker":4339,"Ġgot":4340,"oom":4341,".',":4342,"Ġcenter":4343,"Contro":4344,"LIN":4345,"Ġcredentials":4346,"alance":4347,"urse":4348,"elem":4349,"ibility":4350,"lots":4351,"ĠOther":4352,"Address":4353,"targets":4354,"members":4355,"ategories":4356,"best":4357,"58":4358,"sired":4359,"Ġder":4360,"Ġrepresentation":4361,"Clo":4362,"clus":4363,"Ġinteg":4364,"Ġdetect":4365,"ĠSh":4366,"cursive":4367,"Ġinspect":4368,"ĠApp":4369,"Ġside":4370,"cr":4371,"cel":4372,"Ġimplement":4373,"Load":4374,"rain":4375,"Ġseed":4376,"definition":4377,"Output":4378,"}/":4379,"Change":4380,"ĠDefaults":4381,"ĠDict":4382,"47":4383,"kernel":4384,"icon":4385,"Ġelem":4386,"Ġthreshold":4387,"MM":4388,"matches":4389,"Ġalgorithm":4390,"transaction":4391,"Ġrot":4392,"cessary":4393,"Ġstates":4394,"ga":4395,"gene":4396,")}":4397,"ĠAs":4398,"Ġclasses":4399,"otype":4400,"ices":4401,"yaml":4402,"Ġns":4403,"servation":4404,"br":4405,"Ġmaster":4406,"Logger":4407,"Ġinternal":4408,"attrib":4409,"yg":4410,");":4411,"div":4412,"PUT":4413,"Ġdisk":4414,"bins":4415,"']]":4416,"=['":4417,"holder":4418,"AND":4419,"Ġans":4420,"Cannot":4421,"1000":4422,"scan":4423,"Ġrepresenting":4424,"selected":4425,"arge":4426,"Ġcontrol":4427,"mk":4428,"--------------------------------":4429,"Unknown":4430,"Ġsigma":4431,"Ġresources":4432,"Ġcalculate":4433,"ferred":4434,"inate":4435,"ueue":4436,"('_":4437,"concat":4438,"owner":4439,"builder":4440,"lev":4441,"unch":4442,"Doc":4443,"Device":4444,"presen":4445,"rot":4446,"BO":4447,"Ġshell":4448,"SA":4449,"topic":4450,"ber":4451,"Ad":4452,"ulti":4453,"aut":4454,"ively":4455,"ectors":4456,"PAR":4457,"tile":4458,"Ġpadding":4459,"dify":4460,"Ġsummary":4461,"mem":4462,"ĠError":4463,"ttp":4464,"Ġ*,":4465,"prev":4466,"Ġduration":4467,".\",":4468,"Ġedges":4469,"Ġdump":4470,"Ġ1000":4471,"samp":4472,"=-":4473,"loader":4474,"fc":4475,"precated":4476,"Ġcounter":4477,"(\\":4478,"IM":4479,"Const":4480,"structure":4481,"Ġpairs":4482,"ĠBy":4483,"neighb":4484,"oto":4485,"struction":4486,"ilities":4487,"phi":4488,"Ġcap":4489,"Ġbro":4490,"begin":4491,"ĠBase":4492,")\\":4493,"Ġusers":4494,"extension":4495,"ORT":4496,"Ġ12":4497,"added":4498,"serve":4499,"Ġminimum":4500,"SIZE":4501,"pg":4502,"strings":4503,"push":4504,"Ġ20":4505,"Ġsamp":4506,"ĠCLI":4507,"exist":4508,"Method":4509,"cocc":4510,"COL":4511,"Ġbegin":4512,">`":4513,"Ġwords":4514,"ouble":4515,"Ġdecorator":4516,"coccus":4517,"ilar":4518,"Ġencoded":4519,"Hel":4520,"Ġactions":4521,"dimension":4522,"')[":4523,"distri":4524,"correct":4525,"lineno":4526,"Ġmonth":4527,"asset":4528,"Ġlibrary":4529,"Warning":4530,"Ġau":4531,"async":4532,"Ġsuccessful":4533,"86":4534,"Ġ#:":4535,"zy":4536,"Sc":4537,"Ġio":4538,"Act":4539,"plan":4540,"td":4541,"Def":4542,"striction":4543,"Ġspa":4544,"System":4545,"_)":4546,"ĠImport":4547,"Ġgene":4548,"diag":4549,"Ġworker":4550,"sity":4551,"On":4552,"FIG":4553,"Ġ':":4554,"ĠRead":4555,"_%":4556,"lank":4557,"ĠOnly":4558,"Params":4559,"iso":4560,"ssh":4561,"Link":4562,"gnored":4563,"Ġrepository":4564,"Ġdirectly":4565,"Cal":4566,"handlers":4567,"free":4568,"21":4569,"ridge":4570,"transport":4571,"epcopy":4572,"Su":4573,"ĠCommand":4574,"(?":4575,"mediate":4576,"limiter":4577,"Ġpid":4578,"Ġrelation":4579,"usage":4580,"Ġhy":4581,"Ġlayout":4582,"Ġtoo":4583,"initions":4584,"Ġvariant":4585,"parsed":4586,"unknown":4587,"Ġgit":4588,"variant":4589,"06":4590,"inner":4591,"Ġaccept":4592,")',":4593,"lis":4594,"ava":4595,"urls":4596,"esca":4597,"ogram":4598,"]])":4599,"iddle":4600,"packet":4601,"Up":4602,"refresh":4603,"Ġvisit":4604,"orld":4605,"rence":4606,"operational":4607,"ription":4608,"Ġcomponents":4609,"Ġbar":4610,"price":4611,"Ġvm":4612,"Ġnumbers":4613,"Page":4614,"cum":4615,"peat":4616,"selection":4617,"Ġlists":4618,"hood":4619,"ied":4620,"Ġabove":4621,"Ġpers":4622,"uplicate":4623,"dep":4624,"INFO":4625,"Dir":4626,"identity":4627,"Ġdrop":4628,"Sign":4629,"divid":4630,"attach":4631,"XX":4632,"ront":4633,"Pa":4634,"Task":4635,"ĠFI":4636,"security":4637,"Ġsimple":4638,"59":4639,"Ġinstalled":4640,"Ġdimensions":4641,"scape":4642,"Ġmove":4643,"Row":4644,"(\"-":4645,"Ġanalysis":4646,"Ġ''.":4647,"diction":4648,"reverse":4649,"Ġuses":4650,"stricted":4651,"wrapper":4652,"Parameter":4653,"chedul":4654,"packages":4655,"Max":4656,"enable":4657,"Ġplatform":4658,"Ġcsv":4659,"allel":4660,"HO":4661,"ium":4662,"ĠBo":4663,"ifact":4664,"ckets":4665,"reason":4666,"Ġcollect":4667,"Ġoutputs":4668,"Ref":4669,"Spec":4670,"dx":4671,"Ġetc":4672,"Ġmetrics":4673,"Ġarr":4674,"ĠDataFrame":4675,"89":4676,"echo":4677,"Ġreply":4678,"otential":4679,"crypted":4680,"separ":4681,"deg":4682,"Ġ?":4683,"dp":4684,"Ġanother":4685,"Ġrequires":4686,"ends":4687,"{}\".":4688,"Ġvalidation":4689,"Fla":4690,"Ġfiltered":4691,"oo":4692,"DEBUG":4693,"Ġmanager":4694,"allback":4695,"frames":4696,"Ġissue":4697,"atype":4698,"Ġzone":4699,"ĠOrderedDict":4700,"Ġpartic":4701,"Ġautomatic":4702,"Core":4703,"ragma":4704,"OUT":4705,"requests":4706,"internal":4707,"Ġcached":4708,"isdir":4709,"Ġfalse":4710,"tainer":4711,"alg":4712,"Ġagent":4713,"Ġtab":4714,"feed":4715,"quare":4716,"prob":4717,"ĠExt":4718,"Ġlogin":4719,"crement":4720,"ĠSy":4721,"Ġndarray":4722,"Ġpl":4723,"aa":4724,"Work":4725,"opy":4726,"ipv":4727,"Ġusage":4728,"failed":4729,"boot":4730,"rev":4731,"resolve":4732,"disk":4733,"Ġcolors":4734,"ROM":4735,"Ġavoid":4736,"acity":4737,"_(":4738,"ĠWhether":4739,"Ġexpi":4740,"ropy":4741,"reply":4742,"cn":4743,"OS":4744,"Ġenable":4745,"Ġproto":4746,"NE":4747,"Obj":4748,"Ġlet":4749,"(\"--":4750,"era":4751,"Series":4752,"Ġdid":4753,"sens":4754,"Ġche":4755,"connected":4756,"Ġthose":4757,"Ġreader":4758,"shell":4759,"suppress":4760,"PY":4761,"iases":4762,"Ġarrays":4763,"Ġatom":4764,"DATA":4765,"credentials":4766,"Ġexpect":4767,"expi":4768,"ender":4769,"Ġglyphs":4770,"Ġfeed":4771,"emon":4772,"Length":4773,"Ġcalling":4774,"Pri":4775,"OF":4776,"ĠRemove":4777,"79":4778,"mesh":4779,"Ġduring":4780,"Ġenabled":4781,"usters":4782,"Ġstrip":4783,"'](":4784,"sin":4785,"antity":4786,"lang":4787,"cording":4788,",))":4789,"Ġpartition":4790,"Ġtool":4791,"stract":4792,"Ġtor":4793,"arange":4794,"Ġstarting":4795,"VERSION":4796,"Ġinner":4797,"png":4798,"Ġvert":4799,"dicate":4800,"Ġhex":4801,"choice":4802,"optim":4803,"Entry":4804,"Ġclear":4805,"men":4806,"ratio":4807,"sw":4808,"orary":4809,"Rec":4810,"uses":4811,"allowed":4812,"Meta":4813,"Ġtasks":4814,"PA":4815,"Sp":4816,"rowser":4817,"ĠPo":4818,"inc":4819,"Ġloaded":4820,"Ġmd":4821,"ifiers":4822,"Unable":4823,"ality":4824,"Store":4825,"variance":4826,"ĠRequest":4827,"Ġprovider":4828,"Ġasset":4829,"rong":4830,"cwd":4831,"ongo":4832,"media":4833,"tic":4834,"Range":4835,"Ġrestriction":4836,"+'":4837,"sess":4838,"Ġ[[":4839,"Ġnecessary":4840,"Ġangle":4841,"ĠLE":4842,"Ġspecial":4843,"orizont":4844,"Ġrank":4845,"Ġcurrently":4846,"cover":4847,"ĠUni":4848,"processing":4849,"MAX":4850,"redirect":4851,"pdf":4852,"Ġoprot":4853,"Ġcollections":4854,"Ġds":4855,"direction":4856,"related":4857,"parsers":4858,"big":4859,"rstrip":4860,"sheet":4861,"ï¼":4862,"mass":4863,"Ġeffect":4864,"priority":4865,"Ġtargets":4866,"ural":4867,"MENT":4868,"URE":4869,"Ġwin":4870,"radius":4871,"ĠPre":4872,"()),":4873,"Ġ\"\")":4874,"visit":4875,"ĠHe":4876,"Ġignored":4877,"updated":4878,"ough":4879,"creen":4880,"['_":4881,"Ġsafe":4882,"ĠAll":4883,"ĠOSError":4884,"Ġdetermine":4885,"Serial":4886,"slug":4887,"cached":4888,"cipy":4889,"ĠParse":4890,"embed":4891,"partial":4892,"cogn":4893,"ram":4894,"Ġcalls":4895,"ptr":4896,"vl":4897,".\\":4898,"Ġround":4899,"Ġpercent":4900,"ĠYou":4901,"Ġhparams":4902,"Ġtraining":4903,"ond":4904,"Ġcla":4905,"Ġdev":4906,"cod":4907,"emit":4908,"Ġyet":4909,"Ġprogram":4910,"align":4911,"argin":4912,"Ġyaml":4913,"theta":4914,"Ġsecret":4915,"Ġbutton":4916,"Ġreceived":4917,"ube":4918,"foo":4919,"Ġdeleted":4920,")(":4921,"Ġps":4922,"Ġwriter":4923,"ftime":4924,"tl":4925,"Ġnormalize":4926,"ĠXML":4927,"ĠIndexError":4928,"tables":4929,"Ġprodu":4930,"pick":4931,"(':":4932,"integer":4933,"(%":4934,"pture":4935,"fficient":4936,"Ġbelow":4937,"canvas":4938,"Ġfrequency":4939,"Ġasyncio":4940,"uous":4941,"controller":4942,"\\'":4943,"Ġrules":4944,"ĠDis":4945,"XT":4946,"orter":4947,"Ġattach":4948,"Ġmarker":4949,"Ġpandas":4950,"lict":4951,"Ġcover":4952,"instances":4953,"super":4954,"Ġmac":4955,"Ġcut":4956,"px":4957,"Ġstatement":4958,"Ġmight":4959,"orizontal":4960,"Ġdesired":4961,"Ġmeasure":4962,"EM":4963,"Ġphase":4964,"false":4965,"catalog":4966,"aff":4967,"tack":4968,"Ġrv":4969,"ARN":4970,"escape":4971,"power":4972,"Ġsources":4973,"Ġlow":4974,"Job":4975,"strument":4976,"PS":4977,"gz":4978,"Ġ\"<":4979,"aw":4980,"Ġradius":4981,"sect":4982,"translate":4983,"ĠNode":4984,"Test":4985,"perand":4986,"export":4987,"sem":4988,"CAL":4989,"pipeline":4990,"chor":4991,".%":4992,"Ġcb":4993,"Ġneighb":4994,"LL":4995,"Ġ'*'":4996,"Ġtopic":4997,"lid":4998,"ĠNotImplementedError":4999,"closed":5000,"Thread":5001,"!!":5002,"ĠOtherwise":5003,"versions":5004,"functions":5005,"Ġtile":5006,"Ġnb":5007,"57":5008,"Ġlon":5009,"anis":5010,"tage":5011,"SIG":5012,"mer":5013,"FT":5014,"DU":5015,"PER":5016,"utation":5017,"modified":5018,"000000":5019,"construct":5020,"ĠAt":5021,"seek":5022,"Ġ).":5023,"Ġprovide":5024,"reat":5025,"alth":5026,"Ġexport":5027,"override":5028,"FORM":5029,"comb":5030,"Part":5031,"Ġleg":5032,"utdown":5033,"Ġexecution":5034,"90":5035,"Ġpipeline":5036,"Ġproc":5037,"Ġprimary":5038,"Ġhook":5039,"('{":5040,"Ġts":5041,"dividual":5042,"Ġwell":5043,"Widgets":5044,"Ġregistry":5045,".'.":5046,"wb":5047,"pal":5048,"']),":5049,"ĠHand":5050,"forward":5051,"fid":5052,"Ġlate":5053,"Ġ],":5054,"Ġpragma":5055,"\"'":5056,"ndim":5057,"bus":5058,"Ġarchive":5059,"ĠFind":5060,"Ġorg":5061,"ĠSpeci":5062,"Ġcols":5063,"Ġbounds":5064,"iterable":5065,"ĠConvert":5066,"Ġsteps":5067,"')]":5068,"Ġfilepath":5069,"CONFIG":5070,"screen":5071,"Tran":5072,"stit":5073,"Ġsecurity":5074,"Ġ])":5075,"refs":5076,"Ġ60":5077,"ks":5078,"Ġonce":5079,"clip":5080,"]],":5081,"All":5082,"assign":5083,"derer":5084,"equal":5085,"LECT":5086,"PIPE":5087,"PL":5088,"Ġtyp":5089,"ĠLOGGER":5090,"tw":5091,"family":5092,"><":5093,"ĠLog":5094,"Ġexplicit":5095,"etrie":5096,"Ġdec":5097,"Ġchoices":5098,"bosity":5099,"Ġactiv":5100,"Can":5101,"mooth":5102,"Ġdot":5103,"havi":5104,"Ġarea":5105,"eries":5106,"ACE":5107,"Ġfailure":5108,"Ġargparse":5109,"dn":5110,"Ġscan":5111,"Min":5112,"keyword":5113,"TC":5114,"Ġembed":5115,"frac":5116,"lier":5117,"choices":5118,"Ġtraceback":5119,"çļ":5120,"TED":5121,"Ġknown":5122,"dian":5123,"pairs":5124,"unset":5125,"ĠResponse":5126,"Variable":5127,"Ġmodified":5128,"auss":5129,"Ġcurr":5130,"glob":5131,"Ġsnapshot":5132,"stmt":5133,"predict":5134,"cryption":5135,"Ġmetavar":5136,"çļĦ":5137,"pending":5138,"pred":5139,"strftime":5140,"publish":5141,"hosts":5142,"åı":5143,"compat":5144,"Ġhostname":5145,"Ġexact":5146,"Ġaccording":5147,"break":5148,"ba":5149,"Ġrelated":5150,"/'":5151,"cred":5152,"Ġ~":5153,"31":5154,"Ġbackground":5155,"=\"\",":5156,"zen":5157,"cost":5158,"ategy":5159,"Ġincluded":5160,"MB":5161,"Ġcir":5162,"78":5163,"ITH":5164,"Ġpartial":5165,"Ġaggreg":5166,"Ġsaved":5167,"Ġknow":5168,"Ġpackages":5169,"aggreg":5170,"vol":5171,"Ġpredict":5172,"Ġremaining":5173,"....":5174,"ĠObject":5175,"501":5176,"normalize":5177,"Ġshutil":5178,"Ġresolve":5179,"[:]":5180,"atter":5181,"Ġ32":5182,"Protocol":5183,"Ġmodules":5184,"cipi":5185,"library":5186,"CTION":5187,"][\"":5188,"riteria":5189,"ONE":5190,"Ġhapp":5191,"Ġoverwrite":5192,"unic":5193,"olders":5194,"WN":5195,"Open":5196,"em":5197,"Ġsep":5198,"Rule":5199,"subprocess":5200,"ĠImage":5201,"Ġtick":5202,"Ġcounts":5203,"Ġretrieve":5204,"estim":5205,"Ġwrapped":5206,"Int":5207,"snapshot":5208,"notification":5209,"CRE":5210,"Ġhour":5211,"âĶ":5212,"wx":5213,"Ġbl":5214,"Ġnested":5215,"255":5216,"Ġfixed":5217,"Ġsec":5218,")\",":5219,"Ġversions":5220,"prepare":5221,"Ġbasestring":5222,"schedule":5223,">\\":5224,"Ġacce":5225,"destination":5226,"signed":5227,"Optional":5228,"('.')":5229,"collect":5230,"anti":5231,"Ġord":5232,"Tensor":5233,"andidates":5234,"Ġ[{":5235,"Ġ15":5236,"Ġautomatically":5237,"ips":5238,"Ġepoch":5239,"Ġmesh":5240,"Ġcho":5241,"Ġscheme":5242,"upported":5243,"cheduler":5244,"mq":5245,"marker":5246,"Ġiprot":5247,"Ph":5248,"gl":5249,"ĠSub":5250,"Ġinside":5251,"primary":5252,"Ġfigure":5253,"future":5254,"lies":5255,"Ġsets":5256,"prompt":5257,"detail":5258,"Num":5259,"plugins":5260,"ado":5261,"game":5262,"voke":5263,"peer":5264,"ĠQtGui":5265,")+":5266,"Ġep":5267,"Ġpower":5268,"Ġrc":5269,"Ġlater":5270,"simple":5271,"priate":5272,"ĠMA":5273,"Ġselection":5274,"lihood":5275,"Search":5276,"reduce":5277,"Ġformatted":5278,"recv":5279,"Ġproblem":5280,"Ġsock":5281,"gr":5282,"dapter":5283,"threads":5284,"flatten":5285,"car":5286,"repository":5287,"mitted":5288,"ULL":5289,"istic":5290,"Ġabsolute":5291,"`:":5292,"Ġprec":5293,"tention":5294,"Ġblocks":5295,"olds":5296,"TA":5297,"Ġve":5298,"uess":5299,"wn":5300,"Header":5301,"clar":5302,"Ġstill":5303,"Ġchannels":5304,"ierarch":5305,"Ġeven":5306,"ĠArguments":5307,"Ġbash":5308,"question":5309,"props":5310,"pars":5311,"accept":5312,"indexes":5313,"ĠOpen":5314,"measure":5315,"Ġfs":5316,"adcast":5317,"Ġedit":5318,"Ġdriver":5319,"ĠTrans":5320,"external":5321,"Ġev":5322,"spl":5323,"Ġgl":5324,"Ġbuilder":5325,"Ġraised":5326,"Ġchecks":5327,"ĠMessage":5328,"Ġmembers":5329,"Ġsupplied":5330,"rupt":5331,"MAP":5332,"quiet":5333,"Ġnull":5334,"Ġstatic":5335,"('<":5336,"ric":5337,"ĠImportError":5338,"Ġbeta":5339,"CODE":5340,"Ġconverted":5341,"ĠBuild":5342,"Ġsmall":5343,"calc":5344,"Ġassign":5345,"Ġut":5346,"Ġmachine":5347,"quival":5348,"Ġdelay":5349,"Ġcore":5350,"terms":5351,"CI":5352,"dependencies":5353,"isinstance":5354,"54":5355,"allet":5356,"Ġnotification":5357,"Back":5358,"Ġplan":5359,"cluding":5360,">\"":5361,"Python":5362,"Ġuuid":5363,"Ġenviron":5364,"compress":5365,"Ġagainst":5366,"sender":5367,"versed":5368,"Ġwarning":5369,"frequency":5370,"Ġpresen":5371,"Ġtuples":5372,"SM":5373,"Port":5374,"(\"/":5375,"Formatter":5376,"Ġ\"'":5377,"supported":5378,"editor":5379,"Ġappropriate":5380,"ĠId":5381,"soft":5382,"gent":5383,"Ġfreq":5384,"Ġanaly":5385,"Ġalt":5386,"Ġless":5387,"ĠLoad":5388,"Ġowner":5389,"ordered":5390,"Ġgre":5391,"lst":5392,"Ġforward":5393,"Ġpositive":5394,"kip":5395,"70":5396,"distribution":5397,"strap":5398,"clusive":5399,"docker":5400,"phase":5401,"monitor":5402,"Ġregistered":5403,"FIX":5404,"disable":5405,"Ġstage":5406,"pages":5407,"ĠReg":5408,"yment":5409,"Ġinterpol":5410,"Off":5411,"Ġadmin":5412,"Network":5413,"USER":5414,"ĠCan":5415,"week":5416,"django":5417,"Ġcent":5418,"router":5419,"iver":5420,"vc":5421,"Ġvals":5422,"pn":5423,"timer":5424,"Ġdescri":5425,"asis":5426,"Ġvide":5427,"Ġprocessed":5428,"video":5429,"etadata":5430,"dc":5431,"getitem":5432,"logical":5433,"currency":5434,"amera":5435,"Order":5436,"Ġ'{}'":5437,"constants":5438,"ĠIter":5439,"lapsed":5440,"Ġsimp":5441,"Ġoutfile":5442,"With":5443,"Ġexperiment":5444,"TS":5445,"Ġregular":5446,"aris":5447,"Msg":5448,"Ġpg":5449,"css":5450,"Property":5451,"Restricted":5452,"JSON":5453,"linear":5454,"tep":5455,"grad":5456,"Ġssl":5457,"Ne":5458,"blob":5459,"sage":5460,"HER":5461,"rant":5462,"rase":5463,"Target":5464,"ula":5465,"Ġms":5466,"stage":5467,"NG":5468,"lists":5469,"ĠSo":5470,"UID":5471,"ench":5472,"Ġloss":5473,"analy":5474,"MD":5475,"Ġdx":5476,"LS":5477,"Parameters":5478,"Ġescape":5479,"Ġown":5480,"zz":5481,"Ġbig":5482,"Ġqueryset":5483,"grees":5484,"Ġpatch":5485,"CF":5486,"anner":5487,")-":5488,"Module":5489,"ĠTra":5490,"Ġ*=":5491,"Select":5492,"double":5493,"walk":5494,"98":5495,"Ġvirtual":5496,"ony":5497,"Ġscalar":5498,"Ġworking":5499,"latest":5500,"Ġlinks":5501,"Ġcontroll":5502,"otes":5503,"visible":5504,"[(":5505,"tle":5506,"Ġalong":5507,"pus":5508,"geo":5509,"aws":5510,"virtual":5511,"park":5512,"Ġconnected":5513,"Build":5514,"disc":5515,"Ġdig":5516,"lso":5517,"many":5518,"bottom":5519,"Ġinitialize":5520,".\".":5521,"~~":5522,"Ġmatched":5523,"Bin":5524,"Ġnone":5525,"Ġwritten":5526,"selector":5527,"You":5528,"Ġproper":5529,"Ġmedia":5530,"}},":5531,"getLogger":5532,"Ġinv":5533,"ĠInput":5534,"Ġfh":5535,"ĠBe":5536,"Ġstrict":5537,"MI":5538,"Ġeval":5539,"cid":5540,"RC":5541,"bias":5542,"Ġsw":5543,"Down":5544,"Option":5545,"Ġtb":5546,"HEAD":5547,"ja":5548,"Wrap":5549,"([\"":5550,"Ġ\")":5551,"Access":5552,"vlan":5553,"ĠStop":5554,"findall":5555,"Ġfore":5556,"ClassType":5557,"Ġprocessing":5558,"{})":5559,"alf":5560,"ability":5561,"Queue":5562,"tod":5563,"Ġquote":5564,"binding":5565,"ritical":5566,"sto":5567,"Ġimplemented":5568,"ctype":5569,"Ġcoords":5570,"Ġseen":5571,"Ġdetermin":5572,"Ġmodifi":5573,"Ġfun":5574,"machine":5575,"eps":5576,"AF":5577,"If":5578,"ĠForm":5579,"Is":5580,"Rece":5581,"Ġrepresen":5582,"iling":5583,"tar":5584,"relative":5585,"fixed":5586,">>":5587,"previous":5588,"dispatch":5589,"makedirs":5590,"padding":5591,"roy":5592,"evalu":5593,"pointer":5594,"Child":5595,"roid":5596,"Ġglob":5597,"Ġchunks":5598,"bi":5599,"analysis":5600,"Ġapplied":5601,"Ġdependencies":5602,"Ġsequences":5603,"Ġparsing":5604,"Ġdeploy":5605,"most":5606,"addWidget":5607,"Options":5608,"\"][":5609,"workflow":5610,"Ġbad":5611,"Ġhistory":5612,"42":5613,"osid":5614,"Values":5615,"Ali":5616,"hing":5617,"chars":5618,"mas":5619,"Ġunknown":5620,"Width":5621,"Ġexternal":5622,"MODE":5623,"tyle":5624,"Reference":5625,"figure":5626,"Ġpositions":5627,"MIN":5628,"Ġta":5629,"ummy":5630,"FIEL":5631,"ĠCO":5632,"extensions":5633,"Ġaverage":5634,"ĠOut":5635,"Struct":5636,"tempts":5637,"basic":5638,"Ġtables":5639,"Ġsync":5640,"CESS":5641,"ĠST":5642,"Sequence":5643,"Ġ::":5644,"Ġcost":5645,"flux":5646,"]).":5647,"Ġnegative":5648,"RestrictedClassType":5649,"ffff":5650,"Ġidentity":5651,"Bind":5652,"pd":5653,"pm":5654,"tol":5655,"Ġ[-":5656,"TTER":5657,"ygon":5658,"GB":5659,"named":5660,"Ġsolution":5661,"ĠDEFAULT":5662,"Operation":5663,"ĠModel":5664,"Ġpriority":5665,"Layer":5666,"IST":5667,"ette":5668,"tb":5669,"cov":5670,"Ġdefine":5671,"\"%":5672,"Ġchoice":5673,"switch":5674,"onical":5675,"trip":5676,"herit":5677,"lished":5678,"uman":5679,"Application":5680,"oring":5681,"Names":5682,"Ġpixel":5683,"sections":5684,"Ġtakes":5685,"Uni":5686,"Ġ'#":5687,"46":5688,"bad":5689,"Ġlayers":5690,"Ġiterator":5691,"ĠText":5692,"Ġalign":5693,"maps":5694,"Types":5695,"Ġurllib":5696,"spose":5697,"Ġxrange":5698,"Ġiteration":5699,"ims":5700,"conver":5701,"cancel":5702,"Ġbins":5703,"EXT":5704,"Ġmenu":5705,"Ġpretty":5706,"ysical":5707,"DA":5708,"Ġmx":5709,"comments":5710,"stdin":5711,"ĠField":5712,"Ġbuilt":5713,"Ġband":5714,"INTER":5715,"bg":5716,"Ġarch":5717,"Ġprior":5718,"processor":5719,"PTION":5720,"Ġpan":5721,"ĠInitialize":5722,"Ġcertificate":5723,"Write":5724,"itext":5725,"algorithm":5726,"Ġeps":5727,"seg":5728,"Ġsender":5729,"TypeError":5730,"Ġbases":5731,"Pool":5732,"Ġlang":5733,"cookie":5734,"Ġ'/'":5735,"semb":5736,"Ġscreen":5737,"rgb":5738,"Ġtar":5739,"ĠClient":5740,"need":5741,"magic":5742,")')":5743,"Control":5744,"Ġclosed":5745,"\">":5746,"pology":5747,"ĠHttp":5748,"deepcopy":5749,"Ġoperations":5750,"asarray":5751,"DATE":5752,"tein":5753,"ĠAlso":5754,"ev":5755,"lc":5756,"Location":5757,"Ġ255":5758,"major":5759,"YANG":5760,"Ġrefresh":5761,"statement":5762,"Cache":5763,"Ġtransport":5764,"pout":5765,"logs":5766,"ART":5767,"istration":5768,"ij":5769,"rad":5770,"sli":5771,"onal":5772,"Connect":5773,"Ġobs":5774,"Ġimplementation":5775,"Ġswitch":5776,"Ġrect":5777,"ĠNe":5778,"anded":5779,"Ġspecification":5780,"*.":5781,"scores":5782,"xim":5783,"Ġconv":5784,"sizes":5785,"AUT":5786,"(('":5787,"itespace":5788,"configs":5789,"Ġlatest":5790,"Ġblob":5791,"ixed":5792,"Ġmime":5793,"validation":5794,"ĠWindow":5795,"Ġhelper":5796,"see":5797,"Ġdeprecated":5798,"Ġ'':":5799,"Ġdue":5800,"Ġmatplotlib":5801,"Ġshared":5802,"boolean":5803,"Ġturn":5804,"ulk":5805,"limits":5806,"CL":5807,"ilent":5808,"formatter":5809,"'{":5810,"Ġlineno":5811,"atrix":5812,"Ġtz":5813,"manage":5814,"den":5815,"callpoint":5816,"forms":5817,"wik":5818,"Ġcast":5819,"mes":5820,"Ġauthentication":5821,"devices":5822,"Description":5823,"program":5824,"('{}":5825,"Ġcases":5826,"sistent":5827,"ptime":5828,"Api":5829,"Ġ30":5830,"inder":5831,"Container":5832,"issue":5833,"sr":5834,"Ġ-----":5835,"Ġpickle":5836,"wards":5837,"Ġpresence":5838,")**":5839,"Ġunpack":5840,"fasta":5841,"Document":5842,"ARNING":5843,"Ġ:]":5844,"Auto":5845,"backup":5846,"Ġuid":5847,"QUE":5848,"city":5849,"Ġnargs":5850,"Ġworkflow":5851,"Ver":5852,"Ġsomething":5853,"dictions":5854,"ĠAc":5855,"ĠHT":5856,"ring":5857,"Enabled":5858,"Ġjobs":5859,"deploy":5860,"ĠQtWidgets":5861,"Ġtxt":5862,"ilon":5863,"ĠFunction":5864,"Ġfree":5865,"Ġthreading":5866,"Match":5867,"Ġmut":5868,"ValueError":5869,"Ġannotation":5870,"arc":5871,"Ġexpand":5872,"Ġasynchronous":5873,"Ġattempt":5874,"ĠStart":5875,"':'":5876,"yntax":5877,"ĠFROM":5878,"Ġdays":5879,"pet":5880,"Delete":5881,"Exit":5882,"LINE":5883,"quivalent":5884,"levels":5885,"Ġvideo":5886,"85":5887,"Ġconstructor":5888,"anization":5889,"va":5890,"tm":5891,"nr":5892,"EV":5893,"FC":5894,"Ġsat":5895,"Ġactually":5896,"sidered":5897,"workers":5898,"Ġnn":5899,"Ġservices":5900,"watch":5901,"ialog":5902,"Ġschedule":5903,"Ġtrigger":5904,"chat":5905,"ĠThere":5906,"Ġmapped":5907,"covery":5908,"Ġfilenames":5909,"********":5910,"']):":5911,"circ":5912,"!\")":5913,"'%":5914,"pin":5915,"runtime":5916,"blue":5917,"enate":5918,"chr":5919,"Ġcells":5920,"Ġå":5921,"redis":5922,"Ġdiag":5923,"ĠDB":5924,"Ġcandidate":5925,"keywords":5926,"wt":5927,"aps":5928,"black":5929,"Ġhidden":5930,"ĠEach":5931,"Ġcomments":5932,"RED":5933,"encoded":5934,"Edit":5935,"128":5936,"My":5937,"ĠCall":5938,"Ġbottom":5939,"ensure":5940,"prog":5941,"positions":5942,"endar":5943,"New":5944,"atory":5945,"mid":5946,"tour":5947,"ierarchy":5948,"rum":5949,"Ġscipy":5950,"Ġspan":5951,"annotation":5952,"ĠNOT":5953,"Ġconsidered":5954,"tor":5955,"LAGS":5956,"lour":5957,":\",":5958,"nu":5959,"ĠEvent":5960,"ientation":5961,"-+-+-+-+":5962,"using":5963,"ĠMo":5964,"gamma":5965,"Fact":5966,"star":5967,"HERE":5968,"white":5969,"And":5970,"Channel":5971,"sb":5972,"ĠTemp":5973,"=='":5974,"74":5975,"PORT":5976,"____":5977,"noise":5978,"peak":5979,"Url":5980,"cipe":5981,"Ġprecision":5982,"DR":5983,"qs":5984,"ouse":5985,"Ġtheta":5986,"ĠAND":5987,"Template":5988,"bacter":5989,"Ġcontroller":5990,"Ġ\"@":5991,"okies":5992,"Ġnoise":5993,"ĠQuery":5994,"Ġindexes":5995,"Ġpack":5996,"Ġbehavi":5997,"LED":5998,"buff":5999,"connections":6000,"Char":6001,"activity":6002,"Over":6003,"BB":6004,"Gen":6005,"Dec":6006,"existing":6007,"Configuration":6008,"oauth":6009,"Ġisn":6010,"Ġdocker":6011,"Timeout":6012,"ĠLoc":6013,"Ġmanage":6014,"ffic":6015,"ĠAuth":6016,"cells":6017,"inger":6018,"Ġshift":6019,"symbols":6020,"_'":6021,"aving":6022,"Ġvol":6023,"Ġdocumentation":6024,"Ġprompt":6025,"Ġtimezone":6026,"moves":6027,"Ġstmt":6028,"rency":6029,"splitext":6030,"Only":6031,"setting":6032,"Ġformatter":6033,"att":6034,"tected":6035,"PH":6036,"decor":6037,"76":6038,"Ġratio":6039,"Com":6040,"Ġnothing":6041,"LETE":6042,"typ":6043,"Ġanswer":6044,"digit":6045,"Ġ'.'":6046,"Ġprice":6047,"Ġcreating":6048,":.":6049,"Exist":6050,"coming":6051,"ools":6052,"ä»":6053,"failure":6054,"ĠPO":6055,"Ġrecursive":6056,"servers":6057,"vocab":6058,"gu":6059,"|'":6060,"uation":6061,"Ġinterpre":6062,"kit":6063,"Schema":6064,"listen":6065,"contin":6066,"trigger":6067,"splitlines":6068,"Ġ11":6069,"PT":6070,"descriptor":6071,"Ġgu":6072,"readline":6073,"Ġitself":6074,"Convert":6075,"Ġsha":6076,"pot":6077,"Ġmultip":6078,"getter":6079,"cale":6080,"Send":6081,"jac":6082,"Ġcoordinate":6083,"Ġcatalog":6084,"background":6085,"scalar":6086,"mis":6087,"Ġaltern":6088,"roles":6089,"Ġconfigured":6090,"Ġruntime":6091,"contains":6092,"ixin":6093,"ading":6094,"Ax":6095,"isode":6096,"aussian":6097,"CC":6098,"Ġoccur":6099,"Ġreading":6100,"lastic":6101,"Ġ^":6102,"pose":6103,"ĠNOTE":6104,"legend":6105,"hylo":6106,"So":6107,"atial":6108,"ever":6109,"console":6110,"notify":6111,"patterns":6112,"(\"\"":6113,"ĠProcess":6114,"Missing":6115,"adapter":6116,"DD":6117,"bb":6118,"ĠLETTER":6119,"asc":6120,"imit":6121,"Ġnormalized":6122,"shared":6123,"LOW":6124,"arison":6125,"WORD":6126,"Ġsimilar":6127,"Ġden":6128,"Ġmass":6129,"84":6130,"tection":6131,"experiment":6132,"uest":6133,"ĠHTML":6134,"Ġplay":6135,"ĠCON":6136,"pher":6137,"ti":6138,"Ġpeer":6139,":',":6140,"Grid":6141,"SL":6142,"Ġdjango":6143,"Ġkeywords":6144,"ulated":6145,"Ġterms":6146,"nail":6147,"ically":6148,"ï¼Į":6149,"Host":6150,"Ġgreater":6151,"Dist":6152,"permission":6153,"dependent":6154,"balance":6155,"rd":6156,"ArgumentParser":6157,"sactions":6158,"ĠState":6159,"ropout":6160,"JE":6161,"NOT":6162,"rozen":6163,"ĠMax":6164,"Ġframes":6165,"Ġpublish":6166,"ee":6167,"geometry":6168,"Ġ|=":6169,"semble":6170,"moving":6171,"multip":6172,"Ġstride":6173,"Ġtests":6174,"utit":6175,"Collection":6176,"SY":6177,"Ġcompare":6178,"ĠWrite":6179,"ĠCode":6180,"Iteration":6181,"')):":6182,"(\"{":6183,"Ġlinear":6184,"authentic":6185,"ĠCur":6186,"segments":6187,"AA":6188,"speed":6189,"ital":6190,"Ġbasic":6191,"Ġupdates":6192,"](":6193,"zoom":6194,"FORMAT":6195,"categories":6196,"iteral":6197,"Ġadjust":6198,"timedelta":6199,"()}":6200,"00000000":6201,"Ġconstant":6202,"Ġboot":6203,"executable":6204,"sol":6205,"Ġpur":6206,"Ġaround":6207,"Ġscores":6208,"ĠNotes":6209,"Stap":6210,"ĠCompute":6211,"GI":6212,"Ġmakes":6213,"Ġallows":6214,"Ġequ":6215,"Ġmerged":6216,"Ġmis":6217,"Ġindividual":6218,"ardware":6219,"Ge":6220,"dm":6221,"Pos":6222,"vance":6223,"sessment":6224,"PU":6225,"alive":6226,"Staphylo":6227,"contract":6228,"Ġselector":6229,"bam":6230,",),":6231,"Ġfactory":6232,"uer":6233,"Staphylococcus":6234,"subnet":6235,"Storage":6236,"pixel":6237,"404":6238,"queryset":6239,"Ġener":6240,"Ġvalidator":6241,"FS":6242,"bp":6243,"execution":6244,"OB":6245,"locals":6246,"Handle":6247,"Ġtyping":6248,"ĠInter":6249,"nc":6250,"processed":6251,"Ġcv":6252,"VALUE":6253,"resid":6254,":\"":6255,"Bar":6256,"ĠSE":6257,"Ġsubnet":6258,"Settings":6259,"Ġri":6260,"ubclass":6261,"LY":6262,"viation":6263,"Ġargv":6264,"panel":6265,"ureus":6266,"Ġqs":6267,"average":6268,"thumb":6269,"Keys":6270,"Ġappe":6271,"Style":6272,"ale":6273,"Ġaureus":6274,"Ġuseful":6275,"TEXT":6276,"âĢ":6277,"licies":6278,"=[],":6279,"Ter":6280,"prior":6281,"ullable":6282,"Ġprepare":6283,"ĠSystem":6284,"Ġcloud":6285,"ĠURI":6286,"ĠLe":6287,"license":6288,"Ġcontract":6289,"izing":6290,"Dialog":6291,"Var":6292,"views":6293,"Ġdefaultdict":6294,"BE":6295,"ĠAss":6296,"bundle":6297,"bank":6298,"locked":6299,"Ġpermission":6300,"entifier":6301,"ĠDO":6302,"Ġ50":6303,"Ġlst":6304,"scripts":6305,"ints":6306,"Ġplease":6307,"Ġdirectories":6308,"bra":6309,"templates":6310,"Results":6311,"Pol":6312,"ĠClo":6313,"MT":6314,"Ġ()":6315,"Ġcourse":6316,"Ġpixels":6317,"ffs":6318,"calls":6319,"crease":6320,":],":6321,"Ġssh":6322,"Ass":6323,"YY":6324,"Ġ19":6325,"ranges":6326,"sla":6327,"Ġthing":6328,"tests":6329,"effect":6330,"iterator":6331,"constraints":6332,"nx":6333,"lica":6334,"Ġ64":6335,"Ġ'+":6336,"ĠGenerate":6337,"Ġcc":6338,"Ġclone":6339,"READ":6340,"ior":6341,"dictionary":6342,"Ġprin":6343,"ĠFilter":6344,"Ġmot":6345,"configure":6346,"Ġthreads":6347,"Ab":6348,"encoder":6349,"Ġfo":6350,"Ġsegments":6351,"/(":6352,"SU":6353,"ike":6354,"Ġstarted":6355,"orth":6356,"Ġgood":6357,"certificate":6358,"Ġ'\"":6359,"ired":6360,"callable":6361,"crete":6362,"Current":6363,"Ġtemperature":6364,"ĠTry":6365,"tun":6366,"Ġreturning":6367,")],":6368,"RR":6369,"solver":6370,"Ġgradi":6371,"Ġmarket":6372,"Position":6373,"SQL":6374,"(\"{}":6375,"plots":6376,"Ġordered":6377,"ĠCreates":6378,"'}},":6379,"uch":6380,"Ġrespect":6381,"tached":6382,"ges":6383,"Ġtransition":6384,"Ġworks":6385,"Ġok":6386,"iration":6387,"dimensions":6388,"orical":6389,"Ġ24":6390,"Ġsurface":6391,"Ġgate":6392,"ranches":6393,"Ġlimits":6394,"Metadata":6395,"Multi":6396,"enari":6397,"Ġpush":6398,"green":6399,"finished":6400,"ocab":6401,"ĠConstruct":6402,"plain":6403,"rus":6404,"Ġcurve":6405,"mc":6406,"chrom":6407,"Ġreads":6408,"Ġetree":6409,"Ġcookie":6410,"Callback":6411,"Ġseparate":6412,"################################":6413,"Ġvars":6414,"Ġ{}).":6415,"GL":6416,"Ġdevices":6417,"CHE":6418,"AME":6419,"traceback":6420,"avg":6421,"================================":6422,"Ġmem":6423,"Transform":6424,"ĠUnion":6425,"ĠWITH":6426,"ORY":6427,"Bytes":6428,"fficients":6429,"ables":6430,"precision":6431,"ĠFIX":6432,"ini":6433,"ĠOn":6434,"sider":6435,"__))":6436,"ibration":6437,"Ġspeed":6438,"Ġflux":6439,"expect":6440,"ĠWork":6441,"Ġpi":6442,"9999":6443,"cnt":6444,"('/')":6445,"Ġ(:":6446,"submit":6447,"ipher":6448,"manifest":6449,"Tuple":6450,"Ġpred":6451,"chunks":6452,"minimum":6453,"ane":6454,"Ġcalc":6455,"}]":6456,"Menu":6457,"Ġconnections":6458,"SELECT":6459,"Ġcard":6460,"locations":6461,"Ġchecked":6462,"ctools":6463,"Ġvertex":6464,"fr":6465,"outfile":6466,"Ġdataframe":6467,"constant":6468,"wraps":6469,"which":6470,"Ġbytearray":6471,"xs":6472,"gradi":6473,"SD":6474,"={},":6475,"ĠNew":6476,"Ġba":6477,"Bad":6478,"SV":6479,"Please":6480,"xpath":6481,"perm":6482,"Ġversionadded":6483,"solution":6484,"Reader":6485,"addresses":6486,"complex":6487,",\"":6488,"rypto":6489,"curacy":6490,"fidence":6491,"micro":6492,"\\\"":6493,"maximum":6494,"Ġpermissions":6495,"LOCK":6496,"ĠToken":6497,"clone":6498,"hi":6499,"href":6500,"Factory":6501,"Ġicon":6502,"II":6503,"lying":6504,"ĠPlease":6505,"linalg":6506,"operations":6507,"ĠHow":6508,"(\".":6509,"ĠAR":6510,"LATE":6511,"listdir":6512,"Ġsensor":6513,"ka":6514,"Ġ(-":6515,"poly":6516,"Proxy":6517,"LIST":6518,"Pass":6519,"itch":6520,"Ġdep":6521,"licked":6522,"Ġdelimiter":6523,"absolute":6524,"alan":6525,"Tool":6526,"Ġresid":6527,"Ġgamma":6528,"mx":6529,"Ġaz":6530,"âĶĢ":6531,"atoms":6532,"))]":6533,"Ġflatten":6534,"Ġæ":6535,"servations":6536,"63":6537,"lr":6538,"validator":6539,"izers":6540,"ĠOne":6541,"Ġxy":6542,"urations":6543,"Ġspect":6544,"arest":6545,"country":6546,"Ġconstants":6547,"Ġrev":6548,"Wrapper":6549,"Cre":6550,"based":6551,"diffe":6552,"ĠIDs":6553,"_:":6554,"ef":6555,"Ġparents":6556,"^{":6557,"Ġmade":6558,"ĠElement":6559,"Param":6560,"`)":6561,"uble":6562,"openconfig":6563,"Ent":6564,"ggest":6565,"setText":6566,"Ġtail":6567,"weet":6568,"plus":6569,"Ġsentence":6570,"52":6571,"projects":6572,"Ġ({":6573,"]=":6574,"heel":6575,"({\"":6576,"Ġmodify":6577,"Ġbuff":6578,"Ġconversion":6579,"Ġissubclass":6580,"72":6581,"024":6582,"unary":6583,"locale":6584,"retries":6585,"Ġpull":6586,"ĠMust":6587,"annotations":6588,"Ġauthentic":6589,"ele":6590,"eral":6591,"Ġnumeric":6592,"ĠArray":6593,"ĠWindows":6594,"Ġloader":6595,"ĠTuple":6596,"Ġvs":6597,"Ġgeo":6598,"ĠFirst":6599,"Ġes":6600,"adjust":6601,"abilities":6602,"Ġdispatch":6603,">',":6604,"gateway":6605,"tip":6606,"decimal":6607,"'},":6608,"('[":6609,"Ġsid":6610,"uffle":6611,"ĠConnection":6612,"Ġlogs":6613,"Ġcomplex":6614,"Val":6615,"live":6616,"Ġcalculated":6617,"fh":6618,"may":6619,"requirements":6620,"deps":6621,"CB":6622,"cycle":6623,"integ":6624,"Ġslot":6625,"produ":6626,"STAT":6627,"phab":6628,"Ġcaller":6629,"coordinates":6630,"Ġcross":6631,"ĠGroup":6632,"gnitude":6633,"Ut":6634,"mime":6635,"STRING":6636,"Ġreduce":6637,"built":6638,"Ġpatterns":6639,"hel":6640,"Ġconsole":6641,"Ġcompatible":6642,"audio":6643,"Tri":6644,"Ġdouble":6645,"cross":6646,"Ġdocs":6647,"Ġaudio":6648,"rho":6649,"character":6650,"Ġassigned":6651,"Ġsur":6652,"erred":6653,"Ġ_(\"":6654,":\")":6655,"Ġdy":6656,"ĠGraph":6657,"Does":6658,"400":6659,"Ġbackup":6660,"numbers":6661,"Ġserialize":6662,")\")":6663,"anit":6664,"53":6665,"pull":6666,"Ġmig":6667,"43":6668,"deleted":6669,"permissions":6670,"Ġrdf":6671,"ighted":6672,"revision":6673,"Ġprocesses":6674,"reads":6675,"Rep":6676,"Ġgeometry":6677,"Ġreferences":6678,"Ġconditions":6679,"XML":6680,"outer":6681,"!')":6682,"ace":6683,"should":6684,"Integer":6685,"Ġsymbols":6686,"lengths":6687,"ĠFIXME":6688,"Pub":6689,"itation":6690,"Ġdescriptor":6691,"ĠHandle":6692,"poll":6693,"Ġface":6694,"Ġcpu":6695,"Ġobtain":6696,"ird":6697,"Ġsubscription":6698,"grams":6699,"73":6700,"lv":6701,"click":6702,"ĠResource":6703,"IGN":6704,"/{}":6705,"Ġbus":6706,"specific":6707,"Ġhappen":6708,"Ġwrong":6709,"modifi":6710,"transfer":6711,"Ġseg":6712,"ĠThese":6713,"how":6714,"Ġphi":6715,"dynamic":6716,"Ġsubclass":6717,"Op":6718,"repeat":6719,"zon":6720,"Ġdependency":6721,"phabet":6722,"ection":6723,"beat":6724,"TEMP":6725,"ĠOR":6726,"Ġnu":6727,"ObjectName":6728,"SK":6729,"ĠOutput":6730,"'ll":6731,"luster":6732,"border":6733,"Ġcwd":6734,"vertex":6735,"Ġfinished":6736,"Func":6737,"Ġsto":6738,"Hash":6739,"$',":6740,"dig":6741,"Ġklass":6742,"etrieve":6743,"JECT":6744,"Ġresolution":6745,"errno":6746,"()).":6747,"ached":6748,"Ġinf":6749,"entities":6750,"Ġcountry":6751,"URI":6752,"Ġdeg":6753,"quot":6754,"Ġwa":6755,"ially":6756,"etc":6757,"lify":6758,"Ġlarge":6759,"legate":6760,"}')":6761,"learn":6762,"ARY":6763,"timezone":6764,"'d":6765,"rename":6766,"Ġpie":6767,"cv":6768,"500":6769,"nsupported":6770,"received":6771,"aster":6772,"proj":6773,"agraph":6774,"Items":6775,"Cell":6776,"Ġwatch":6777,"Ġsigned":6778,"Ġpeak":6779,"native":6780,"parents":6781,"expanduser":6782,"Ġpotential":6783,"Ġconfigure":6784,"uplicates":6785,"62":6786,"Ġqual":6787,"alignment":6788,"team":6789,"Component":6790,"}),":6791,"Ġsubset":6792,"Role":6793,"Helper":6794,"Ġblank":6795,"))))":6796,"Ġparticular":6797,"bum":6798,"ĠUnicode":6799,"joint":6800,"Ġhosts":6801,"Local":6802,"Title":6803,"ylabel":6804,"Ġbel":6805,"Remove":6806,"posure":6807,"Ġminutes":6808,"Begin":6809,"TRI":6810,"acc":6811,"Ġhref":6812,"Ġred":6813,"vertical":6814,"bbox":6815,"Vector":6816,"=\"%":6817,"EC":6818,"pat":6819,"yes":6820,"slot":6821,"Any":6822,"Project":6823,"blems":6824,"neg":6825,"bre":6826,"callbacks":6827,"Ġderiv":6828,"energy":6829,"multiple":6830,"Ġserializer":6831,"Find":6832,"aves":6833,"HEADER":6834,"Ġcompleted":6835,"btn":6836,"xlabel":6837,"WARNING":6838,":'":6839,"}/{":6840,"Ġcontact":6841,"specs":6842,"yang":6843,"Ġconstraints":6844,"specimen":6845,"Ġwhose":6846,"ised":6847,"ox":6848,"cus":6849,"Ġsleep":6850,"andatory":6851,"Ġsli":6852,"clusters":6853,"Ġdirs":6854,"ae":6855,"ĠWHERE":6856,"requencies":6857,"FIELD":6858,"Unit":6859,"ĠAd":6860,"kwds":6861,"Ġrequirements":6862,"Offset":6863,"ATOR":6864,"Ġfails":6865,"contact":6866,"Ġhit":6867,"Use":6868,"åĪ":6869,"Ġnx":6870,"Ġdefinitions":6871,"Ġpointer":6872,"Engine":6873,"Ġencoder":6874,"Ġalignment":6875,"ysql":6876,"finish":6877,"setObjectName":6878,"inja":6879,"constraint":6880,"sites":6881,"Fail":6882,"Profile":6883,"lec":6884,"illar":6885,"ĠOption":6886,"ĠGiven":6887,"Ġdecimal":6888,"cipient":6889,"Ġparallel":6890,"Ġurls":6891,"Ġdialog":6892,"Ġconstraint":6893,"Sample":6894,"calculate":6895,"transition":6896,"LOGGER":6897,"Next":6898,"nl":6899,"Ġcos":6900,"ĠCalculate":6901,"Buffer":6902,"Author":6903,"Dataset":6904,"ildcard":6905,"Ġentire":6906,"Ġdigest":6907,"Ġdocstring":6908,"listener":6909,"neighbors":6910,"dates":6911,"Ġanything":6912,"Sum":6913,"__:":6914,"AUTH":6915,"acl":6916,"ASE":6917,"NotExist":6918,"ttl":6919,"Ġtorch":6920,"UI":6921,"Ġdry":6922,"Ġdynamic":6923,"genes":6924,"endor":6925,"ACHE":6926,"KEN":6927,"ni":6928,"ĠFla":6929,"course":6930,"('#":6931,"Changed":6932,"Ġcar":6933,"ceed":6934,"curr":6935,"ĠOver":6936,"Ġpending":6937,"Ġfamily":6938,"Ġrho":6939,"Vis":6940,"SCRI":6941,"Ġpersist":6942,"Ġchecksum":6943,"Mark":6944,"vr":6945,"600":6946,"RES":6947,"Ġpin":6948,"LD":6949,"deserialize":6950,"sparse":6951,"Ġ\"+":6952,"Directory":6953,"gge":6954,"gap":6955,"87":6956,"=',":6957,"è¯":6958,"Mapping":6959,"Ġredis":6960,"Ġplugins":6961,"sensor":6962,"Ġcred":6963,"isis":6964,"Ġbundle":6965,"ĠMethod":6966,"square":6967,"Ġgame":6968,"=''):":6969,"Ġ:,":6970,"Ġtimedelta":6971,"Ġtemporary":6972,"NUM":6973,"room":6974,"Ġbg":6975,"Ġprops":6976,"Ġrs":6977,"Ġseparator":6978,"'|'":6979,"mig":6980,"ym":6981,"statistics":6982,"Ġindicating":6983,"509":6984,"]}":6985,"Ġdisabled":6986,"player":6987,"standard":6988,"ros":6989,"Ġincluding":6990,"when":6991,"Feature":6992,"rees":6993,"__[":6994,"transpose":6995,"finite":6996,"')))":6997,"formats":6998,"ĠTest":6999,"QUI":7000,"ĠService":7001,"Ġthree":7002,"more":7003,"Ġevaluate":7004,"Ġadapter":7005,"phrase":7006,"Ġtax":7007,"Ġlevels":7008,"')(":7009,"nested":7010,"Ġmonitor":7011,"Ġones":7012,"Ġhandlers":7013,"Ġlocale":7014,"spin":7015,"Ġexecutable":7016,"aN":7017,"pandas":7018,"Ġcreation":7019,"Ġlight":7020,"enc":7021,"Ġsparse":7022,"verts":7023,"actual":7024,"ggered":7025,"initialize":7026,"Ġborder":7027,"Ġconcat":7028,"Ġ\\\\":7029,"dns":7030,"Flow":7031,"nel":7032,"Import":7033,"Ġenergy":7034,"Ġrotation":7035,"iddleware":7036,"Ġcodes":7037,"ĠDictionary":7038,"streams":7039,"Initialize":7040,"97":7041,"Batch":7042,"Ġcause":7043,"fire":7044,"issues":7045,"Execution":7046,"dag":7047,"></":7048,"stems":7049,"impl":7050,"Ġfraction":7051,"Post":7052,"mazon":7053,"appro":7054,"training":7055,"posed":7056,"Ġshare":7057,"Exp":7058,"los":7059,"ĠVersion":7060,"Ġslug":7061,"Properties":7062,"inline":7063,"Ġdiction":7064,"nsure":7065,"([[":7066,"Ġequivalent":7067,"Ġbbox":7068,"ĠAS":7069,"ventory":7070,"warnings":7071,"Ġvectors":7072,"Ġvocab":7073,"sequences":7074,"Ġcmap":7075,"Ġranges":7076,"MPLE":7077,"Ġstarts":7078,"Plugin":7079,"thresh":7080,"Ġthumb":7081,"exe":7082,"Ġeditor":7083,"TYPES":7084,"Ġsampling":7085,"rive":7086,"ĠTensor":7087,"Ġprevent":7088,"Ġresulting":7089,"Ġcomputed":7090,"Ġmanifest":7091,"ĠBack":7092,"ĠResult":7093,"Ġboto":7094,"ingerprint":7095,"Ġpages":7096,"ĠStopIteration":7097,"Interface":7098,":,":7099,"...\")":7100,"omial":7101,"separator":7102,"Ġvec":7103,"------------":7104,"(\",":7105,"Ġstdin":7106,"Cursor":7107,"Wh":7108,"fpath":7109,"))[":7110,"Ġgive":7111,"share":7112,"Ġgrad":7113,"det":7114,"ĠServer":7115,"setLevel":7116,"hooks":7117,"Ġretval":7118,"Ġaddresses":7119,"generic":7120,"Ġbetter":7121,"Ġconsumer":7122,"mul":7123,"fw":7124,"Lock":7125,"VALID":7126,"WA":7127,"Ġsuccessfully":7128,"Ġvery":7129,"Ġeverything":7130,"cher":7131,"ĠSQL":7132,"Ġindicates":7133,"ĠBlock":7134,"Ġmp":7135,"Expected":7136,"Ġartifact":7137,"Ġinplace":7138,"pdb":7139,"Print":7140,"aliases":7141,"ticks":7142,"irt":7143,"aging":7144,"mutation":7145,"shutdown":7146,"cutoff":7147,"wagger":7148,"DoesNotExist":7149,"BASE":7150,"TAL":7151,"Args":7152,"Web":7153,"ĠTask":7154,"Ġdensity":7155,"Ġclip":7156,"ipant":7157,"started":7158,"('')":7159,"flo":7160,"CLA":7161,"Ġchrom":7162,"ggers":7163,"fully":7164,"Ġcompile":7165,"bet":7166,"sat":7167,"wave":7168,"mitive":7169,"globals":7170,"curve":7171,"\"{":7172,"additional":7173,"Metri":7174,"rx":7175,"ĠDate":7176,"sgi":7177,"completion":7178,"wrapped":7179,"Entity":7180,"ITE":7181,"Ġnever":7182,"Ġadding":7183,"Account":7184,"kill":7185,"STATE":7186,"Symbol":7187,"checksum":7188,"Ġmagic":7189,"roke":7190,"UND":7191,"cles":7192,"world":7193,"ĠShould":7194,"Ġruns":7195,"margin":7196,"concatenate":7197,"Ġannotations":7198,"veloper":7199,"rift":7200,"Ġfg":7201,"/\"":7202,"setattr":7203,"Ġenough":7204,"ĠTable":7205,"Ġteam":7206,"locity":7207,"NotFoundError":7208,"lstrip":7209,"Agent":7210,"Ġear":7211,"ĠExec":7212,"conditions":7213,"Ġrecent":7214,"Ġiterations":7215,"repos":7216,"Ġtimer":7217,"atives":7218,"terest":7219,"resize":7220,"VICE":7221,"yntaxError":7222,"Align":7223,"}',":7224,"erial":7225,"processes":7226,"jid":7227,"sertion":7228,"pie":7229,"Ġtransfer":7230,"king":7231,"Ġ'[":7232,"contrib":7233,"SSL":7234,"resolver":7235,"Builder":7236,"raft":7237,"Ġwhole":7238,"Ġartist":7239,"levant":7240,"cleaned":7241,"hip":7242,"Ġreversed":7243,"sur":7244,"Ġws":7245,"gpu":7246,"Ġchecking":7247,"Font":7248,"Ġss":7249,"shard":7250,"Ġcer":7251,"Ġimmediate":7252,"%%":7253,"localhost":7254,"ancest":7255,"94":7256,":`.":7257,"Ġ=>":7258,"udit":7259,"Ġreceive":7260,"ĠValidationError":7261,"cognized":7262,"FE":7263,"rr":7264,"Ġdd":7265,"Ġunless":7266,"Ġtrunc":7267,"Ġ_('":7268,"æľ":7269,"Ġeas":7270,"CLI":7271,"pw":7272,"dialog":7273,"partic":7274,"amb":7275,"Ġrouter":7276,"Ġprediction":7277,"Ġlex":7278,"Admin":7279,"Ġsections":7280,"]'":7281,"([(":7282,"OM":7283,"fan":7284,"UST":7285,"Ġplain":7286,"Ġamp":7287,"Ġsupports":7288,"crypto":7289,"agg":7290,"Ġmid":7291,"Ġexplicitly":7292,"pip":7293,"union":7294,"Ġsyntax":7295,"Ġterminal":7296,"loading":7297,"hours":7298,"claration":7299,"Ġfallback":7300,"general":7301,"apps":7302,"bolic":7303,"Step":7304,"candidate":7305,"Ġsel":7306,"support":7307,"Ġboundary":7308,"azure":7309,"riend":7310,"enchmark":7311,"urnal":7312,"likelihood":7313,"fits":7314,"dom":7315,"enario":7316,"USE":7317,"tolist":7318,"java":7319,"consumer":7320,"contig":7321,"bases":7322,"Ġbias":7323,"ĠNow":7324,"ĠCallable":7325,"CR":7326,"isters":7327,"osite":7328,"FFFF":7329,"sentence":7330,"sible":7331,"saved":7332,"Limit":7333,"ĠSim":7334,"detect":7335,"pickle":7336,"Ġresolved":7337,"sembly":7338,"Ġrecur":7339,"Ġ%.":7340,"gui":7341,"lsp":7342,"Ġops":7343,"Icon":7344,"Ġlisten":7345,"laces":7346,"ĠContent":7347,"gramm":7348,"^\\":7349,"same":7350,"browser":7351,"compare":7352,"Ġjs":7353,"motor":7354,"geom":7355,"ully":7356,"300":7357,"Ġplayer":7358,"Ġalle":7359,"vertices":7360,"cmap":7361,"Ġduplicate":7362,"metry":7363,"runner":7364,"rea":7365,"ctl":7366,"scriptions":7367,"PREFIX":7368,"Ġlocations":7369,"[_":7370,"ĠOperation":7371,"Ġfragment":7372,"æĸ":7373,"dfs":7374,"war":7375,"61":7376,"Ids":7377,"ATCH":7378,"Ġquot":7379,"Ġauthorization":7380,"stand":7381,"mkdir":7382,"Popen":7383,"alect":7384,"vor":7385,"lope":7386,"ĠMulti":7387,"ilio":7388,"Ġinc":7389,"getcwd":7390,"setitem":7391,"ĠHttpResponse":7392,"Ġmount":7393,"randint":7394,"tuples":7395,"Ġtrip":7396,"AST":7397,"Ġcycle":7398,"åĲ":7399,"Ġincludes":7400,"Custom":7401,"vered":7402,"Ġrelationship":7403,"Ġdifference":7404,"median":7405,"Ġcr":7406,"gether":7407,"ĠSend":7408,"Ġtempfile":7409,"WOR":7410,"aper":7411,"Matrix":7412,"Inst":7413,"[::-":7414,"UNT":7415,"']},":7416,"Ġeig":7417,"Js":7418,"alloc":7419,"Ġready":7420,"anism":7421,"'})":7422,"met":7423,"rouped":7424,"ios":7425,"Ġ(_":7426,"Ġlonger":7427,"fft":7428,"offsets":7429,"Save":7430,"Ġrevision":7431,"kg":7432,"mtime":7433,"filenames":7434,"]',":7435,"Ġnullable":7436,"Ġ/=":7437,"sky":7438,"compressed":7439,"spf":7440,"001":7441,"ĠDesc":7442,"arrays":7443,"incomplete":7444,"interpol":7445,"Ġserialized":7446,"ĠMan":7447,"Ġresponses":7448,"lecule":7449,"ances":7450,"ess":7451,"fl":7452,"Interrupt":7453,"Ġgradient":7454,"yy":7455,"chemy":7456,"Identifier":7457,"ategorical":7458,"Ġpt":7459,"Ġverbosity":7460,"Ġvisible":7461,"Files":7462,"mol":7463,"ĠVer":7464,"Ġcompression":7465,"]-":7466,"tau":7467,"Ġinline":7468,"Ġmaybe":7469,"fq":7470,"Ġquant":7471,"confirm":7472,"Ġ14":7473,"trl":7474,"ĠSome":7475,"Mon":7476,"Ġur":7477,"ĠCurrent":7478,"Ġhome":7479,"(\"[":7480,"Ġguess":7481,"Ġgets":7482,"Ġactor":7483,"Ġvertices":7484,"void":7485,"Ġ``'":7486,"sensitive":7487,"Ġ1024":7488,"Ġlooking":7489,"Ġprobability":7490,"Ġcompress":7491,"corr":7492,"DC":7493,"follow":7494,"ĠGo":7495,"allen":7496,"Definition":7497,"ĠSM":7498,"literal":7499,"windows":7500,"Ġspaces":7501,"Script":7502,"ulator":7503,"unity":7504,"Ġloading":7505,"Ġsizes":7506,"since":7507,"Ġgeneral":7508,"SUB":7509,"wall":7510,"Ġexecuted":7511,"irtual":7512,"Ġmeas":7513,"Ġextracted":7514,"front":7515,"Ġ\"__":7516,"127":7517,"installed":7518,"ĠPermission":7519,"Ġbehavior":7520,"]|":7521,"Ġprobably":7522,"lb":7523,"ĠSets":7524,"hide":7525,"unce":7526,"defs":7527,"fragment":7528,"Pay":7529,"focus":7530,"iodic":7531,"generated":7532,"Ġdictionaries":7533,"Ġinitialized":7534,"surface":7535,"Ġpredicate":7536,"regions":7537,"coverage":7538,"ĠAWS":7539,"Show":7540,"wiki":7541,"rv":7542,"versal":7543,"hdr":7544,"Ġentities":7545,"Union":7546,"Ġpopulate":7547,"alm":7548,"aign":7549,"mapper":7550,"some":7551,"Rel":7552,"ĠÐ":7553,"Ġdatasets":7554,"pretty":7555,"notes":7556,"uniform":7557,"cursively":7558,"Ġconflict":7559,"Stack":7560,"xies":7561,"riptor":7562,"describe":7563,"Ġlocals":7564,"Ġsol":7565,"VAR":7566,"compiler":7567,"Ġcandidates":7568,"ĠTag":7569,"Ġgenes":7570,"gf":7571,"spac":7572,"Dep":7573,"illi":7574,"ĠClass":7575,"Ġui":7576,"ĠMap":7577,"Ġoverlap":7578,"Ġincorrect":7579,"Ġsla":7580,"Extract":7581,"(\"<":7582,"Ġrepresents":7583,"asses":7584,"retch":7585,"ational":7586,"Ġnative":7587,"examples":7588,"Generator":7589,"tcp":7590,"...,":7591,"stitution":7592,"ĠColumn":7593,"96":7594,"chan":7595,"QUEST":7596,"Ġthrow":7597,"Ġassumed":7598,"Expression":7599,"hexdigest":7600,"VM":7601,"BY":7602,"ĠGe":7603,"Ġpip":7604,"Ġest":7605,"ĠSave":7606,"Ġdicts":7607,"ln":7608,"Ġlongitude":7609,"Mult":7610,"got":7611,"checks":7612,"qq":7613,"START":7614,"Root":7615,"Rect":7616,"ĠSequence":7617,"_=":7618,"vcf":7619,"orders":7620,"cha":7621,"interfaces":7622,"DP":7623,"ov":7624,"One":7625,"Ġpat":7626,"Ġoutside":7627,"CONT":7628,"Ġsever":7629,"ĠDoc":7630,"EP":7631,"remaining":7632,"daemon":7633,"Ġquestion":7634,"routes":7635,"Ġports":7636,"stone":7637,"definitions":7638,"ROOT":7639,"Main":7640,"Ġstatistics":7641,"neighbor":7642,"pied":7643,"Fore":7644,"])[":7645,"Ġpress":7646,"DEX":7647,"hit":7648,"clicked":7649,"fied":7650,"Ġenter":7651,"Ġ90":7652,"bridge":7653,"Ġvisual":7654,"Ġdegrees":7655,"ĠExtract":7656,"rst":7657,"è¿":7658,"inds":7659,"CACHE":7660,"terminal":7661,"precation":7662,"Comm":7663,"Ġweek":7664,"outine":7665,"codeError":7666,"Normal":7667,"scroll":7668,"3333":7669,"quant":7670,"Ġprojection":7671,"critical":7672,"([])":7673,"Ġobservation":7674,"rdf":7675,"Ġlegend":7676,"irror":7677,"DELETE":7678,"digits":7679,"Ġinstanti":7680,"Top":7681,"Ġdecoded":7682,"Mixin":7683,"must":7684,"vg":7685,"ĠLine":7686,"under":7687,"Ġhandling":7688,"bsocket":7689,"density":7690,"filtered":7691,"jectory":7692,"iles":7693,"ĠPrint":7694,"\"\"\",":7695,"(\"_":7696,"minion":7697,"cay":7698,"Ġconsider":7699,"objective":7700,"boardInterrupt":7701,"jar":7702,"Ġsolver":7703,"Ġcreates":7704,"Plot":7705,"graphic":7706,"clock":7707,"...')":7708,"æķ":7709,"oter":7710,"()])":7711,"Ġgoogle":7712,"NN":7713,"Empty":7714,"')),":7715,"82":7716,"Sec":7717,"horizontal":7718,"ĠSalt":7719,"Ġabort":7720,"liance":7721,"Ġsmooth":7722,"resolved":7723,"COM":7724,"Flags":7725,"udo":7726,"IZ":7727,"->":7728,"Ġcurrency":7729,"ĠFormat":7730,"Ġtranslation":7731,"Ġ\"\".":7732,"COMM":7733,"dicts":7734,"Den":7735,"IR":7736,"Ġdates":7737,"executor":7738,"decoder":7739,"Cond":7740,"Volume":7741,"Ġol":7742,"numeric":7743,"nonce":7744,"dicator":7745,"_):":7746,"LIC":7747,"relationship":7748,"Ġinject":7749,"activate":7750,"Lib":7751,"Ġer":7752,"Ġtok":7753,"quee":7754,"Ġraises":7755,"Ġpoly":7756,"Ġbra":7757,"Ġexamples":7758,"dating":7759,"Ġbook":7760,"except":7761,"Ġspecifying":7762,"Ġintegers":7763,"inx":7764,"Ġbasis":7765,"_[":7766,"health":7767,"Ġrgb":7768,"cipal":7769,"markup":7770,"Hist":7771,"odb":7772,"inspect":7773,"shapes":7774,"2000":7775,"Copy":7776,"Pattern":7777,"Ġcategories":7778,"Ġhashlib":7779,"+\"":7780,"Ġthings":7781,"Err":7782,"Writer":7783,"gas":7784,"Json":7785,"Ġls":7786,"Ġpkt":7787,"six":7788,"uber":7789,"Ġcanvas":7790,"UNK":7791,"sertionError":7792,"Raw":7793,"Ġcancel":7794,"artist":7795,"\":\"":7796,"Ġroom":7797,"ĠPY":7798,"ashboard":7799,"Active":7800,"serted":7801,"Ġwhite":7802,"working":7803,"LOAD":7804,"angles":7805,"seline":7806,"ĠParameter":7807,"Ġ','.":7808,"Ġecho":7809,"Ġ13":7810,"completed":7811,"Display":7812,"'m":7813,"URCE":7814,"removed":7815,"RAN":7816,"Ġforms":7817,"sume":7818,"resolution":7819,"DEN":7820,"Ġ{!":7821,"ĠPri":7822,"ĠMark":7823,"STATUS":7824,"Ġfront":7825,"dry":7826,"mongo":7827,"cuit":7828,"Ġlatitude":7829,"Comple":7830,"ĠDelete":7831,"maybe":7832,"ji":7833,"gid":7834,"Ġcs":7835,"initializer":7836,"kv":7837,"litude":7838,"OPTION":7839,"mts":7840,"nm":7841,"Ġformats":7842,"objs":7843,"Ġdetail":7844,"Ġhyper":7845,"TP":7846,"Pe":7847,"Ġlogical":7848,"Word":7849,"inator":7850,"datasets":7851,"LAB":7852,"Ġcriteria":7853,"Ġactivity":7854,"Ho":7855,"ĠPass":7856,"calar":7857,"minor":7858,"UTF":7859,"ĠUsed":7860,"Ġsubparsers":7861,"Ġcomparison":7862,"cally":7863,"Ġinstruction":7864,"Ġrather":7865,"Ġ\"{}\"":7866,"Ġtaken":7867,"Ġaccepted":7868,"CD":7869,"mouse":7870,"ADD":7871,"Ġperm":7872,"priv":7873,"Ġ'-'":7874,"Ġgithub":7875,"subplot":7876,"written":7877,"Ġdiv":7878,"secure":7879,"market":7880,"??":7881,"negative":7882,"Loader":7883,"Cloud":7884,"chart":7885,"ĠWeb":7886,"Ġencrypted":7887,"tls":7888,"SSAGE":7889,"Ġdetected":7890,"Bit":7891,"GIN":7892,"ĠEX":7893,"`):":7894,"Ġam":7895,"Binary":7896,"hest":7897,"Attr":7898,"Make":7899,"Ġlc":7900,"regular":7901,"Ġperformed":7902,"matched":7903,"Ġtesting":7904,"normalized":7905,"ggle":7906,"Ġcatch":7907,"Ġcipher":7908,"achine":7909,"Interval":7910,"(',')":7911,"HOST":7912,"usr":7913,"Ġdepending":7914,"Ġcalculation":7915,"evaluate":7916,"101":7917,"information":7918,"MC":7919,"ĠSearch":7920,"Ġitertools":7921,"Ġblue":7922,"Unsupported":7923,"ctrl":7924,"rices":7925,"Ġroles":7926,"ĠSign":7927,"ĠEnsure":7928,"ssib":7929,"quick":7930,"GA":7931,"capacity":7932,"}\")":7933,"imal":7934,"sumed":7935,"Ġcombined":7936,"azard":7937,"structions":7938,"subscribe":7939,"ACT":7940,"POINT":7941,"ValidationError":7942,"operand":7943,"ĠTemplate":7944,"ye":7945,"Ġrestart":7946,"Ġsimply":7947,"tice":7948,"Ġdatatype":7949,"Region":7950,"Tags":7951,"Float":7952,"hot":7953,"Ġwave":7954,"TOKEN":7955,"ĠIPv":7956,"Stats":7957,"('\"":7958,"artbeat":7959,"Ġregions":7960,"GP":7961,"Height":7962,"Ġqueries":7963,"ipy":7964,">,":7965,"eration":7966,"define":7967,"velength":7968,"âĶĢâĶĢ":7969,"AML":7970,"nor":7971,"erce":7972,"aring":7973,"learning":7974,"Ġaux":7975,"Ġimported":7976,"Ġ{:":7977,"\"}":7978,"Ġten":7979,"Ġdebu":7980,"Ġaws":7981,"subscription":7982,"/.":7983,"ging":7984,"acquire":7985,"Ġassignment":7986,"pixels":7987,"tenant":7988,"Loop":7989,"requires":7990,"ĠTake":7991,"Ġidentify":7992,".'''":7993,"blank":7994,"mn":7995,"person":7996,"funcs":7997,"initialized":7998,"ĠFe":7999,"Ġinherit":8000,"ĠNetwork":8001,"TAG":8002,"nick":8003,"enotype":8004,"Ġgp":8005,"Ġroll":8006,"oute":8007,"formatted":8008,"Register":8009,"Database":8010,"Ġexactly":8011,"za":8012,"Ġnotebook":8013,"={\"":8014,"mtree":8015,":].":8016,"TF":8017,"Ġ'$":8018,"livery":8019,"Ġfinish":8020,"iving":8021,"updates":8022,"Ġpmag":8023,"Ġoffsets":8024,"Ġleaf":8025,"Ġactivation":8026,"ulative":8027,"Ġtrim":8028,"Ġlab":8029,"033":8030,"Encoder":8031,"Ġconfirm":8032,"theme":8033,"Ġissues":8034,"Net":8035,"Ġ256":8036,"DateTime":8037,"Ġpanel":8038,"wcs":8039,"Ġusu":8040,"sampling":8041,"93":8042,"92":8043,"bri":8044,"Ġshard":8045,"Ġwalk":8046,"Ġtogether":8047,"customer":8048,"Ġtwilio":8049,"appa":8050,"pur":8051,"recursive":8052,"Ġct":8053,"Ġchat":8054,"Success":8055,"Ġoper":8056,"minutes":8057,"Ġacc":8058,"Ġquiet":8059,"Ġincrement":8060,"Ġxs":8061,"Ġobserved":8062,"Ġreplaced":8063,"Generate":8064,"ĠSource":8065,"svg":8066,"Ġintervals":8067,"receive":8068,"FIN":8069,"linspace":8070,"large":8071,"vp":8072,"inct":8073,"urther":8074,"ĠUN":8075,"(\"'":8076,"Ġoperand":8077,"lens":8078,"gradient":8079,"Pix":8080,"notebook":8081,"Sup":8082,"Flag":8083,"41":8084,"Ġ[%":8085,"Ġtemplates":8086,"Ġmaps":8087,"Stop":8088,"difference":8089,"strptime":8090,"queeze":8091,"species":8092,"klass":8093,"Construct":8094,"Ġwaiting":8095,"vocation":8096,"Ġfi":8097,":{":8098,"Package":8099,"Ġ25":8100,"Ġcompatibility":8101,"ĠPol":8102,"Ġ\"\":":8103,":]:":8104,"ftp":8105,"going":8106,"eta":8107,"Ġrhs":8108,"scatter":8109,"hits":8110,"Ġstatements":8111,"dataframe":8112,"Ġextended":8113,"Ġexecutor":8114,"MQ":8115,"fraction":8116,"Ġcoefficients":8117,"Ġtrying":8118,"slots":8119,"seudo":8120,"subset":8121,"Ġec":8122,"aker":8123,"two":8124,"disabled":8125,"mous":8126,"Init":8127,"viders":8128,"genome":8129,"clared":8130,"currence":8131,"Ġ'(":8132,"station":8133,"Ġworld":8134,"Ġanchor":8135,"Ġdesign":8136,"relu":8137,"Ġ\"#":8138,"ĠDon":8139,"Ġsignals":8140,"ĠSeries":8141,"cipher":8142,"Serialize":8143,"Ġinterpolation":8144,"coun":8145,"])]":8146,"iming":8147,"mapped":8148,"combo":8149,"Ġderived":8150,"COLOR":8151,"charge":8152,"Ġboard":8153,"unicate":8154,"Ġhours":8155,"Total":8156,"Ġsq":8157,"intersection":8158,"arrow":8159,"Ġpp":8160,"renderer":8161,",**":8162,"çĶ":8163,"answer":8164,"Ġbasename":8165,"Enter":8166,"placeholder":8167,"GRO":8168,"DED":8169,"Ġsending":8170,"Ġ{}:":8171,"Ġage":8172,"ĠXXX":8173,"Ġblack":8174,"inity":8175,"ceil":8176,"Ġkeyid":8177,"iteration":8178,"Ġwon":8179,"ĠSup":8180,"Ġrouting":8181,"Elements":8182,"Ġsimulation":8183,"lations":8184,"Ġhuman":8185,"ĠStore":8186,"ĠPh":8187,"/',":8188,"unded":8189,"syntax":8190,"Ġcapture":8191,"Unexpected":8192,"Ġbinding":8193,"utcnow":8194,"ĠSpecifi":8195,"ĠWill":8196,"bing":8197,"ĠGET":8198,"Ġobjective":8199,"Ġcomma":8200,"Cor":8201,"utine":8202,"])))":8203,"Bool":8204,"vention":8205,"ptide":8206,"Ġsuc":8207,"Ġgenome":8208,")._":8209,"sequ":8210,"Ġflush":8211,"Ġrepeat":8212,"Ġbeginning":8213,"cmp":8214,"ailab":8215,"ĠStream":8216,"Ġdims":8217,"ĠQtCore":8218,"fastq":8219,"ĠIs":8220,"Prefix":8221,"ech":8222,"km":8223,"mav":8224,"ĠVM":8225,"cleanup":8226,"ANCE":8227,"small":8228,"++":8229,"Failure":8230,"mega":8231,"temperature":8232,"bootstrap":8233,"Ġrepe":8234,"]{":8235,"attachment":8236,"adow":8237,"probab":8238,"rich":8239,"lar":8240,"hat":8241,"Ġ500":8242,"Rate":8243,"bgp":8244,"problem":8245,"Sets":8246,"Ġcss":8247,"Ġapps":8248,"Ġarc":8249,"accounts":8250,"Ġwriting":8251,"Ġpredictions":8252,"Cho":8253,"IME":8254,"Ġglobals":8255,"Ġdigits":8256,"wers":8257,"Ġgeneric":8258,"={}):":8259,"ĠAssertionError":8260,"='%":8261,"rsplit":8262,"trunc":8263,"widgets":8264,"}:{":8265,"Ġchart":8266,"Ġir":8267,"Ġnan":8268,"statements":8269,"Ġhandled":8270,"latitude":8271,"unct":8272,"Denied":8273,"Ġpdf":8274,"perform":8275,"associ":8276,"\")[":8277,"ToString":8278,"Space":8279,"references":8280,"ante":8281,"Ġgoing":8282,"hint":8283,"disconnect":8284,"TIMEOUT":8285,"artifact":8286,"Ġnewline":8287,"CATE":8288,"gence":8289,"Ġdct":8290,"bacterium":8291,"Dim":8292,"means":8293,"Ġcomputation":8294,"vrf":8295,"vided":8296,"readlines":8297,"Ġlogic":8298,"alette":8299,"phone":8300,"runs":8301,"ARD":8302,"Ġclusters":8303,"retrie":8304,"utype":8305,"cks":8306,"mapp":8307,"Ġzoom":8308,"()['":8309,"ĠTran":8310,"vanced":8311,"1024":8312,"Ġcod":8313,"udy":8314,"tin":8315,"xb":8316,"Ġsilent":8317,"()``":8318,"arger":8319,"ledge":8320,"Ġmicro":8321,"Ġapplic":8322,"Usage":8323,"(\"\")":8324,"visor":8325,"Ġdaemon":8326,"Ġestimate":8327,"alancer":8328,"lays":8329,"ctypes":8330,"exact":8331,"verbosity":8332,"ĠInstance":8333,"Ġ128":8334,"TEMPLATE":8335,"ĠAct":8336,"ĠMin":8337,"Ġmet":8338,"cial":8339,"Ġzer":8340,"allenge":8341,"represent":8342,"ĠDec":8343,"Ġurlparse":8344,"intervals":8345,"seen":8346,"Ġreally":8347,"ĠInst":8348,"nado":8349,"Ġpassing":8350,"RPC":8351,"Ġbp":8352,"workspace":8353,"legal":8354,"BACK":8355,"scheduler":8356,"Ġpagin":8357,"Ġverb":8358,"Tab":8359,"Memory":8360,"Ġcorrectly":8361,"OD":8362,"REQUEST":8363,"Ġdl":8364,"variants":8365,"51":8366,"./":8367,"Ġinstrument":8368,"without":8369,"quality":8370,"PP":8371,"Ġcons":8372,"Ġchr":8373,"Ġcompiler":8374,"83":8375,"Ġtranslate":8376,"ravel":8377,"cons":8378,"Ġinverse":8379,"Ġrunner":8380,"Descriptor":8381,"dy":8382,"xc":8383,"voked":8384,"cannot":8385,"ĠSkip":8386,"exchange":8387,"Ġmk":8388,"ĠMay":8389,"ĠPOST":8390,"ilename":8391,"take":8392,"Ġspecifies":8393,"__'):":8394,"ldp":8395,"Ġcm":8396,"Ġattrib":8397,"styles":8398,"article":8399,"prin":8400,"queries":8401,"matching":8402,"Ġmuch":8403,"dk":8404,"Ġfully":8405,"Stat":8406,"Enum":8407,"interp":8408,"((\"":8409,"trim":8410,"Ġscaling":8411,"atal":8412,"cookies":8413,"ĠAb":8414,"Ġcid":8415,"ĠSp":8416,"ĠRo":8417,"BC":8418,"Ġextend":8419,"Ġproblems":8420,"COMP":8421,"Ġapproxim":8422,"=('":8423,"Last":8424,"Ġretries":8425,"wind":8426,"Ġ{}\\":8427,"Attributes":8428,"ĠAllow":8429,"mpaign":8430,"Ġlengths":8431,"ĠKeyboardInterrupt":8432,"Ġacross":8433,"Ġdirname":8434,"Socket":8435,"vidence":8436,"SOURCE":8437,"Ġ(`":8438,"Ġonto":8439,"delimiter":8440,"Ġgzip":8441,"preview":8442,"Ġcertain":8443,"Len":8444,"did":8445,"Ġhalf":8446,"minute":8447,"vd":8448,"}\",":8449,"Ġhistogram":8450,"ighest":8451,"REF":8452,"Ġpreviously":8453,"eig":8454,"iterations":8455,"(\"\"\"":8456,"XY":8457,"Ġoptimizer":8458,"Controller":8459,"inations":8460,"Ġcrypto":8461,"dicates":8462,"[[":8463,"Ġfoo":8464,"coin":8465,"restart":8466,"Ġnotify":8467,"Transaction":8468,"'ve":8469,"Ġtoler":8470,"Ġlaunch":8471,"OLD":8472,"Ġmajor":8473,"Ġcharset":8474,"utures":8475,"Ġcoverage":8476,"Ġexpanded":8477,"Ġsr":8478,"strategy":8479,"Ġlocalctx":8480,"ĠDist":8481,"Ġmandatory":8482,"ocus":8483,"Ġunderlying":8484,"criteria":8485,"Shape":8486,"ailability":8487,"Non":8488,"edu":8489,"Ġet":8490,"Ġprob":8491,"imize":8492,"RUN":8493,"omy":8494,"aming":8495,"Ġbug":8496,"compatible":8497,"WE":8498,"``:":8499,"ĠBad":8500,"QtCore":8501,"osome":8502,"xlim":8503,"__',":8504,"asked":8505,"Ġreplacement":8506,"Ġsin":8507,"Ġminor":8508,"Close":8509,"Ġproperly":8510,"BL":8511,"quad":8512,"LIB":8513,"tzinfo":8514,"mv":8515,"Che":8516,"rations":8517,"Ġtun":8518,"Ġrelevant":8519,"deriv":8520,"clause":8521,"degree":8522,"requested":8523,"Ġmoment":8524,"spacing":8525,"lored":8526,"partitions":8527,"ĠSession":8528,"Ġ{{":8529,"xF":8530,"Ġâ":8531,"Ġtol":8532,"ĠIterable":8533,"Ġinterfaces":8534,"assignment":8535,"LAY":8536,"Ġneighbors":8537,"Ðµ":8538,"Ġocc":8539,"vailable":8540,"Ġaff":8541,"ellow":8542,"ĠConfiguration":8543,"ylim":8544,"Ġattached":8545,"Ġable":8546,"tell":8547,"ĠPlot":8548,"Ġwhitespace":8549,"ĠLAT":8550,"bindings":8551,"+',":8552,"ĠProject":8553,"Ġvertical":8554,"TES":8555,"ĠDjango":8556,"RF":8557,"leting":8558,"Ġbrowser":8559,"ĠKeyword":8560,"cular":8561,"Parent":8562,"Expr":8563,"special":8564,"Ġattachment":8565,"ĠSMALL":8566,"raries":8567,"Ġchosen":8568,"Skip":8569,"onymous":8570,"71":8571,"Coord":8572,"FromString":8573,"æķ°":8574,"ĠVariable":8575,"errHandler":8576,"Ġcleanup":8577,"SHA":8578,"ĠEnd":8579,"creation":8580,"Ġquality":8581,">')":8582,"Ġfid":8583,"FLAGS":8584,"Ġbalance":8585,"acce":8586,"81":8587,"FOR":8588,"lobs":8589,"Ġaliases":8590,"\"]))":8591,"prefixes":8592,"Allow":8593,"Ġchoose":8594,"TERN":8595,"ĠColor":8596,"wsgi":8597,"295":8598,"DL":8599,"Ġffi":8600,"Ġsites":8601,"Ð°":8602,"åħ":8603,"Ġemit":8604,"clients":8605,"Ġsubmit":8606,"broadcast":8607,"ERS":8608,"serialized":8609,"IGHT":8610,"ĠChange":8611,"riendly":8612,"Ð¾":8613,"Ġfc":8614,"Section":8615,"ĠGit":8616,"6666":8617,"SERVER":8618,"lets":8619,"erica":8620,"Ġftype":8621,"quantity":8622,"returncode":8623,"CHAR":8624,"mor":8625,"Cons":8626,"Ġdepends":8627,"Ġ\"[":8628,"Ġappear":8629,"Http":8630,"Ġund":8631,"Ġprog":8632,"Conv":8633,"Ġdegree":8634,"rections":8635,"ĠGtk":8636,"pkt":8637,"Ġpoll":8638,"Compute":8639,"NC":8640,"KET":8641,"parallel":8642,"ĠSc":8643,"Cmd":8644,"adapt":8645,"imports":8646,"Folder":8647,"getvalue":8648,"CHAN":8649,"AV":8650,"mappings":8651,":')":8652,"Es":8653,"Wait":8654,"Ġneighbor":8655,"TEST":8656,")``":8657,"into":8658,"Ġexchange":8659,"Ġsoft":8660,"Ġtp":8661,"endpoints":8662,"Mask":8663,"Ġcallbacks":8664,"Ġii":8665,"fileobj":8666,"Ġcompletion":8667,"ipeline":8668,"activation":8669,"camera":8670,"Ġke":8671,"Ġins":8672,"Ġbecome":8673,"sistency":8674,"429":8675,"air":8676,"Ġmeasurement":8677,"Ġplots":8678,"SB":8679,"Ġaffect":8680,"tok":8681,"Ġcov":8682,"'^":8683,"starting":8684,"SPACE":8685,"optimizer":8686,"Ġtrailing":8687,"SES":8688,"Ġimmediately":8689,"responses":8690,"masked":8691,"Jo":8692,"ongs":8693,"ĠEither":8694,"Ġatoms":8695,"Bound":8696,"gres":8697,".+":8698,"VEL":8699,"instrument":8700,"pay":8701,"]\"":8702,"Ġrr":8703,"ĠMO":8704,"---+":8705,"Signal":8706,"Ġ400":8707,"ctest":8708,"ĠUp":8709,"ĠApi":8710,"Ġrename":8711,"thers":8712,"dirty":8713,"usted":8714,"Ġdc":8715,"Ġdummy":8716,"predicate":8717,"ĠLATIN":8718,"ĠBoolean":8719,"Ġhdr":8720,"Report":8721,"ĠAddress":8722,"chdir":8723,"groupby":8724,"Ġlistener":8725,"ups":8726,"directories":8727,"Sim":8728,"!\"":8729,"Ġcompressed":8730,"Ġvariance":8731,"Ġcutoff":8732,"intf":8733,"Ġproj":8734,"Ġgetting":8735,"Ġseparated":8736,"taint":8737,"anning":8738,"Ġends":8739,"Ġ'\\\\":8740,"Authorization":8741,"composition":8742,"bn":8743,"peg":8744,"caller":8745,"datatype":8746,"hyper":8747,"overflow":8748,"Ġagg":8749,"Required":8750,"registered":8751,"Ġdecorated":8752,"Ġoverrid":8753,"INGS":8754,"vie":8755,"LENG":8756,"Ġepsilon":8757,"Random":8758,"lename":8759,"prod":8760,"999":8761,"Ġerrno":8762,"longitude":8763,"Ġindicate":8764,"Cluster":8765,"Ġspecies":8766,"rune":8767,"expires":8768,"Ġbs":8769,"dependency":8770,"æĪ":8771,"Operator":8772,"argparse":8773,"assessment":8774,"plane":8775,"å¤":8776,"adj":8777,"rigin":8778,"Ġrm":8779,"policies":8780,"?',":8781,"Password":8782,"alo":8783,"ĠContext":8784,"rotation":8785,"journal":8786,"Ġfontsize":8787,"land":8788,"GO":8789,"ĠCloud":8790,"rmtree":8791,"512":8792,"izable":8793,"Ġdownloaded":8794,"payment":8795,"Ġalloc":8796,"histogram":8797,"Ġrand":8798,"Ġperson":8799,"projection":8800,"Ġna":8801,"Ġlearning":8802,"ĠMaximum":8803,"LENGTH":8804,"NV":8805,"but":8806,"ãĢ":8807,"TABLE":8808,"equ":8809,"Ġpot":8810,"Ġ80":8811,"each":8812,"extent":8813,"maker":8814,"Ġcontained":8815,"xtick":8816,"Ġ31":8817,"Ġworkers":8818,"unused":8819,"xyz":8820,"phan":8821,"CREATE":8822,"routing":8823,"()`":8824,"Ġphone":8825,"ĠISO":8826,"Ġbroadcast":8827,"domains":8828,"ITS":8829,"Ġpf":8830,"Segment":8831,"Ġcorrelation":8832,"bf":8833,"anchor":8834,"mails":8835,"west":8836,"Ġpositional":8837,"Ġpopulation":8838,"Ġstrategy":8839,"Ġcopied":8840,"Ġcrop":8841,"HTML":8842,"extended":8843,"dapt":8844,"widths":8845,"Ġworkspace":8846,"SIGN":8847,"candidates":8848,"ulus":8849,"ertificate":8850,"oct":8851,"Ġ'').":8852,"REG":8853,"~~~~":8854,"wo":8855,"tem":8856,"wallet":8857,"Ġexponent":8858,"zed":8859,"Ġtic":8860,"ĠRO":8861,"hd":8862,"Ġfurther":8863,"lator":8864,"Ġsi":8865,"Ġmedi":8866,"ĠQueue":8867,"Running":8868,"acked":8869,"gc":8870,"Ġfl":8871,"Ġoauth":8872,"prediction":8873,"gi":8874,"Ġhard":8875,"Ġmail":8876,"Ġ':'":8877,"Ġorientation":8878,"äº":8879,"Creates":8880,"mf":8881,"tot":8882,"ĠConst":8883,"percentage":8884,"increment":8885,"Myco":8886,"helpers":8887,"Statement":8888,"authorization":8889,"Ġ[]):":8890,"Ġoccurred":8891,"Track":8892,"sudo":8893,"LU":8894,"udent":8895,"Ġvlan":8896,"hashes":8897,"BER":8898,"Mod":8899,"Ġsquare":8900,"destroy":8901,"100000":8902,"mysql":8903,"Ġrpc":8904,"TIFI":8905,"}-":8906,"Ġdns":8907,"Ġclients":8908,"boto":8909,"Area":8910,"Ġpprint":8911,"Ġstar":8912,"Ġgap":8913,")['":8914,"ĠSH":8915,"LT":8916,"provision":8917,"idxs":8918,"bitrary":8919,"collections":8920,"DIS":8921,"Ġhigher":8922,"Ġiterate":8923,"Ġwindows":8924,"Ġpdb":8925,"letter":8926,"Ġplane":8927,"Setting":8928,"Gets":8929,"ners":8930,"MESSAGE":8931,"Ġ------":8932,"ĠCor":8933,"acket":8934,"between":8935,"Ġtodo":8936,"ĠPost":8937,"encryption":8938,"interpre":8939,"Ġprocessor":8940,"(':')":8941,"Internal":8942,"Nodes":8943,"Ġ\"(":8944,"rier":8945,"aking":8946,"observation":8947,"--+":8948,"aux":8949,"ĠPoint":8950,"floor":8951,"CG":8952,"RU":8953,"ned":8954,"ĠLO":8955,"episode":8956,"compound":8957,"lopen":8958,"Timestamp":8959,"containers":8960,"gain":8961,"RECT":8962,"Ġalternative":8963,"namespaces":8964,"Ġnonce":8965,"Ġcum":8966,"asing":8967,"Login":8968,"ĠTType":8969,"Ġordering":8970,"Ġmanually":8971,"Ġreached":8972,"relations":8973,"volumes":8974,"Ġmagnitude":8975,"ĠNULL":8976,"ĠDetermine":8977,"seqs":8978,"ĠDef":8979,"Ġavg":8980,"Ġouter":8981,"ATURE":8982,"ACTION":8983,"CCESS":8984,"Ġpriv":8985,"illa":8986,"Ġstreams":8987,"Ġdocuments":8988,"Ġrecomm":8989,"anging":8990,"encrypt":8991,"'+":8992,"Ġcd":8993,"todo":8994,"\\.":8995,"velope":8996,"=[\"":8997,"asyn":8998,"Ġlarger":8999,"ĠMy":9000,"Ġcanonical":9001,"Ġfits":9002,"Ġdag":9003,"Ġ(``":9004,"nonzero":9005,"ssibly":9006,"Ġsheet":9007,"Ġnamespaces":9008,"appings":9009,"Creating":9010,"Go":9011,"restore":9012,"Ġkill":9013,"Ġ40":9014,"egg":9015,"Ġhaving":9016,"ĠEnvironment":9017,"Ġser":9018,"Ġnc":9019,"aggregate":9020,"reload":9021,"Ġtk":9022,"Ġstuff":9023,"calcul":9024,"Ġelapsed":9025,"urb":9026,"Ġ[('":9027,"Ġosid":9028,"Ġcompound":9029,"Ġcn":9030,"Ġneg":9031,"Ġfake":9032,"Domain":9033,"infile":9034,"feat":9035,"ĠON":9036,"SizePolicy":9037,"Ġattempts":9038,"compression":9039,"Ġminion":9040,"Equal":9041,"Ġdeepcopy":9042,"boundary":9043,"isnan":9044,"Ġrendered":9045,"ĠSerial":9046,"}.{":9047,"mand":9048,"pex":9049,"Ġshutit":9050,"communicate":9051,"Ġsl":9052,"conj":9053,"Ġfloats":9054,"Ġadds":9055,"Columns":9056,"PASS":9057,"Ġleading":9058,"Ġlive":9059,"vcs":9060,"iate":9061,"least":9062,"xture":9063,"Cap":9064,"lax":9065,"Ġpredicted":9066,"ao":9067,"catch":9068,"Cells":9069,"rated":9070,"Ġ###":9071,"pared":9072,"123":9073,"modes":9074,"Ġevaluation":9075,")?":9076,"letes":9077,"chanism":9078,"ĠRetrieve":9079,"EVENT":9080,"Syn":9081,"Ġtc":9082,"xff":9083,"Ġ17":9084,"Ġfilled":9085,"hardware":9086,"Ġfrozen":9087,"Ġhandles":9088,"Example":9089,"trade":9090,"Ġoptionally":9091,"Ġcoli":9092,"Ġttl":9093,"Ġ18":9094,"possible":9095,"packed":9096,"periods":9097,"crop":9098,"lazy":9099,"quared":9100,"fileno":9101,"ĠPermissionDenied":9102,"scene":9103,"Ġsoup":9104,"Ġfrag":9105,"estimator":9106,"Ġwsaction":9107,"Ġretrieved":9108,"Ġsmaller":9109,"ripts":9110,"ichia":9111,"APP":9112,"decorator":9113,"cherichia":9114,"modify":9115,"ĠPRO":9116,"SerializeToString":9117,"vectors":9118,"Ġdp":9119,"Ġ404":9120,"THON":9121,"canonical":9122,"ĠRequired":9123,"Left":9124,"Ġnl":9125,"=\"{":9126,"Ġmarkers":9127,"inux":9128,"Ġrestore":9129,"mpath":9130,"Ġservers":9131,"lexer":9132,"OrderedDict":9133,"Idx":9134,"Ġdecoder":9135,"Ġnotes":9136,"Help":9137,"ug":9138,"measurement":9139,"Ġln":9140,"COUNT":9141,"åĽ":9142,"Ġmargin":9143,"Ġcontig":9144,"Ġinterest":9145,"Ġzeros":9146,"hdf":9147,"infos":9148,"overwrite":9149,"ynomial":9150,"MAGE":9151,"Ġtenant":9152,"Escherichia":9153,"kb":9154,"Ġrenderer":9155,"bulk":9156,"hub":9157,"}_":9158,"QUIRED":9159,"ĠPub":9160,"ILD":9161,"oral":9162,"Ġsubmission":9163,"Ġdoing":9164,"ĠAdds":9165,"Points":9166,"CUR":9167,"inet":9168,"Ġbr":9169,"orn":9170,"Ġ\"*":9171,"elta":9172,"LEVEL":9173,"Ġdetermined":9174,"Body":9175,"inject":9176,"ANT":9177,"Ġestimated":9178,"specified":9179,"folders":9180,"relpath":9181,"Ġflu":9182,"topology":9183,"Received":9184,"nom":9185,"ĠTarget":9186,"Ġformula":9187,"attempts":9188,"cipients":9189,"persist":9190,"smooth":9191,"mgr":9192,"authenticated":9193,",,":9194,"Te":9195,"ience":9196,"atar":9197,"orientation":9198,"ĠNAME":9199,"Member":9200,"ctime":9201,"Ġmeth":9202,"ambda":9203,"Ġaggregate":9204,"meas":9205,"covered":9206,"ĠAccess":9207,"ĠKE":9208,"Analysis":9209,"converter":9210,"__),":9211,"signals":9212,"CM":9213,"riterion":9214,"atched":9215,"qubits":9216,"probs":9217,"4967":9218,"Ġspin":9219,"Ġexpressions":9220,"Ġarticle":9221,"Ġnumer":9222,"overlay":9223,"illiseconds":9224,"Ġtools":9225,"TRAN":9226,"Ġplaceholder":9227,"ĠSchema":9228,"INDEX":9229,"Ġminute":9230,"æĹ":9231,"ĠCustom":9232,"Ġ\\'":9233,"Security":9234,"Ġothers":9235,"REE":9236,"Ġprojects":9237,"limited":9238,"outdir":9239,"solve":9240,"Ġdescribe":9241,"Sizer":9242,"ĠNaN":9243,"Ġdead":9244,"Ġcustomer":9245,"Imp":9246,"Ġpreserve":9247,"umption":9248,"utool":9249,"pf":9250,"ĠStringIO":9251,"fac":9252,"Counter":9253,"Ġresolver":9254,"ĠMAX":9255,"../":9256,"('.',":9257,"charset":9258,"Split":9259,"logits":9260,"PRI":9261,"Ġfall":9262,"else":9263,"ĠNormal":9264,"portal":9265,"Ġiteritems":9266,"ĠDescription":9267,"Ġquad":9268,"ceeded":9269,"ĠAdditional":9270,"secondary":9271,"*',":9272,"Ġeq":9273,"Ġliteral":9274,"Encoding":9275,")})":9276,"SN":9277,"Dest":9278,"Ġdisplayed":9279,"GHT":9280,"Ġstation":9281,"Ġreject":9282,"WORK":9283,"assets":9284,"ĠMag":9285,"``)":9286,",%":9287,"OFF":9288,"gal":9289,"è®":9290,"Ġunused":9291,"Asset":9292,"Ġbootstrap":9293,"ĠDocument":9294,"developer":9295,"checkpoint":9296,"ribution":9297,"Ġconfigs":9298,"transactions":9299,"mainder":9300,"titles":9301,"Ġupgrade":9302,"rength":9303,"outcome":9304,"Seq":9305,"stitute":9306,"Ġrepos":9307,"tailed":9308,"questions":9309,"scaling":9310,"batches":9311,"Ġexcluded":9312,"500000":9313,"Ġkm":9314,"Ġoverrides":9315,"ĠSince":9316,"Ġunable":9317,"ĠThread":9318,"ListType":9319,"boxes":9320,"good":9321,"dh":9322,"Accept":9323,"Pr":9324,"Ġ([":9325,"subparsers":9326,"Ġrequirement":9327,"highlight":9328,"10000":9329,"Ġcf":9330,"upgrade":9331,"ĠMapping":9332,"tbl":9333,"ĠAnd":9334,"Objects":9335,"Ġ'?":9336,"Ġ({})":9337,"']=":9338,"Ġencryption":9339,"Namespace":9340,"Ġpercentage":9341,"ancy":9342,"(\".\")":9343,"Ġshutdown":9344,"Ġdeps":9345,"Ġcovariance":9346,")`":9347,"erance":9348,"ĠRecord":9349,"sequent":9350,"Using":9351,"buted":9352,"Ġipv":9353,"iloc":9354,"å®":9355,"lapse":9356,"Global":9357,"ĠVAL":9358,"Ġexpires":9359,"Try":9360,"Ġmaking":9361,"nic":9362,"who":9363,"scopes":9364,"}`":9365,"half":9366,"Keep":9367,"Extension":9368,"Fin":9369,"Mycobacterium":9370,"ĠSimple":9371,"constructor":9372,"uit":9373,"Ġ'&":9374,"Ġiso":9375,"population":9376,"Transport":9377,"ĠHowever":9378,"Rad":9379,"isoformat":9380,"Ġld":9381,"recognized":9382,"pagin":9383,"reqs":9384,"Right":9385,"ĠCopy":9386,"ĠLabel":9387,"onic":9388,"Ġsuggest":9389,"bold":9390,"ipt":9391,"vy":9392,"capture":9393,"organization":9394,"mix":9395,"deserializer":9396,"thernet":9397,"Ġconverter":9398,"GR":9399,"lag":9400,"Ġlogged":9401,"newaxis":9402,"alert":9403,"iness":9404,"tions":9405,"Ġrh":9406,"=[]":9407,"QtGui":9408,"Ġtolerance":9409,"Ġinp":9410,"ĠDevice":9411,"published":9412,"........":9413,"Ġsynchronous":9414,"DecodeError":9415,"Ġdae":9416,"checked":9417,"===":9418,"today":9419,"uz":9420,"Ġgas":9421,"Ġindexed":9422,"quit":9423,"ĠSSL":9424,"Ġnor":9425,"getenv":9426,"Ġcolour":9427,"crets":9428,"Ġdeployment":9429,"Ip":9430,"hierarchy":9431,"Ġintern":9432,"Ġenc":9433,"Ġtransformed":9434,"squeeze":9435,"Ġtransformation":9436,"Ġconsistent":9437,"URN":9438,"ĠGenerated":9439,"Ġbroker":9440,"Ġalert":9441,"Ġwind":9442,"Ġ[_":9443,"logfile":9444,"Ġleave":9445,"thro":9446,"Ġpayment":9447,"Conf":9448,"Ġ---":9449,"Axis":9450,"idle":9451,"Ġcleaned":9452,"NX":9453,"SR":9454,"NOWN":9455,"Ġxpath":9456,"('__":9457,"4967295":9458,"*\\":9459,"MAC":9460,"]')":9461,"Ġfew":9462,"ĠOK":9463,"AI":9464,"-+-+-+-+-+-+-+-+":9465,"GRA":9466,"AX":9467,"ales":9468,"Ġincoming":9469,"needs":9470,"çĶ¨":9471,"Push":9472,"spy":9473,"realpath":9474,"ora":9475,"-----":9476,"lick":9477,"NODE":9478,">=":9479,"Writ":9480,"ĠSelect":9481,"ULTI":9482,"Ġclosing":9483,"ĠDEBUG":9484,"NULL":9485,"ockets":9486,"snmp":9487,"Ġtopology":9488,"zA":9489,"ball":9490,"PR":9491,"pdu":9492,"wid":9493,"recipe":9494,"attention":9495,"lig":9496,"Ġmodification":9497,"bc":9498,"grp":9499,"Fields":9500,"allele":9501,"Ġ\"/\"":9502,"oling":9503,"usion":9504,"starts":9505,"ĠHel":9506,";\\":9507,"duplicate":9508,"ĠTri":9509,"Comment":9510,"ypes":9511,"Ġcheckpoint":9512,"\"]),":9513,"GROUP":9514,"CMD":9515,"Ġpw":9516,"Ġgeneration":9517,"translation":9518,"Specifi":9519,"Ġnr":9520,"shake":9521,"dimensional":9522,"Ġscheduler":9523,"oney":9524,"Ġchan":9525,"Ġclassification":9526,"ĠDataset":9527,"Ġlikely":9528,"altern":9529,"iana":9530,"IB":9531,"loy":9532,"formula":9533,"byref":9534,"countered":9535,"prise":9536,"Ġflask":9537,"Virtual":9538,"ky":9539,"iline":9540,"hparams":9541,"Ð¸":9542,"stride":9543,"Stre":9544,"degrees":9545,"ĠPAT":9546,"Ġlif":9547,"Ġpc":9548,"itable":9549,"ĠGets":9550,"fcoe":9551,"Provider":9552,"Draw":9553,"arante":9554,"pagate":9555,"Machine":9556,"gnc":9557,"txn":9558,"Ġfw":9559,"ulary":9560,"Ġwildcard":9561,"bon":9562,"Ġpressure":9563,"crc":9564,"Ġtreat":9565,"Ġthresh":9566,"Ġvalidated":9567,"Ġprovides":9568,"anitize":9569,"Ġwallet":9570,"Ġstand":9571,"ĠUsage":9572,"tesian":9573,"Ġopened":9574,"åŃ":9575,"cdf":9576,"ĠPart":9577,"Ġfileobj":9578,"INE":9579,"qos":9580,"scaled":9581,"ĠCom":9582,"imuth":9583,"branches":9584,"Ġtau":9585,"Events":9586,"PROTO":9587,"Ġmouse":9588,"ASH":9589,"Ġgreen":9590,"MSG":9591,"launch":9592,"instr":9593,"Proto":9594,"Ġperformance":9595,"Ġgateway":9596,"{'":9597,"Ġreduced":9598,"Ġletter":9599,"dropout":9600,"Ġconfidence":9601,"Redirect":9602,"RESS":9603,"prime":9604,"Ġcamera":9605,"Ġhide":9606,"ĠReferences":9607,"ĠSIGN":9608,"Driver":9609,"Ġmer":9610,"quis":9611,"Ġsubsp":9612,"broker":9613,"dro":9614,"around":9615,"extras":9616,"classification":9617,"guid":9618,"rup":9619,"(\"#":9620,"sessions":9621,"outs":9622,"Ġcompiled":9623,"ĠMult":9624,"Ġxmax":9625,"supports":9626,"ascript":9627,"proof":9628,"aug":9629,"Ġopcode":9630,"Ġtranscript":9631,"NORE":9632,"Ġ\":":9633,"decl":9634,"Ġide":9635,"writeField":9636,"authorized":9637,"sdk":9638,"Signature":9639,"BLOCK":9640,"['--":9641,"Ġ\\\"":9642,"Genus":9643,"alchemy":9644,"shutit":9645,"INET":9646,"ALI":9647,"180":9648,"Ġdom":9649,"rab":9650,"'``":9651,"ansion":9652,"ĠImplemented":9653,"Ġroutes":9654,"ĠValidate":9655,"CATION":9656,"ĠChecks":9657,"Ġfasta":9658,"uc":9659,"Ġprinted":9660,"Ġlisted":9661,"CLASS":9662,"Lookup":9663,"Ġinitialization":9664,"Ġjump":9665,"uv":9666,"protected":9667,"nat":9668,"Ġdefines":9669,"Ġskipped":9670,"Ġaccepts":9671,"Simple":9672,"è¡":9673,"whitespace":9674,"Ġencrypt":9675,"guess":9676,"orator":9677,"isdigit":9678,"ivot":9679,"Ġweighted":9680,"Operations":9681,"xmin":9682,"Ġpen":9683,"conflict":9684,"olding":9685,"Erp":9686,"issuer":9687,"merged":9688,"Ġusually":9689,"secs":9690,"Ġmm":9691,"needed":9692,"ĠOrder":9693,"Ġallele":9694,"ĠEd":9695,"Ġcodecs":9696,"Ġvolumes":9697,"Zone":9698,"itect":9699,"\"]]":9700,"ENV":9701,"Ġdistances":9702,"letion":9703,"precationWarning":9704,"ko":9705,"Ġil":9706,"what":9707,"sensus":9708,"palette":9709,"MIT":9710,"ĠComm":9711,"cpus":9712,"epsilon":9713,"imation":9714,"ARCH":9715,"infer":9716,"Ġsect":9717,"notation":9718,"Ġwidgets":9719,"FUN":9720,"Ġsg":9721,"Ġrx":9722,"icles":9723,"pag":9724,"METH":9725,"Ġhighlight":9726,"Ġvariants":9727,"Contents":9728,"dup":9729,"zure":9730,"Ġaccum":9731,"swap":9732,"4294967295":9733,"ĠNum":9734,"pod":9735,"Ġutool":9736,"Ġhad":9737,"Ġunexpected":9738,"compose":9739,"weep":9740,"Opt":9741,"through":9742,"Ġprotein":9743,"ĠNull":9744,"KeyError":9745,"creds":9746,",:]":9747,"dead":9748,"Ġdeep":9749,"mr":9750,"spark":9751,"eras":9752,"recur":9753,"perms":9754,"TICAL":9755,"Selection":9756,"TRY":9757,"Ġmedian":9758,"Ġextent":9759,"registration":9760,"Ġestimator":9761,"overrides":9762,"retrieve":9763,"functools":9764,"stock":9765,"inverse":9766,"ĠPerform":9767,"Sn":9768,"Ġ180":9769,"(_(\"":9770,"Ġcombine":9771,"Mag":9772,"Progress":9773,"ĠJob":9774,"Ġplotting":9775,"Enable":9776,"\"+":9777,"['__":9778,"Trace":9779,"TL":9780,"Ġcmp":9781,"protein":9782,"Endpoint":9783,"There":9784,"voice":9785,"calibration":9786,"Ġkv":9787,"Ġpolygon":9788,"Ġdeal":9789,"FD":9790,"vx":9791,"Ġtrial":9792,"arp":9793,"Ġmappings":9794,"receiver":9795,"Ġtheme":9796,"Ġalphabet":9797,"foreign":9798,"Ġquantity":9799,"Pop":9800,"Ġembedding":9801,"BIN":9802,"SUP":9803,"Ġhits":9804,"aching":9805,"overlap":9806,"encrypted":9807,"nums":9808,"ĠNotFound":9809,"coeffs":9810,"Ġreserved":9811,"Ġfilesystem":9812,"Ġfeat":9813,"lhs":9814,"utron":9815,"physical":9816,"Ġfiltering":9817,"Alt":9818,"IX":9819,"[...,":9820,"xFF":9821,"Ġvcf":9822,"Ġpalette":9823,"abc":9824,"exponent":9825,"bian":9826,"Ġrid":9827,"sam":9828,"Ġpb":9829,"avascript":9830,"centers":9831,"Ġspectrum":9832,"Ġseveral":9833,"Ġreload":9834,"Ġbulk":9835,"('>":9836,"mpy":9837,"Ġreaction":9838,"photo":9839,"Category":9840,"MAIN":9841,"Ġclause":9842,"slices":9843,"SUCCESS":9844,"bid":9845,"Ġlicense":9846,"Remote":9847,"ĠSY":9848,"Ġdescribed":9849,"declaration":9850,"igure":9851,"figsize":9852,"elapsed":9853,"Ġfunctools":9854,"NONE":9855,"ĠOPTION":9856,"ExecutionError":9857,"given":9858,"Ġsetmethod":9859,"Ġenterica":9860,"Ġsudo":9861,"ificant":9862,"HOME":9863,"thumbnail":9864,"suite":9865,"authentication":9866,"certs":9867,"Ġmapper":9868,"yield":9869,"stub":9870,"anza":9871,"Ġbounding":9872,"2018":9873,"Fetch":9874,"ogen":9875,"Basic":9876,"Ġ''))":9877,"{},":9878,"culates":9879,"Ġwhy":9880,"Ġcoefficient":9881,"/{}/":9882,"bd":9883,"Ġsink":9884,"uming":9885,"ĠBin":9886,"afe":9887,"basis":9888,"Ġtries":9889,"ĠImp":9890,"Ġheat":9891,"tracker":9892,"Ġlit":9893,"EE":9894,"ino":9895,"stable":9896,"visual":9897,"eper":9898,"xi":9899,"112":9900,"ĠCPU":9901,"scr":9902,"continue":9903,"Ġasc":9904,"LEN":9905,"Ġpartitions":9906,"Ġuniform":9907,"!=":9908,"ĠValues":9909,"Serializer":9910,"yml":9911,"profiles":9912,"Ġenums":9913,"Ġnick":9914,"Ġinfile":9915,"ets":9916,"linux":9917,"Ġformatting":9918,"embedding":9919,"ĠSpecify":9920,"was":9921,"FileName":9922,"locator":9923,"mutations":9924,"Ġ'@":9925,"Ġduplicates":9926,"angular":9927,"DOWN":9928,"ĠStruct":9929,"sampler":9930,"vey":9931,"('',":9932,"factors":9933,"lm":9934,"netloc":9935,"Power":9936,"fallback":9937,"Ġfire":9938,"topics":9939,"Ġvisited":9940,"YPE":9941,"Ġmiddle":9942,"Ġhack":9943,"Ġmasked":9944,"LES":9945,"Ġreadable":9946,"Ġclock":9947,"ĠME":9948,"Ġnormalization":9949,"Ġcapacity":9950,"OPTIONS":9951,"pem":9952,"ĠApply":9953,"CLO":9954,"gzip":9955,"silent":9956,"æĺ":9957,"Ġ`%":9958,"ĠDown":9959,"Ġlinked":9960,"Ġbank":9961,"Ġhold":9962,"fake":9963,"Ġcare":9964,"MAIL":9965,"+=":9966,"lision":9967,"Groups":9968,"Ġdic":9969,"blocking":9970,"]\\":9971,"Ġshortcut":9972,"!!!!":9973,"wk":9974,"attempt":9975,"too":9976,"traffic":9977,"Ġnearest":9978,"velop":9979,"credential":9980,"oper":9981,"abort":9982,"handled":9983,"Decimal":9984,"Fit":9985,"inp":9986,"ĠIS":9987,"fee":9988,"Ġobservations":9989,"hello":9990,"Day":9991,"ĠPage":9992,"Receive":9993,"Factor":9994,"cedure":9995,"Abstract":9996,"ROW":9997,"({})":9998,"IDs":9999,"wheel":10000,"{}.":10001,"Ġproduce":10002,"stroke":10003,"verb":10004,"combine":10005,"iet":10006,"etched":10007,"ĠInteger":10008,"Ġdisp":10009,"APITAL":10010,"Ġ[{'":10011,"Ġdoctest":10012,"ĠThen":10013,"rightness":10014,"nowledge":10015,"Tc":10016,"Ġlearn":10017,"positive":10018,"'\",":10019,"vpc":10020,"Configure":10021,"Ġfrequencies":10022,"Ġcores":10023,"ĠCSV":10024,"lla":10025,"sci":10026,"wl":10027,"Ã©":10028,"decrypt":10029,"ĠTer":10030,"200000":10031,"[\\":10032,"Registry":10033,"ĠUsing":10034,"LEFT":10035,"CLIENT":10036,"91":10037,"hop":10038,"Ġrecipient":10039,"ĠUTC":10040,"Ġreceiver":10041,"LINK":10042,"treat":10043,"Ġack":10044,"argspec":10045,"scriber":10046,"Ġ``(":10047,"closing":10048,"Now":10049,"indicator":10050,"Ġcorpus":10051,"Ġhorizontal":10052,"Ġsecondary":10053,"Ġkwarg":10054,"mavlink":10055,".:":10056,"always":10057,"Ġdw":10058,"quid":10059,"cip":10060,"Ġaddition":10061,"ĠJo":10062,"lasticsearch":10063,"Ġdefer":10064,"ĠCAPITAL":10065,"Ġpay":10066,"spawn":10067,"docstring":10068,"cmds":10069,"Ġfour":10070,"ĠEC":10071,"Ġsampler":10072,"zmq":10073,"Ġbed":10074,"300000":10075,"))):":10076,"Chain":10077,"ĠConnect":10078,"gnoring":10079,"æĸĩ":10080,"tid":10081,"ÑĤ":10082,"matplotlib":10083,"rem":10084,"Ġendpoints":10085,"Notification":10086,"Ġvoltage":10087,"Ġbc":10088,"ĠHE":10089,"Environment":10090,"ĠWith":10091,"Ġlikelihood":10092,"Vari":10093,"]/":10094,"ftype":10095,"Ġraster":10096,"Ġintersection":10097,"ĠTimeout":10098,"800000":10099,"RGB":10100,"Ġfar":10101,"Ġindependent":10102,"COD":10103,"radians":10104,"ares":10105,"endian":10106,"readable":10107,"Ġarbitrary":10108,"Ġvox":10109,">\",":10110,"PM":10111,"imag":10112,"Ġinvoke":10113,"Ġbranches":10114,"Ġcalendar":10115,"levation":10116,"rat":10117,"olation":10118,"ĠTH":10119,"ĠSN":10120,"ĠChannel":10121,"Constraint":10122,"Ġsatis":10123,"________":10124,"Ġsolve":10125,"ĠAction":10126,"ĠMAV":10127,"mags":10128,"SETT":10129,"hn":10130,"Ġhealth":10131,"Ġunion":10132,"Ġvirus":10133,"TODO":10134,"expiration":10135,"ĠStatus":10136,"Ġpiece":10137,">%":10138,"sf":10139,"ä½":10140,"Ġce":10141,"ulations":10142,"Ob":10143,"Ġrecipe":10144,"amel":10145,"Ġtxn":10146,"izations":10147,"Ġlazy":10148,"Ġoccurs":10149,"rotate":10150,"StringIO":10151,"Ġvarious":10152,"ĠLocal":10153,"Ġ;":10154,"coped":10155,"hape":10156,"oa":10157,"ifs":10158,"moment":10159,"calendar":10160,"WH":10161,"ç»":10162,"ĠSu":10163,"Authentication":10164,"sph":10165,"ĠWrap":10166,"Ġimports":10167,"multiplier":10168,"perf":10169,"pause":10170,"ERY":10171,"ĠContro":10172,"retcode":10173,"Ġdescribing":10174,"Ġderivative":10175,"DT":10176,"dent":10177,"Ġseems":10178,"Ġclosest":10179,"rogram":10180,"Named":10181,"coeff":10182,"Ġexpired":10183,"alty":10184,"']}":10185,"itories":10186,"SIS":10187,"PARAM":10188,"Zip":10189,"ĠSample":10190,"sures":10191,"CONNE":10192,"Ġequation":10193,"ĠCF":10194,"compact":10195,"Ġimplicit":10196,"album":10197,"jacency":10198,"Called":10199,"Hub":10200,"]]:":10201,"ĠBY":10202,">'.":10203,"Ġinstr":10204,"Ġ\".\"":10205,"codec":10206,"Ġatt":10207,"markers":10208,"venience":10209,"Ġbb":10210,"Ġinteractive":10211,"Adapter":10212,"Ġmi":10213,"600000":10214,"Ġincrease":10215,"Ġcontrib":10216,"elt":10217,"ĠAccount":10218,"ancestor":10219,"osed":10220,"udio":10221,"meter":10222,"']).":10223,"First":10224,"TK":10225,"avig":10226,"Ġlooks":10227,"reject":10228,"Created":10229,"waiting":10230,"Ġcorresponds":10231,"Starting":10232,"Rows":10233,"jump":10234,"roots":10235,"Ġhighest":10236,"{}]":10237,"Ġcombination":10238,"ĠSyntaxError":10239,"Ġresize":10240,"Ġregistration":10241,"Email":10242,"fromtimestamp":10243,"DIRECT":10244,"Ġ''),":10245,"ĠView":10246,",\\":10247,"Ġiface":10248,"Ġrng":10249,"REAM":10250,"sqlite":10251,"Arg":10252,"Condition":10253,"Must":10254,"rhs":10255,"Ġphysical":10256,"Ġmemo":10257,"ffe":10258,"Windows":10259,"Ġcredential":10260,"ider":10261,"ARK":10262,"Ġinserted":10263,"Ġ\"$":10264,"Ġaccuracy":10265,"optimize":10266,"SPE":10267,"Ġexposure":10268,"Pers":10269,"illing":10270,"Public":10271,"venance":10272,"iam":10273,"Ġcontainers":10274,"Ġscopes":10275,"Ġidentical":10276,"Ġtot":10277,"Ġbold":10278,"Ġymax":10279,"Ġ'_'":10280,"Ġpys":10281,"reading":10282,"Checked":10283,"900000":10284,"Case":10285,"rapping":10286,"Ġmatrices":10287,"transitions":10288,"Ġprefixes":10289,"fb":10290,"conversion":10291,"Ġcaption":10292,"periments":10293,"Ġoptimization":10294,"Exists":10295,"Pair":10296,"Ġrepresented":10297,"/<":10298,"ĠKEY":10299,"isted":10300,"Ġpars":10301,"Cy":10302,"ĠSSH":10303,"Ġsqlite":10304,"CHECK":10305,"usic":10306,"...)":10307,"checker":10308,"ĠRegister":10309,"Multiple":10310,"Ġ`~":10311,"{}\"":10312,"{}\\":10313,"700000":10314,"validators":10315,"discard":10316,"ietf":10317,"Ġfaster":10318,"Termin":10319,"visions":10320,"terminate":10321,"Ġvelocity":10322,"YANGListType":10323,"Temporary":10324,"separated":10325,"****************":10326,"Ra":10327,"etree":10328,"Ġ'{}'\".":10329,"classname":10330,"marks":10331,"NET":10332,"Ġgrouped":10333,"Ġspatial":10334,"Ġexpiration":10335,"Byte":10336,">`_":10337,"mical":10338,"GEX":10339,"identifiers":10340,"=__":10341,"algo":10342,"Ġrecursively":10343,"INST":10344,")[-":10345,"nost":10346,"ĠUP":10347,"Ġscaled":10348,"Ġmultiprocessing":10349,"OUTPUT":10350,"WD":10351,"crit":10352,"ĠReplace":10353,"Ġdidn":10354,"raction":10355,"anger":10356,"atable":10357,"Ġlhs":10358,"poses":10359,"processors":10360,"LAN":10361,"Schedule":10362,"Ġti":10363,"Ġtmpl":10364,"Ġguarante":10365,"Term":10366,"design":10367,"=\"\"):":10368,"ĠDisplay":10369,"WIN":10370,"Ġfollows":10371,"HTTPError":10372,"calib":10373,"languages":10374,"Ġslices":10375,"ĠReference":10376,"finder":10377,"Ġorganization":10378,"Geometry":10379,"ĠSystemExit":10380,"[~":10381,"='')":10382,"Bucket":10383,"ein":10384,"entropy":10385,"filer":10386,"viewer":10387,"Ġspecs":10388,"ament":10389,"ĠSP":10390,"coef":10391,"Ġsong":10392,"addHandler":10393,"scriptors":10394,"Ġasynchronously":10395,"Sync":10396,"ands":10397,"configured":10398,"Ġrecording":10399,"LOB":10400,"Ġauthenticate":10401,"pillar":10402,"oprot":10403,"xp":10404,"Ġsens":10405,"\")]":10406,"subplots":10407,"ENCE":10408,"Ġscene":10409,"tunnel":10410,"inel":10411,"Ġgives":10412,"Ġidentifiers":10413,"048":10414,"sink":10415,"Ġtd":10416,"Ġconvention":10417,"MULTI":10418,"anity":10419,"mmar":10420,"Details":10421,"ĠMatch":10422,"scp":10423,"META":10424,"Has":10425,"LP":10426,"rences":10427,"RENT":10428,"transcript":10429,"gw":10430,"Ġscripts":10431,"Ġtt":10432,"virus":10433,"capabilities":10434,"Ġbi":10435,"subtype":10436,"ĠYield":10437,"EW":10438,"Site":10439,"ople":10440,"Filename":10441,"Sto":10442,"uli":10443,"Ġspi":10444,"Ġxmlns":10445,"RS":10446,"istype":10447,"predictions":10448,"Ġsoap":10449,"ĠAmazon":10450,"Ġva":10451,"Ġpreferred":10452,"Ġshuffle":10453,"ifies":10454,"fromstring":10455,"tempting":10456,"Move":10457,"Ġthumbnail":10458,"have":10459,"fab":10460,"omega":10461,"MBOL":10462,"mant":10463,"nearest":10464,"ea":10465,"Ġpast":10466,"Ġadata":10467,"verted":10468,"Ġask":10469,"Ġsess":10470,"ĠNeed":10471,"hw":10472,"Ġimportlib":10473,"Ġepisode":10474,"ãĢĤ":10475,"Full":10476,"caption":10477,"ĠOAuth":10478,"Ġobjs":10479,"corpus":10480,"Ġmeaning":10481,"ĠDoes":10482,"builtin":10483,"AWS":10484,"potential":10485,"cepts":10486,"Ġaggregation":10487,"(.*":10488,"Ġrd":10489,"triggered":10490,"eng":10491,"Ġpul":10492,"Calculate":10493,"dummy":10494,"ĠDep":10495,"libs":10496,"Ġdebugging":10497,"Lines":10498,"dT":10499,"wire":10500,"unlink":10501,"Ġcookies":10502,"ĠWait":10503,"192":10504,"Metric":10505,"localctx":10506,"Ġhdu":10507,"Ġclassifier":10508,"Ġinfer":10509,"linked":10510,"compliance":10511,"writing":10512,"Ġmacro":10513,"probability":10514,"Ġzipfile":10515,"Ġapplies":10516,"Product":10517,"Ġhappens":10518,"DV":10519,"ilde":10520,"ising":10521,"subs":10522,"tolerance":10523,"arginal":10524,"Validate":10525,"Labels":10526,"Ġele":10527,"ĠExp":10528,"Ġmimetype":10529,"Ġsqrt":10530,"FLA":10531,"Ġaio":10532,"handles":10533,"populate":10534,"networks":10535,"ORDER":10536,"namespaced":10537,"Install":10538,"look":10539,"Des":10540,"Ġslow":10541,"Ġtornado":10542,"vendor":10543,"shuffle":10544,"ĠERR":10545,"Ġextras":10546,"IGNORE":10547,"clare":10548,"iri":10549,"Price":10550,"newline":10551,"SERT":10552,"rates":10553,"Ġ-->":10554,"UUID":10555,"Ġassets":10556,"())[":10557,"It":10558,"fm":10559,"ĠCIM":10560,"breviation":10561,"Scale":10562,"Ġtm":10563,"ĠMon":10564,"Ġmarked":10565,"LANG":10566,"Ġhint":10567,"management":10568,"Ġ...,":10569,"Ġaccounts":10570,"Ġevaluated":10571,"normpath":10572,"IMAGE":10573,"Ġvmax":10574,"trict":10575,"ĠProtocol":10576,"Boolean":10577,"Utils":10578,"RM":10579,"pow":10580,"posal":10581,"HH":10582,"anted":10583,"Ġfolders":10584,"ĠASC":10585,"ana":10586,"Ġremoving":10587,"ĠBit":10588,"blacklist":10589,"Gate":10590,"both":10591,"CRET":10592,"\"',":10593,"Ġdialect":10594,"prep":10595,"queues":10596,"assigned":10597,"observed":10598,"reversed":10599,"Ġsubsequent":10600,"WT":10601,"frozen":10602,"Ġfigsize":10603,")==":10604,"ĠVER":10605,"rfc":10606,"éĢ":10607,"SED":10608,"frag":10609,"qt":10610,"{}_":10611,"Ġcorrespond":10612,"traj":10613,"Ġgeom":10614,"Ġaspect":10615,"Ġimportant":10616,"schemas":10617,"mediator":10618,"Ca":10619,"ĠModule":10620,"splits":10621,"ĠYAML":10622,"ĠSort":10623,"Unicode":10624,"400000":10625,"reaction":10626,"Ġlp":10627,"ĠEl":10628,"Ġoverla":10629,"ĠURLs":10630,"Tr":10631,"Ġmol":10632,"Ġann":10633,"finalize":10634,"credit":10635,"Bot":10636,"`).":10637,"Ġswap":10638,"Ġndim":10639,"]\")":10640,"Ġiv":10641,"kwarg":10642,"Ġxmin":10643,"gridLayout":10644,"Ġquick":10645,"etime":10646,"occ":10647,"Static":10648,"bands":10649,"Maximum":10650,"Cancel":10651,"plt":10652,"chi":10653,"Ġamb":10654,"Ġupdating":10655,"etrieves":10656,"SW":10657,"Ġflip":10658,"Ġlb":10659,"igma":10660,"generators":10661,"MAN":10662,"Ġarrow":10663,"alysistype":10664,"ĠLay":10665,"Art":10666,"eth":10667,"lbl":10668,"RT":10669,"ĠCH":10670,"Ġled":10671,"dct":10672,"submission":10673,"Headers":10674,"DOC":10675,"ĠRaise":10676,"iface":10677,"ĠShow":10678,"pct":10679,"scipy":10680,"Ġsb":10681,"whitelist":10682,"instruction":10683,"phinx":10684,"Ġtransformer":10685,"QA":10686,"lest":10687,"gov":10688,"ĠCommandExecutionError":10689,"weekday":10690,"Ð½":10691,"stackoverflow":10692,"tainty":10693,"elect":10694,"recent":10695,"cedence":10696,"(_('":10697,"Ġviewer":10698,"losis":10699,"rome":10700,"tabs":10701,"ĠAN":10702,"='\\":10703,"phot":10704,"SERVICE":10705,"ico":10706,"reports":10707,"rash":10708,"Ġhashes":10709,"workdir":10710,"ideo":10711,"=(),":10712,"exclusive":10713,"ifts":10714,"ubercu":10715,"Ang":10716,"Ġreward":10717,"ĠNon":10718,"Ġappended":10719,"RON":10720,"jinja":10721,"Ġblocking":10722,"ticket":10723,"uberculosis":10724,"DER":10725,"Ġencountered":10726,"/#":10727,"Ġobserver":10728,"<<":10729,"qte":10730,"Ġtweet":10731,"osa":10732,"Ġsuppress":10733,"Ġcontour":10734,"ĠHere":10735,"ĠSELECT":10736,"every":10737,"Ġdeviation":10738,"ĠCache":10739,"ira":10740,"desk":10741,"iden":10742,"Loading":10743,"Ġnewly":10744,"song":10745,"Note":10746,"ĠUnknown":10747,"Hook":10748,"Ġ['-":10749,"Ġmismatch":10750,">{":10751,"drag":10752,"deep":10753,"Ġfr":10754,"spatial":10755,"vim":10756,"ĠOptions":10757,"Ġinitializer":10758,"ĠJson":10759,"ĠCho":10760,"Ġgetter":10761,"Ġ----------------------------------------":10762,"savefig":10763,"Ġll":10764,"Ġaligned":10765,"printer":10766,"1234":10767,"Ġshapes":10768,"uzz":10769,"ĠEND":10770,"Ġhooks":10771,"Ġpieces":10772,"eff":10773,"achable":10774,"CONST":10775,"rity":10776,"inherit":10777,"Ġremain":10778,"chines":10779,"buckets":10780,"creator":10781,"Ġ';":10782,"Ġshown":10783,"ĠLook":10784,"STRU":10785,"distances":10786,"dense":10787,"onts":10788,"Ġhierarchy":10789,"ĠRef":10790,"Ġ'.'.":10791,"monic":10792,"Ġsnmp":10793,"listeners":10794,"STREAM":10795,"Ġgrab":10796,"epochs":10797,"Ġtup":10798,"PACK":10799,"irm":10800,"ĠRPC":10801,"ordering":10802,"vv":10803,"reserved":10804,"aligned":10805,"ambig":10806,"ĠLink":10807,"qualifier":10808,"SPON":10809,"ConnectionError":10810,"ĠSplit":10811,"itecture":10812,"ticker":10813,"ĠDI":10814,"latex":10815,"afka":10816,"Ġrespon":10817,"Done":10818,"Ġste":10819,"sentences":10820,"Ġdependent":10821,"ygons":10822,"sector":10823,"Ġobtained":10824,"DAT":10825,"tup":10826,"Ġfocus":10827,"='/":10828,"Ġ-----------":10829,"backward":10830,"abstract":10831,"Ġscroll":10832,"ĠOP":10833,"Ġsuitable":10834,"ĠMeta":10835,"buffers":10836,"Ġadapt":10837,"ĠOUT":10838,"Ġreferenced":10839,"Ġlanguages":10840,"(?:":10841,"!'":10842,"Ġbeam":10843,"Ġgain":10844,"ĠStep":10845,"csr":10846,"Ġsorting":10847,"Ġstripped":10848,"delegate":10849,"cycles":10850,"Validator":10851,"Ġexpire":10852,"lio":10853,"latent":10854,"Ġembedded":10855,"Structure":10856,"Ġaren":10857,"ention":10858,"andbox":10859,"'',":10860,"Ġforeign":10861,"ĠSpecifies":10862,"crs":10863,"åį":10864,"iel":10865,"Insert":10866,"Ġpublished":10867,"fetchall":10868,"residue":10869,"hard":10870,"Ġoverlay":10871,"grant":10872,"zs":10873,"asm":10874,"Ġtuberculosis":10875,"Ġprom":10876,"indexed":10877,"Ġresidual":10878,"UPDATE":10879,"Ġticket":10880,"à®":10881,"Ġbackward":10882,"Summary":10883,"QSizePolicy":10884,"gies":10885,"ĠConverts":10886,"EST":10887,"Given":10888,"material":10889,"OPEN":10890,"ĠPort":10891,"ĠEmpty":10892,"ĠDecimal":10893,"Credentials":10894,"dw":10895,"ĠSO":10896,"sib":10897,"aily":10898,"Ġfollowed":10899,"similar":10900,"uzzy":10901,"arily":10902,"Ġinference":10903,"Ġcapt":10904,"Bl":10905,"delt":10906,"itute":10907,"):]":10908,"Ġfloating":10909,"deployment":10910,"peaks":10911,"iro":10912,"Ġdropout":10913,"primitive":10914,"flip":10915,"Ġgt":10916,"Ġrsp":10917,"correlation":10918,"8601":10919,"ĠTrace":10920,"fork":10921,"Ġvmin":10922,"Ġfactors":10923,"Analy":10924,"Card":10925,"Ġnt":10926,"texts":10927,"Ġ23":10928,"Information":10929,"Ġints":10930,"Short":10931,"backends":10932,"[%":10933,"Ġ300":10934,"mplementation":10935,"ParseError":10936,"Download":10937,"Ġyes":10938,"Ġmock":10939,"ĠBytes":10940,"itter":10941,"Ġomitted":10942,"\")):":10943,"counters":10944,"Ġperiods":10945,"Ġintegration":10946,"ĠGoogle":10947,"Ġrepeated":10948,"+\\":10949,"Spa":10950,"WID":10951,"tgt":10952,"argest":10953,"Ġsci":10954,"accuracy":10955,"filled":10956,"torch":10957,"Ġcnt":10958,"auge":10959,"Ġpadded":10960,"frequencies":10961,"Ġ10000":10962,"###":10963,"ĠAssume":10964,"ased":10965,"anel":10966,"contour":10967,"ĠIgnore":10968,"Ġstopped":10969,"coordinate":10970,"Ġmigration":10971,":<":10972,"åĬ":10973,"outh":10974,"Reply":10975,"etag":10976,"reated":10977,"mock":10978,"strand":10979,"=[]):":10980,".'))":10981,"Ġparagraph":10982,"Ġimpro":10983,"SOCK":10984,"einsum":10985,"Git":10986,"sphere":10987,"Arn":10988,"tracks":10989,"Weight":10990,"Got":10991,"qdm":10992,"sas":10993,"indexer":10994,"DEF":10995,"Worker":10996,"dv":10997,"ras":10998,"Ġtrade":10999,"rovar":11000,"Ġjava":11001,"ä¸º":11002,"Ġmeasurements":11003,"[^":11004,"mens":11005,"Ġpillar":11006,"Ġoutcome":11007,"Ġabstract":11008,"specification":11009,"=\",":11010,"dynam":11011,"Ġdeclared":11012,"raster":11013,"Ġys":11014,"ffset":11015,"bidden":11016,"pul":11017,"tel":11018,"ĠIPython":11019,"Ġproxies":11020,"macro":11021,"]\",":11022,"ignKey":11023,"Ġroutine":11024,"percentile":11025,"Ġmanaged":11026,"Center":11027,"allery":11028,"legacy":11029,"ĠTransform":11030,"Null":11031,"suc":11032,"Ġsky":11033,"cases":11034,"Ġlittle":11035,"bw":11036,"xaxis":11037,"anned":11038,"Ġloads":11039,"Ġsessions":11040,"Ġorbit":11041,"capital":11042,"Manage":11043,"vstack":11044,"Ġ```":11045,"PARATOR":11046,"IE":11047,"gd":11048,"ĠWrit":11049,"scales":11050,"Render":11051,"Single":11052,"ught":11053,"ÑĢ":11054,"Ġtgt":11055,"MODU":11056,"Identity":11057,"analysistype":11058,"trast":11059,"SECRET":11060,"')).":11061,"setEnabled":11062,"assembly":11063,"Certificate":11064,"Double":11065,"llable":11066,"othing":11067,"authors":11068,"writerow":11069,"Metrics":11070,"bio":11071,"}_{":11072,"Ġseason":11073,"tempdir":11074,"creasing":11075,"zones":11076,"Ġoptimize":11077,"=\\":11078,"EB":11079,"ĠLocation":11080,"Ġtrajectory":11081,"Ġdestroy":11082,"Ġangles":11083,"_\"":11084,"aspect":11085,"sampled":11086,"Ġsf":11087,"filt":11088,"voltage":11089,"inventory":11090,"Ġoct":11091,"otropy":11092,"unix":11093,"('\\\\":11094,"Release":11095,"Ġregard":11096,"boost":11097,"Bg":11098,"reward":11099,"();":11100,"chors":11101,"(\">":11102,"Ġexceed":11103,"irth":11104,"classifier":11105,"tpl":11106,"annotate":11107,"Ġlexer":11108,"Ġping":11109,"CASE":11110,"Origin":11111,"ratic":11112,"Debug":11113,"DOUT":11114,"ä¸Ģ":11115,"piece":11116,"+')":11117,"tweet":11118,"alker":11119,"argmax":11120,"ske":11121,"Ñģ":11122,"expired":11123,"fold":11124,"nex":11125,"Ġdecrypt":11126,"Require":11127,"startup":11128,"Ġbuilding":11129,"SCHE":11130,"Ġeta":11131,"vex":11132,"Errors":11133,"ĠFrom":11134,"Ġtriggered":11135,"Ġske":11136,"Ġ||":11137,"Ġdenom":11138,"Ġeigen":11139,"ĠEOF":11140,"Ġ28":11141,"BLE":11142,"Ġupon":11143,"ĠDocker":11144,"Ġplus":11145,"Delta":11146,"userid":11147,"interactive":11148,"placement":11149,"Linear":11150,"trees":11151,"Ġptr":11152,"Ġmul":11153,"ĠStorage":11154,"Ġrotate":11155,"DK":11156,"NAMES":11157,"Datetime":11158,":**":11159,"Ġpm":11160,"Ġintermediate":11161,"arer":11162,"transformer":11163,"getattribute":11164,"Ġcome":11165,"ipants":11166,"ldap":11167,"brief":11168,"())))":11169,"Export":11170,"Ġmaterial":11171,"Units":11172,"ny":11173,"colour":11174,"via":11175,"omic":11176,"Minimum":11177,"ict":11178,"Ġha":11179,"Reset":11180,"bsite":11181,"WRI":11182,"Ġix":11183,"Ġthro":11184,"Fixed":11185,"yellow":11186,"heartbeat":11187,"Ġending":11188,"Ġrecv":11189,"attachments":11190,"Ġpod":11191,"replic":11192,"ipedia":11193,"clarations":11194,"NU":11195,"ĠVector":11196,"iff":11197,"rn":11198,"Ġnat":11199,"ĠRET":11200,"Ġverification":11201,"Ġdirective":11202,"GEN":11203,"exposure":11204,"Ġtransactions":11205,"quisition":11206,"fingerprint":11207,"onas":11208,"Ġdatastore":11209,"Ġprofiles":11210,"Ġcurses":11211,"icker":11212,"snapshots":11213,"ĠRGB":11214,"Ġuploaded":11215,"addrs":11216,"Ġstores":11217,"invoke":11218,"blueprint":11219,"Scope":11220,"Ġfingerprint":11221,"Ġbatches":11222,"vest":11223,"Ġstrand":11224,"ĠDeprecationWarning":11225,"Ġyields":11226,"explicit":11227,"Ġviews":11228,"Validation":11229,"/{}'.":11230,"uids":11231,"abb":11232,"Ġsense":11233,"fullname":11234,"alarm":11235,"Ġquotes":11236,"Collect":11237,"TOP":11238,"decay":11239,"Ġidentified":11240,"Ġ'/'.":11241,"restype":11242,"132":11243,"ĠFrame":11244,"Ġ22":11245,"connector":11246,"Processing":11247,"plate":11248,"once":11249,"serts":11250,"Ġsubstitution":11251,"Ġrefer":11252,"products":11253,"ssue":11254,"REGI":11255,"trained":11256,"FIL":11257,"Ġsenten":11258,"Runner":11259,"uris":11260,"('=":11261,"ides":11262,"Threshold":11263,"Ġsaving":11264,"Ġcollected":11265,"writes":11266,"Ġprobabilities":11267,"SCRIPTION":11268,"BR":11269,"pv":11270,"Ġvpc":11271,"agents":11272,"witter":11273,"ĠTakes":11274,",):":11275,"urname":11276,"ĠNS":11277,"Ġinterpret":11278,"Ġuserid":11279,"Ġmodes":11280,"åº":11281,"alphabet":11282,"Ġgran":11283,"fontsize":11284,"Ġtaxon":11285,"cri":11286,"confidence":11287,"Ġlw":11288,"Ġreports":11289,"Ġpossibly":11290,"Ġindicator":11291,"æį":11292,"typecode":11293,"rend":11294,"providers":11295,"ATIC":11296,"Ġtimestamps":11297,"pic":11298,"ĠItem":11299,"ĠCOL":11300,"illus":11301,"ĠUses":11302,"heads":11303,"ĠREST":11304,"Ġfq":11305,"apalm":11306,"UAGE":11307,"Callable":11308,"quoted":11309,"PASSWORD":11310,"Ġsentences":11311,"Samp":11312,"Ġ360":11313,"ĠAx":11314,"ignored":11315,"Iterable":11316,"holders":11317,"Ġtreated":11318,"ĠRedis":11319,"soup":11320,"cooling":11321,"ĠAL":11322,"120":11323,"Ġrefs":11324,"Ġrecommended":11325,"Route":11326,"mirror":11327,"})'.":11328,"Ġexpects":11329,"stp":11330,"Ġ21":11331,"Ġinterp":11332,"ificates":11333,"Attach":11334,"INVALID":11335,"udf":11336,"Ġwor":11337,"INPUT":11338,"Ġissuer":11339,"gorithms":11340,"alformed":11341,"Ġinvoked":11342,"ĠTABLE":11343,"datastore":11344,"Ġymin":11345,"ĠHost":11346,"Ġsuite":11347,"serving":11348,"ĠERROR":11349,"Xml":11350,"cas":11351,"jpg":11352,"Ġbenchmark":11353,"ORTED":11354,"Permission":11355,"LABEL":11356,"magnitude":11357,"deprecated":11358,"portion":11359,"FFER":11360,"expire":11361,"dit":11362,"ĠPDF":11363,"ĠBE":11364,"Ġindexing":11365,"={}'.":11366,"2015":11367,"ĠSize":11368,"Upload":11369,"managed":11370,"199":11371,"Async":11372,"Github":11373,"wp":11374,"__')":11375,"Ġsear":11376,"transforms":11377,"''.":11378,"}</":11379,"ardi":11380,"ĠTYPE":11381,"iful":11382,"Backend":11383,"Ġamplitude":11384,"upy":11385,"playlist":11386,"Ġboundaries":11387,"estimate":11388,"maries":11389,"repe":11390,"utter":11391,"Dictionary":11392,"Ġsampled":11393,"Ġcircuit":11394,"133":11395,"duplicates":11396,"Ġphoto":11397,"Ġskipping":11398,"requirement":11399,"bt":11400,"unked":11401,"addAction":11402,"='.":11403,"TIVE":11404,"Ġflash":11405,"Ġtopics":11406,"Future":11407,"acillus":11408,"ATTRI":11409,"][-":11410,"season":11411,"ĠGL":11412,"llite":11413,"bandwidth":11414,"jax":11415,"REC":11416,"ProcessError":11417,"ptools":11418,"arity":11419,"lipse":11420,"Ġterminate":11421,"Ġproducts":11422,"'%(":11423,"hazard":11424,"stopped":11425,"Ġstructures":11426,"Ġslave":11427,"|\\":11428,"spot":11429,"Addr":11430,"autiful":11431,"predicted":11432,"participant":11433,"Norm":11434,"Ġdr":11435,"...\"":11436,"mallest":11437,"ĠFLAGS":11438,"ĠBasic":11439,"Ġmoving":11440,"GY":11441,"]].":11442,"recording":11443,"graphy":11444,"LIMIT":11445,"Ġdiagonal":11446,"fk":11447,"Ġeg":11448,"ĠSCons":11449,"Ġcalibration":11450,"shortcut":11451,"yaxis":11452,"umor":11453,"Ġ*/":11454,"0001":11455,"ĠFILE":11456,"SPONSE":11457,"urable":11458,"entially":11459,"ĠsizePolicy":11460,"TCP":11461,"paragraph":11462,"BytesIO":11463,"ĠVerify":11464,"hr":11465,"authenticate":11466,"VO":11467,"inplace":11468,"orb":11469,"ĠCalled":11470,"SEPARATOR":11471,"BoxLayout":11472,"ĠExecute":11473,"5000":11474,"hdu":11475,"Ġdeci":11476,"heading":11477,"uplicated":11478,"Ġassumes":11479,"Ġreuse":11480,"Ġupstream":11481,"currences":11482,"Ġrecurse":11483,"Merge":11484,"Ġsd":11485,"Ġexclusive":11486,")>":11487,"?\\":11488,"CALL":11489,"Ġintro":11490,"PK":11491,"viz":11492,"Ġ#################################":11493,"Ġtoday":11494,"ĠAuto":11495,"SyntaxError":11496,"{\\":11497,"Ġcle":11498,"ĠContainer":11499,"RIGHT":11500,"dispatcher":11501,"desired":11502,"Ġslope":11503,"Ġ(?":11504,"argtypes":11505,"Ġthough":11506,"ĠFin":11507,"Ġ&=":11508,"includes":11509,"Partition":11510,"Ġair":11511,"Ġelect":11512,"thrift":11513,"Ġ`{":11514,"Ġlinewidth":11515,"STOP":11516,"lattice":11517,"residual":11518,"'\")":11519,"Ġutf":11520,"ĠIF":11521,"ĠUUID":11522,"Ġ\",\".":11523,"Editor":11524,"History":11525,"middleware":11526,"Ġnm":11527,"Ġ{}.":11528,"\"%(":11529,"SF":11530,"probe":11531,"ATTR":11532,"markdown":11533,"Period":11534,"Ġ2016":11535,"CONTENT":11536,"UNKNOWN":11537,"ndims":11538,"ippet":11539,"Adds":11540,"ĠSetting":11541,"Soup":11542,"verter":11543,"Ġhi":11544,"ĠLength":11545,"ĠOb":11546,"Language":11547,"atellite":11548,"ĠMatrix":11549,"110":11550,"lor":11551,"Ġstypes":11552,"Ġsplits":11553,"Ġproduced":11554,"bol":11555,"Ġaway":11556,"Ġevt":11557,"Available":11558,"Ġthus":11559,"poster":11560,"Processor":11561,"Ġremainder":11562,"Ġomega":11563,"Ġlargest":11564,"Retry":11565,"levelname":11566,"Ġnotifications":11567,"Ġmix":11568,"TemporaryFile":11569,"dget":11570,"keyid":11571,"ĠSetter":11572,"Ġbindings":11573,"rating":11574,"human":11575,"regs":11576,"kws":11577,"trial":11578,"Ġweak":11579,"Ġinstructions":11580,"Ġbond":11581,"Ġnest":11582,"ĠSetup":11583,"timestamps":11584,"circuit":11585,"PG":11586,"licity":11587,"Ġapplicable":11588,"Ġmolecule":11589,"chains":11590,"caps":11591,"motion":11592,"DX":11593,"kl":11594,"conc":11595,"Ġpacked":11596,"activated":11597,"Packet":11598,"Retrieve":11599,"eg":11600,"Ġgrant":11601,"usb":11602,"ĠRandom":11603,"matcher":11604,"envs":11605,"pubkey":11606,"ĠRece":11607,"REGEX":11608,"KEYS":11609,"Ġlegacy":11610,"Da":11611,"nv":11612,"}))":11613,"typing":11614,"160":11615,"expanded":11616,"Ġbelong":11617,"800":11618,"dashboard":11619,"dialect":11620,"Ġqubits":11621,"ASK":11622,"Ġoperators":11623,"Ġbelongs":11624,"Ġoid":11625,"Ġ`{}":11626,"Background":11627,"Cat":11628,"Ġrestrict":11629,"Media":11630,"Ġbackwards":11631,"recover":11632,"ĠRel":11633,"Ġstyles":11634,"CAS":11635,"iters":11636,"Ġgc":11637,"strs":11638,"Private":11639,"Ġhub":11640,"Depend":11641,"cart":11642,"ospf":11643,"pitch":11644,"Ġinferred":11645,"ads":11646,"Ġalbum":11647,"ularity":11648,"FB":11649,"Score":11650,"wav":11651,"ĠInit":11652,"icky":11653,"Ġlocator":11654,"ĠCurrently":11655,"Ġfrozenset":11656,">.":11657,"']])":11658,"procs":11659,"Ġcmds":11660,"))),":11661,"ĠTCP":11662,"{}:":11663,"ĠSymbol":11664,"+)":11665,"hg":11666,"jd":11667,"ĠMissing":11668,"sz":11669,"resample":11670,"Iterator":11671,"slave":11672,"ĠVALUE":11673,"Ġgrpc":11674,"Ġneur":11675,"};":11676,"Ġlocked":11677,"Ġserovar":11678,"REQUIRED":11679,"UTC":11680,"Ġnetworks":11681,"/*":11682,"Ġvtk":11683,"Ġcomps":11684,"weighted":11685,"unctuation":11686,"Repository":11687,"hp":11688,"stmts":11689,"Ġcontro":11690,"Ġsecure":11691,"imshow":11692,"slash":11693,"Library":11694,"gray":11695,"ĠND":11696,"LOCAL":11697,"Ġtransforms":11698,"Ġdigit":11699,"gather":11700,"ĠLet":11701,"loglevel":11702,"ptococcus":11703,"asyncio":11704,"fabric":11705,"seud":11706,")/(":11707,"ancestors":11708,"hold":11709,"posix":11710,"invoice":11711,"aggregation":11712,"Gra":11713,"bond":11714,"urlopen":11715,"addCallback":11716,"ĠMode":11717,"EVT":11718,"8000":11719,"Ġnice":11720,"Ġdetection":11721,"Ġbam":11722,"Ġwheel":11723,"Ġlr":11724,"modname":11725,"rsa":11726,"rnd":11727,"sun":11728,"vtk":11729,"Ġeffective":11730,"BP":11731,"Ġmc":11732,"visibility":11733,"Ġmv":11734,"Ġcorrection":11735,"2010":11736,"Family":11737,"Timer":11738,"readonly":11739,"latin":11740,"Streptococcus":11741,"Ġ\"&":11742,"codings":11743,"will":11744,"('@":11745,"simp":11746,"combined":11747,"åĽŀ":11748,"ĠPAR":11749,"preferred":11750,"Ġunset":11751,"firmware":11752,")*(":11753,".{":11754,"EMAIL":11755,"itivity":11756,"Ġ\"\\\\":11757,"accepted":11758,"eye":11759,"hstack":11760,"Ġdiscard":11761,"tiles":11762,"ua":11763,"Ġsv":11764,"ills":11765,"tokenize":11766,"viding":11767,"tracking":11768,"NUMBER":11769,"minus":11770,"Ġstops":11771,"ĠLoop":11772,"taxon":11773,"OIN":11774,"PAGE":11775,"Ġnic":11776,"could":11777,"ĠTIME":11778,"ĠAli":11779,"Ġreactor":11780,"Ġmodname":11781,"FIELDS":11782,"Ġauthenticated":11783,"{\"":11784,"ĠMongo":11785,"Ġsigning":11786,"Ġdrawing":11787,"Ġjo":11788,"Ġcritical":11789,"umin":11790,"Ġlisting":11791,"consts":11792,"RAW":11793,"åıĸ":11794,"Ġretain":11795,"ĠOperationFailed":11796,"Ġattention":11797,"basedir":11798,"beled":11799,"ä¸ª":11800,"Cir":11801,"WAR":11802,"Ġintersect":11803,"Env":11804,"ĠJust":11805,"PYTHON":11806,"oll":11807,"Ġxi":11808,"Ġcontinuous":11809,"Ġfee":11810,"ĠFlask":11811,"directive":11812,"iki":11813,"(\"/\")":11814,"ĠSto":11815,"ĠOF":11816,"comps":11817,"replica":11818,"ORIZ":11819,"-\\":11820,"solid":11821,"inspe":11822,"atomic":11823,"Integ":11824,"tsv":11825,"suggest":11826,"Ġgenerating":11827,"Records":11828,"Distribution":11829,"EMP":11830,"ĠRFC":11831,"Ġsmart":11832,"collector":11833,"Ġscheduled":11834,"Ġresidue":11835,"Bus":11836,"SSH":11837,"releases":11838,"*,":11839,"recipient":11840,"Ġscenario":11841,"ABASE":11842,"\")))":11843,"perly":11844,"PN":11845,"ĠCI":11846,"ĠFloat":11847,"Ġsubs":11848,"ious":11849,"hesis":11850,"fed":11851,"por":11852,"Ġmav":11853,"Ġclassname":11854,"central":11855,"1111":11856,"096":11857,"Ġspacing":11858,"=.":11859,"Db":11860,"vault":11861,"Ġsubclasses":11862,"enums":11863,"ĠAuthor":11864,"Ġascending":11865,"Evalu":11866,"Press":11867,"rw":11868,"tg":11869,"Ġgrp":11870,"grains":11871,"graphs":11872,"heap":11873,"trunk":11874,"Ġascii":11875,"Ġexecuting":11876,"CER":11877,"Ġbuckets":11878,"registers":11879,"Ġtruncate":11880,"called":11881,"cidr":11882,"imap":11883,"ĠTree":11884,"Ġmechanism":11885,"Ġ3600":11886,"([^":11887,"Ġdpi":11888,"Ġticks":11889,"inality":11890,"FAIL":11891,"ika":11892,"Ġorders":11893,"Long":11894,"water":11895,"chast":11896,"ĠALL":11897,"anno":11898,"flask":11899,"inspection":11900,"liers":11901,"atever":11902,"Ġparticle":11903,"Activity":11904,"Ġcx":11905,"argins":11906,"than":11907,"Ġ'%(":11908,"lane":11909,"argsort":11910,"Ġundefined":11911,"CONF":11912,"Ġlibraries":11913,"multipart":11914,"Ġappears":11915,"Prop":11916,"writel":11917,"middle":11918,"obacter":11919,"ĠHelper":11920,"vox":11921,"ĠOverride":11922,"Ġpts":11923,"reement":11924,"Ġcampaign":11925,"ĠCounter":11926,"rollback":11927,"TM":11928,"ĠPay":11929,"secut":11930,"included":11931,"Ġpolicies":11932,"REMO":11933,"Ġsymbolic":11934,"Ġanalyze":11935,"ĠGeo":11936,"Qual":11937,"orient":11938,"ĠFailed":11939,"Inf":11940,"Ġcodec":11941,"TIAL":11942,"expressions":11943,"Like":11944,"Ġoverall":11945,"Ġcorner":11946,"flash":11947,"proxies":11948,"Console":11949,"STEM":11950,"SEC":11951,"clusion":11952,"ĠEnum":11953,"**(":11954,".],":11955,"har":11956,"Ġdeserialize":11957,"Ġgid":11958,"Ġlos":11959,"])):":11960,"(':',":11961,"Ġsubtype":11962,"regexp":11963,"('.')[":11964,"Ġcontrols":11965,"curl":11966,"Ġoutdir":11967,"duce":11968,"supp":11969,"tmpdir":11970,"ĠPrepare":11971,"Ġsimilarity":11972,"CIM":11973,"NORM":11974,"touch":11975,"rypt":11976,"Axes":11977,"ä¼":11978,"('~":11979,"virt":11980,"('/',":11981,"pyplot":11982,"PROTOCOL":11983,"ATTRIBU":11984,"tics":11985,"warm":11986,"peek":11987,"timeseries":11988,"ĠPop":11989,"Ġxx":11990,"abi":11991,"_['":11992,"Ġhardware":11993,"ONG":11994,"compiled":11995,"See":11996,"BS":11997,"PUB":11998,"Ġgui":11999,"Ġentropy":12000,"Ġframework":12001,"Ġthird":12002,"ĠMAT":12003,"ANY":12004,"Ġgroupby":12005,"Ġ2015":12006,"Ġrelations":12007,"kargs":12008,"Runtime":12009,"reconnect":12010,"lips":12011,"toggle":12012,"ĠMain":12013,"})\".":12014,"ĠGraphQL":12015,"RN":12016,"balancer":12017,"Ġsubparser":12018,"MessageType":12019,"Ġbroken":12020,"rupted":12021,"llegal":12022,"Ġsing":12023,"alleli":12024,"extractor":12025,"Ġescaped":12026,"Assign":12027,"incoming":12028,"limin":12029,"ĠClean":12030,"ĠWidget":12031,"ĠComple":12032,"Ġci":12033,"tele":12034,"ĠTHE":12035,"Std":12036,"Ġchecker":12037,"observations":12038,"SCRIPT":12039,"Hy":12040,"audit":12041,"ĠZero":12042,"dj":12043,"slope":12044,"wc":12045,"Ġpow":12046,"paired":12047,"ĠParser":12048,"Ġquit":12049,"antiate":12050,"ITY":12051,"coded":12052,"2017":12053,"grammar":12054,"æĹ¶":12055,"Ġtell":12056,"Ġlv":12057,"STO":12058,"Ġmatcher":12059,"Ġpolynomial":12060,"CN":12061,"FRA":12062,"Ġnobj":12063,"Ġinvert":12064,"ĠBut":12065,"ARGET":12066,"pho":12067,"{{":12068,"Ġsib":12069,"consistent":12070,"quential":12071,"ENABLE":12072,"ACCESS":12073,"TRA":12074,"drive":12075,"Direct":12076,"Edge":12077,"ĠMAVLink":12078,"FROM":12079,"PDU":12080,"oser":12081,"leave":12082,"Ġpasses":12083,"...'":12084,"\"')":12085,"Cla":12086,"bag":12087,"isation":12088,"Ġ---------":12089,"manent":12090,"Ġrespectively":12091,"RESPONSE":12092,"observer":12093,"ĠKeep":12094,"subj":12095,"verticalLayout":12096,"ĠPATH":12097,"Ġ'</":12098,"rh":12099,"tmpl":12100,"Ġdomains":12101,"ĠComment":12102,"SETTINGS":12103,"dater":12104,"locs":12105,"ately":12106,"preprocess":12107,"passwd":12108,"FILES":12109,"Ġchromosome":12110,"åľ":12111,"Ġum":12112,"Ġpseudo":12113,"Ġbtn":12114,"Ġwater":12115,"xd":12116,"tology":12117,"ĠUTF":12118,"Ġphage":12119,"Ġboxes":12120,"Ġoverridden":12121,"__':":12122,"ĠDNS":12123,"ĠMerge":12124,"Arch":12125,"Ġinterpreter":12126,"'<":12127,")].":12128,"Amount":12129,"patches":12130,"Ġè":12131,"ifted":12132,"Stretch":12133,"cron":12134,"zh":12135,"subclass":12136,"={}\".":12137,"ENDING":12138,"Execute":12139,"flows":12140,"dists":12141,"Ġbaseline":12142,"ĠBackends":12143,"Ps":12144,"mic":12145,"Ġsetter":12146,"pprint":12147,"Ġconditional":12148,"HAND":12149,"ĠFetch":12150,"Ġassoc":12151,"Ġscatter":12152,"rng":12153,"raper":12154,"tokenizer":12155,"representation":12156,"verified":12157,"ä»¶":12158,"éĩ":12159,"ĠAfter":12160,"Ġprepend":12161,"MODEL":12162,"Clean":12163,"Ġff":12164,"Wrong":12165,"Features":12166,"Spe":12167,"futures":12168,"coroutine":12169,"BUILD":12170,"far":12171,"ĠGenerator":12172,"slider":12173,"ARE":12174,"toc":12175,"Ġalg":12176,"Ġtimed":12177,"Ġlogfile":12178,"websocket":12179,"Ġcharge":12180,"Org":12181,"Ġlowest":12182,"å¼":12183,"mplements":12184,"stops":12185,"scheduled":12186,"operands":12187,"inten":12188,"Ġrendering":12189,"ĠHeader":12190,"RESULT":12191,"ĠInstall":12192,"Hz":12193,"Switch":12194,"fam":12195,"review":12196,"measurements":12197,"LANGUAGE":12198,"Ġaa":12199,"ĠSET":12200,"ĠThat":12201,"Ġtransitions":12202,"macs":12203,"setFormatter":12204,"Ġanno":12205,"autifulSoup":12206,"Ġsit":12207,"Ġmt":12208,"omonas":12209,"://%":12210,"while":12211,"Payload":12212,"Ġmilliseconds":12213,"ORS":12214,"Quantity":12215,"Ġspawn":12216,"?)":12217,"FAI":12218,"statuses":12219,"datum":12220,"Some":12221,"]`":12222,"cx":12223,"undefined":12224,"ĠInclude":12225,"Ġhelpers":12226,">\")":12227,"Bro":12228,"Mar":12229,"Ġlocally":12230,"Ġ[]))":12231,"maxsize":12232,"doi":12233,"servable":12234,"CFG":12235,"Ġolder":12236,"atleast":12237,"Ġ{%":12238,"Ġregexp":12239,"Master":12240,"\"\",":12241,"Ġrt":12242,"already":12243,"Perform":12244,"buttons":12245,"WRITE":12246,"stored":12247,"Ġcas":12248,"rained":12249,"(';":12250,"Ġconsumed":12251,"bars":12252,"Ġquoted":12253,"Ret":12254,"zation":12255,"Ġstartup":12256,"ALIGN":12257,"community":12258,"pressure":12259,"Ġconverts":12260,"Connected":12261,"')])":12262,"hexlify":12263,"Ġnumerical":12264,"(\":\")":12265,"Ġsystems":12266,"spectrum":12267,"istant":12268,"Ġlattice":12269,"Ġpitch":12270,"Ġspecimen":12271,"Too":12272,"Ġsymmetric":12273,"Activ":12274,"Util":12275,"Ġconfigurations":12276,"correction":12277,"ĠDatabase":12278,"-'":12279,"ĠCollection":12280,"Red":12281,"ĠJava":12282,"ĠPyJs":12283,"Ġindentation":12284,"assertEqual":12285,"Ġparticipant":12286,"Ġplural":12287,"signing":12288,"NotSet":12289,"polygon":12290,"east":12291,"uptools":12292,"phy":12293,"Ġwebsocket":12294,"Ġatomic":12295,"Alignment":12296,"Ap":12297,"Atom":12298,"Ġinventory":12299,"listing":12300,"prov":12301,"moval":12302,"neur":12303,"Ġopening":12304,"ickness":12305,"Ġfailures":12306,"Constant":12307,"ramid":12308,"publisher":12309,"baseline":12310,"Poly":12311,"pieces":12312,"ĠASCII":12313,"$\",":12314,"Sm":12315,"delivery":12316,"elf":12317,"Ġlbl":12318,"Ġalgo":12319,"Ġintensity":12320,"letters":12321,"Ġcollector":12322,"modifier":12323,"BUFFER":12324,"Ġwavelength":12325,"velopment":12326,"3000":12327,"CKET":12328,"kt":12329,"tostring":12330,"pyang":12331,"Transfer":12332,"Ð¾Ð":12333,"Ġdeclaration":12334,"Ġ'|":12335,"Ġwire":12336,"168":12337,"ĠFileNotFoundError":12338,"Ġyears":12339,"Ġdistributions":12340,"Ġmodifiers":12341,"AMP":12342,"];":12343,"Ġslots":12344,"Ġfiletype":12345,"ĠDirectory":12346,"motes":12347,"Feed":12348,"ĠBinary":12349,"FLAG":12350,"Ġdelegate":12351,"Ġ00":12352,"resume":12353,"ĠFound":12354,"Ġfullname":12355,"documents":12356,"}\"'.":12357,"Ste":12358,"snp":12359,"wf":12360,"Ġtip":12361,"augment":12362,"Ġ','":12363,"Ġmarkup":12364,"ĠApplication":12365,"presence":12366,"Ġdet":12367,"azy":12368,"Predict":12369,"Ġactivate":12370,"NEL":12371,"{:":12372,"daily":12373,"closure":12374,"Ġtranslated":12375,"Ġadj":12376,"decoded":12377,"Ġlocated":12378,"principal":12379,"?\"":12380,"await":12381,"Ġtaking":12382,"ivari":12383,"Ġwrites":12384,"secutive":12385,"pmag":12386,"Ġsam":12387,"medium":12388,"Ġxt":12389,"Ġetag":12390,"ĠRep":12391,"tains":12392,"Ġnear":12393,"Ġtokenize":12394,"circle":12395,"Commit":12396,")\"\"\",":12397,"dings":12398,"chip":12399,"__']":12400,"Ġexe":12401,"about":12402,"termines":12403,"marsh":12404,"SITION":12405,"CHANGE":12406,"Ġfpath":12407,"Ġwf":12408,"opcode":12409,"postgres":12410,"Uri":12411,"Ġdu":12412,"Ġlens":12413,"ĠInternal":12414,"Ġnom":12415,"Ġefficient":12416,"Inv":12417,"Ġvalidators":12418,"TERM":12419,"Curve":12420,"Visible":12421,"MON":12422,"iprot":12423,"Ġbridge":12424,"Ġground":12425,"scenario":12426,"rowse":12427,"framework":12428,"notifications":12429,"ju":12430,"Ġ123":12431,"ENTER":12432,"Ġfaces":12433,"manual":12434,"blk":12435,"EXP":12436,"versation":12437,"Ġinstantiate":12438,"gaussian":12439,"Redis":12440,"Ġzmq":12441,"]._":12442,"stype":12443,"Ġconsistency":12444,"provided":12445,"Ġmodifier":12446,"Clear":12447,"Ġsz":12448,"Ġvendor":12449,"Ġ\\'{":12450,"nest":12451,"111":12452,"ensive":12453,"----------------------------":12454,"Ġstddev":12455,"iae":12456,"Checks":12457,"Ġeasy":12458,"ipython":12459,"OFP":12460,"lout":12461,"Ġchi":12462,"implicit":12463,"bytearray":12464,"QLabel":12465,"posterior":12466,"ĠNet":12467,"deferred":12468,"ensities":12469,"Ġ\"-\"":12470,"Combo":12471,"Finished":12472,"La":12473,"nf":12474,"vt":12475,"footer":12476,"traverse":12477,"translations":12478,"generation":12479,"Apply":12480,"ĠGenerates":12481,"Ġlongest":12482,"Ġearly":12483,"COMMAND":12484,"Ġcumulative":12485,"æī":12486,"heat":12487,"Ġdeferred":12488,"Ġ\":\"":12489,"Ġ_(":12490,"ĠAST":12491,"vides":12492,"qc":12493,"alter":12494,"ALLOW":12495,"varname":12496,"psf":12497,"AIL":12498,"CDF":12499,"Ma":12500,"reet":12501,"anonymous":12502,"Ġelt":12503,"Ġ[]:":12504,"ĠGO":12505,"Ġposter":12506,"RAY":12507,"Ġlowercase":12508,"pyangbind":12509,"benchmark":12510,"Ġsaf":12511,"bugger":12512,"ĠShape":12513,"ĠIterate":12514,"Ġpurposes":12515,"that":12516,"accum":12517,"subscriptions":12518,"ForeignKey":12519,"Literal":12520,"sos":12521,"Ġbid":12522,"Ġylabel":12523,"simulation":12524,"ĠFeature":12525,"FAILED":12526,"Fill":12527,"Ġcrc":12528,"ety":12529,"migration":12530,"intersect":12531,"ConfigParser":12532,"basicConfig":12533,"CY":12534,"ĠAC":12535,"ĠDSM":12536,"{}'":12537,"defaultdict":12538,"within":12539,"Ġheading":12540,"Ġbuttons":12541,"Regex":12542,"ĠMetadata":12543,"rollment":12544,"plural":12545,"Arguments":12546,"Modifi":12547,"Snapshot":12548,"ä¿":12549,"getAttribute":12550,"Ġsignificant":12551,"ĠComponent":12552,"Sort":12553,"leader":12554,"keh":12555,"Ġchunksize":12556,"Kind":12557,"passed":12558,"spike":12559,"pkl":12560,"masks":12561,"mods":12562,"CRI":12563,"Ġchains":12564,"Ġblacklist":12565,"Aut":12566,"tier":12567,"ĠFORM":12568,"Reading":12569,"multiply":12570,"FL":12571,"ima":12572,"Ġmutation":12573,"lam":12574,"Ġperiodic":12575,"Configured":12576,"ĠAppend":12577,"FILTER":12578,"apt":12579,"Ġny":12580,"bem":12581,"discovery":12582,"Ġsometimes":12583,"truncate":12584,"Ġunders":12585,"ĠâĢ":12586,"msgs":12587,"seqid":12588,"Ġimpact":12589,"AttributeError":12590,"Ġprinter":12591,"hib":12592,"tan":12593,"Ġtbl":12594,"Ġspark":12595,"pypi":12596,"pio":12597,"computed":12598,"Ġcolormap":12599,"xticks":12600,"verity":12601,"readed":12602,"Ġrem":12603,"cuda":12604,"STRUCT":12605,"Ġpv":12606,"firmed":12607,"700":12608,"Ġprovision":12609,"genus":12610,"])),":12611,"lidity":12612,"GithubObject":12613,"coders":12614,"Ġattachments":12615,"ĠFlag":12616,"Cost":12617,"PING":12618,"Tip":12619,"dtypes":12620,"consume":12621,"ĠthisObj":12622,"ĠInt":12623,"SKIP":12624,"Ġcreds":12625,"cam":12626,"roi":12627,"Ġevidence":12628,"kes":12629,"Ġjinja":12630,"Ġauthors":12631,"frags":12632,"Ġjoined":12633,"-',":12634,"Dump":12635,"ĠAzure":12636,"ĠSite":12637,"ĠPos":12638,"ĠPackage":12639,"ĠOpt":12640,"Ġgenerators":12641,"misc":12642,"modifiers":12643,"LOBAL":12644,"El":12645,"('^":12646,"ĠDOT":12647,"Ġdistinct":12648,"gramming":12649,"æį®":12650,"ĠDraw":12651,"Ġpackets":12652,"RESET":12653,"Ġreplic":12654,"Month":12655,"Ren":12656,"online":12657,"ĠBO":12658,"Generic":12659,"irmware":12660,"vmin":12661,"Ġmiddleware":12662,"velocity":12663,"derived":12664,"ffffffff":12665,"Ġuncer":12666,"}.'.":12667,"Ġletters":12668,"ĠManage":12669,"ĠDefine":12670,"Ġdoi":12671,"Ġexported":12672,"Ġgrammar":12673,"interpreter":12674,"Ġresample":12675,"250":12676,"fetchone":12677,"ĠEngine":12678,"Ġtensors":12679,"Ġcenters":12680,"æł":12681,"secrets":12682,"arse":12683,"periodic":12684,"ĠRemote":12685,"ĠBatch":12686,"ADDR":12687,"YANGDynClass":12688,"petition":12689,"Ġwhitelist":12690,"'(":12691,"isnull":12692,"moot":12693,"Ġfilt":12694,"Cookie":12695,"yp":12696,"Ġsound":12697,"ĠAbstract":12698,"bute":12699,"Ġdiscrete":12700,"Ġphrase":12701,"Methods":12702,"Ġacceptable":12703,"ĠYields":12704,"unted":12705,"then":12706,"locks":12707,"PATTERN":12708,"UBLE":12709,"Ġmsgs":12710,"qualified":12711,"2014":12712,"ilo":12713,"Ġutc":12714,"Ġcombo":12715,"symlink":12716,"OBJECT":12717,"ĠConstructor":12718,"shards":12719,"){":12720,"abbreviation":12721,"QUERY":12722,"Relation":12723,"dpi":12724,"swagger":12725,"__):":12726,"Ġ``\"":12727,"ĠWS":12728,"150":12729,"Ġfitting":12730,"ĠUnique":12731,"Ġforecast":12732,"Req":12733,"Ġresume":12734,"ĠLa":12735,"Ġdetermines":12736,"Ġtl":12737,"ilation":12738,"paren":12739,"INSERT":12740,"DEP":12741,"Ġtokenizer":12742,"production":12743,"Bits":12744,"GT":12745,"Many":12746,"alone":12747,"exer":12748,"ĠGaussian":12749,"ĠQA":12750,"pkgs":12751,"failures":12752,"intenance":12753,"Ġmixed":12754,"uler":12755,"locate":12756,"ĠChe":12757,"Ġcoroutine":12758,"posts":12759,"skipped":12760,"rbridge":12761,"ENDPOINT":12762,"Ġbehaviour":12763,"DY":12764,"çĽ":12765,"ĠRange":12766,"explo":12767,"ä¸Ń":12768,"MODULE":12769,"Ġary":12770,"consumed":12771,"ĠNullArgument":12772,"VA":12773,"hicle":12774,"psi":12775,"ĠGu":12776,"distinct":12777,"flu":12778,"arb":12779,"Ġcategorical":12780,"Ġbyref":12781,"numer":12782,"rms":12783,"Ġorient":12784,"house":12785,"Ġjsonify":12786,"Ġsupply":12787,"Ġblueprint":12788,"Ġ==========":12789,"Ġlogits":12790,"mimetype":12791,"Place":12792,"PORTED":12793,"hints":12794,"ming":12795,"Ġem":12796,"weak":12797,"ĠCount":12798,"Children":12799,"VS":12800,"Ġprimitive":12801,"Adding":12802,"Ġconnecting":12803,"gradients":12804,";\"":12805,"Ctrl":12806,"unsigned":12807,":]))":12808,")\"\"\"":12809,"Watch":12810,"fwd":12811,"__'":12812,"mins":12813,"Ġ'='":12814,"ĠSum":12815,"Ġvbox":12816,"Ġseparators":12817,"anisotropy":12818,"challenge":12819,"('$":12820,"assemble":12821,"ĠFigure":12822,"Ġtexts":12823,"Ġpaired":12824,"ĠRow":12825,"axon":12826,"psd":12827,"ĠExtra":12828,"After":12829,"BI":12830,"Conn":12831,"bean":12832,"ĠCond":12833,"Append":12834,"Ġdescend":12835,"guide":12836,"ivariate":12837,"story":12838,"Ġctrl":12839,"ĠEvalu":12840,"Ġintended":12841,"PIO":12842,"LAST":12843,"ByName":12844,"Variant":12845,"dll":12846,"setter":12847,"hole":12848,"ĠGen":12849,"ayes":12850,"witches":12851,"]})":12852,"dark":12853,"decompress":12854,"Ġtouch":12855,"chmod":12856,"odata":12857,"Ġgs":12858,"ĠLanguage":12859,"ĠHDF":12860,"contexts":12861,"Spin":12862,"onella":12863,"mpl":12864,"Ġunsigned":12865,"wildcard":12866,"Ġctype":12867,"Ġnv":12868,"Ġintent":12869,"lims":12870,"ĠFOR":12871,"dirpath":12872,"moothed":12873,"Replace":12874,"ARG":12875,"ĠTransaction":12876,"RUNN":12877,"rg":12878,"Ġopa":12879,"Dev":12880,"Ġscr":12881,"MASK":12882,"aneous":12883,")[:":12884,"Ġproof":12885,"Break":12886,"ĠPID":12887,"writeMessage":12888,"Ġshouldn":12889,"('-',":12890,"Ġtiles":12891,"Skipping":12892,"capitalize":12893,"bm":12894,"bash":12895,"cube":12896,"ipment":12897,"Transformer":12898,"Ġdm":12899,"Ġmongo":12900,"urlparse":12901,"[\"_":12902,"Ġ}}":12903,"Ġmn":12904,"UNI":12905,"UTE":12906,"ljust":12907,"Ġdeque":12908,"Ġdisconnect":12909,"Program":12910,"Entries":12911,"Ġdatum":12912,"Selector":12913,"EK":12914,"Pick":12915,"ĠEnt":12916,"Ġ26":12917,"beam":12918,"(((":12919,"Depth":12920,"monitoring":12921,"è¿Ķ":12922,"IER":12923,"Win":12924,"cg":12925,"reactor":12926,"Ġfac":12927,"Ġstub":12928,"('!":12929,"Ġcomes":12930,"Ġxlabel":12931,"toolbar":12932,"emails":12933,"urlencode":12934,"Ġreported":12935,"||":12936,"ĠPe":12937,"shadow":12938,"pref":12939,"individual":12940,"Ġflo":12941,"ĠPandas":12942,"reddit":12943,"Setup":12944,"drum":12945,"Ġgrade":12946,"Choice":12947,"Ġledger":12948,"Pipeline":12949,"hh":12950,"Ġfld":12951,"Ġdists":12952,"Ġnetloc":12953,"Constants":12954,"logo":12955,"Ġleader":12956,"ĠMove":12957,"\"})":12958,"RST":12959,"à¸":12960,"arwin":12961,"pep":12962,"Ġdaily":12963,"dies":12964,"filesystem":12965,"ĠPipeline":12966,"ĠVis":12967,"ledger":12968,"Ġfinding":12969,"descr":12970,":`~.":12971,"Ġcube":12972,"folio":12973,"ĠExpression":12974,"Ġjid":12975,"Ġ...]":12976,"Ġtherefore":12977,"ElementsBy":12978,"Dimension":12979,"AU":12980,"Ġfout":12981,"Diag":12982,"142":12983,"ĠDomain":12984,"Binding":12985,")()":12986,"Fn":12987,"memo":12988,"Ġ{}),":12989,"ĠOPTIONAL":12990,"arter":12991,"lee":12992,"Ġvc":12993,"Ġperf":12994,"structures":12995,"snap":12996,"è¿ĶåĽŀ":12997,"Ġtpl":12998,"decess":12999,"esh":13000,"Ġmoved":13001,"Percent":13002,"Ġaffected":13003,"å¯":13004,"Ġlag":13005,"YANGBool":13006,"Ġinternally":13007,"CAP":13008,"YDV":13009,"bz":13010,"dbs":13011,"tray":13012,"Ġstroke":13013,"('*":13014,"Ġseek":13015,":`\\":13016,"Ġrealm":13017,"Uniform":13018,"\"/":13019,"parsing":13020,"Ġmarkdown":13021,"depends":13022,"ĠMaybe":13023,"QQ":13024,"Ġpx":13025,"ĠReport":13026,"Segments":13027,"Ġqueues":13028,"Ġlatent":13029,"Ġdetector":13030,"DN":13031,"Scal":13032,"dos":13033,"xmax":13034,"Ġcity":13035,"ĠPopen":13036,"Ġtwice":13037,"MENTS":13038,"755":13039,"METHOD":13040,"wbem":13041,"mpp":13042,"Ġchanging":13043,"aved":13044,"tagged":13045,"Ġcircle":13046,"Div":13047,"UDE":13048,"Vec":13049,"Repo":13050,"ĠRemoves":13051,"125":13052,"SCA":13053,"ĠUpdates":13054,"Geo":13055,"LM":13056,"ifo":13057,"ĠUt":13058,"}'\".":13059,"hc":13060,"Ġcrit":13061,"Ġfut":13062,"heater":13063,"scrib":13064,"ONT":13065,"Keyboard":13066,"amplitude":13067,"rpm":13068,"analyze":13069,"Ġconcaten":13070,"Topic":13071,"FLO":13072,"115":13073,"BAD":13074,"REL":13075,"characters":13076,"CEPTION":13077,"Ġbecomes":13078,"ortest":13079,"Ġstrain":13080,"Annotation":13081,"ĠINTO":13082,"Ġhowever":13083,"ĠCollect":13084,"Ġoften":13085,"ĠCannot":13086,"Ġreplica":13087,"High":13088,"mate":13089,"pes":13090,"gines":13091,"MessageBox":13092,"protocols":13093,"SAMPLE":13094,"venv":13095,"Ġ'):":13096,"pread":13097,"ĠRule":13098,"REQ":13099,"cumsum":13100,"Ġaiohttp":13101,"peptide":13102,"colorbar":13103,"padded":13104,"NEW":13105,"WIDTH":13106,"stddev":13107,"Ġpsutil":13108,"FUNCTION":13109,"chastic":13110,"Ġmor":13111,"ĠLookup":13112,"PROJECT":13113,"Ġstim":13114,"Ġub":13115,"TagName":13116,",(":13117,"4000":13118,"cj":13119,"fx":13120,"Ġmtime":13121,"fobj":13122,"completer":13123,"ĠINPUT":13124,"Constructor":13125,"Ġaw":13126,"agers":13127,"Ġreflect":13128,"adir":13129,"illed":13130,"Ġnotation":13131,"Ġhazard":13132,"colon":13133,"Ġcomposite":13134,"Detail":13135,"Ġgoes":13136,"IPv":13137,"squared":13138,"chk":13139,"Ġserialization":13140,"ĠMinimum":13141,"Ġdetailed":13142,"StreamHandler":13143,"=(\"":13144,"Ġgaussian":13145,").\"\"\"":13146,"itertools":13147,"fqdn":13148,"/')":13149,"study":13150,"apis":13151,"Ġ==================================":13152,"urllib":13153,"Ġinterpolate":13154,"Mis":13155,"Zero":13156,"ening":13157,"Ġhmac":13158,"Ġrtype":13159,"pyxb":13160,"amazon":13161,"Ġreshape":13162,"ĠAdding":13163,"Ġplaintext":13164,"ĠImpro":13165,"Ġunsupported":13166,"Ġpassphrase":13167,"Ġmanagement":13168,"âķ":13169,"Ġrobot":13170,"Ġradians":13171,"emu":13172,"İ¥":13173,"Ġheap":13174,"intercept":13175,"Ġparsers":13176,"discover":13177,"ĠEntry":13178,"Ġegg":13179,"molecule":13180,"ĠMetri":13181,"Equ":13182,"SING":13183,"Ġuint":13184,"ĠSIG":13185,"Ġrad":13186,"serialization":13187,"svc":13188,"Ġcoeffs":13189,"jvm":13190,"Ġì":13191,"invert":13192,"Ġfine":13193,"Ġ{}))":13194,"Ġsubmitted":13195,"Ġflattened":13196,"Ġ())":13197,"REEN":13198,"ĠStandard":13199,"Ġinterpreted":13200,"tim":13201,"asctime":13202,"Ġsubtract":13203,"assoc":13204,"vpn":13205,"RET":13206,"Updates":13207,"Your":13208,"Ġremoves":13209,"Ġdecay":13210,"Ġdeletion":13211,"ĠPa":13212,"preference":13213,"Cl":13214,"xA":13215,"spans":13216,"Ġcoll":13217,"Ġqubit":13218,"lashes":13219,"years":13220,"Ġinstallation":13221,"sis":13222,"getElementsBy":13223,"Ġguest":13224,"ĠEN":13225,"Standard":13226,"Ġ\"%(":13227,"orizon":13228,"alogs":13229,"SCHEMA":13230,"CV":13231,"grads":13232,"occup":13233,"HR":13234,"Ġck":13235,"Ġrecogn":13236,"ĠReset":13237,"STDOUT":13238,"ĠCould":13239,"Micro":13240,"qr":13241,"tight":13242,"throw":13243,"logout":13244,"Chunk":13245,"Ġrespond":13246,"BYTES":13247,"Mouse":13248,"rsp":13249,"ymin":13250,"eratures":13251,"Ġfresh":13252,"vicer":13253,"ĠSingle":13254,"ulo":13255,"replacement":13256,"Chat":13257,"descend":13258,"Dispatch":13259,"Ġ[-]":13260,"Ġ{}'":13261,"lination":13262,"dash":13263,"Ġpara":13264,"Ġchip":13265,"Ġ{'$":13266,"tensors":13267,"Ġsnapshots":13268,"Ġconsume":13269,"indx":13270,"centration":13271,"147":13272,"+'.":13273,"adv":13274,"ĠTotal":13275,"Ġprefer":13276,"Ġprepared":13277,"feats":13278,"Ġfunctionality":13279,"ĠLEFT":13280,"redirects":13281,"Ġpublisher":13282,"æĺ¯":13283,"Rot":13284,"gm":13285,"isq":13286,"Ġ%}":13287,"choose":13288,"Algorithm":13289,"campaign":13290,"***":13291,"answers":13292,"ouch":13293,"Ġvim":13294,"months":13295,"thresholds":13296,"æĿ":13297,"Ġ+\\":13298,"Ġther":13299,"Ġcoerce":13300,"ĠHy":13301,"ĠWhat":13302,"markets":13303,"<=":13304,"mble":13305,"secho":13306,"reed":13307,"Ġdecoding":13308,"ĠPRE":13309,"Ġmanual":13310,"Subject":13311,"onym":13312,"Ġtid":13313,"upstream":13314,"intent":13315,"Ġretcode":13316,"Ġastroid":13317,"Such":13318,"Vertex":13319,"ĠDownload":13320,"_{}'.":13321,"ius":13322,"pls":13323,"oping":13324,"Ġcomputing":13325,"Ġversionchanged":13326,"quota":13327,"losses":13328,"Ġrl":13329,"ours":13330,"('/'):":13331,">>>":13332,"Spect":13333,"uns":13334,"persistent":13335,"arcsec":13336,"Ġdelim":13337,"ĠGPU":13338,"Ġ&&":13339,"ADDRESS":13340,"åĩ":13341,"æŀ":13342,"Ġlm":13343,"Ġgiving":13344,"Ġvalidity":13345,"ĠSignal":13346,"Video":13347,"timing":13348,"Ġlvl":13349,"quotes":13350,"udp":13351,"PB":13352,"fieldnames":13353,"Ġnoinspection":13354,"Ġperms":13355,"lanation":13356,"Ġstacklevel":13357,"successful":13358,"202":13359,"PTI":13360,"jwt":13361,"intensity":13362,"Ġacl":13363,"WM":13364,"Ġdn":13365,"etches":13366,"ĠSV":13367,"Ġ\\'%":13368,"MAG":13369,"Ġdispatcher":13370,"Customer":13371,"Ġsucceed":13372,"Estim":13373,"TX":13374,"Vol":13375,"packets":13376,"Ġanyway":13377,"Ġ'-':":13378,"Messages":13379,"IOError":13380,"ensemble":13381,"SYSTEM":13382,"Ġorm":13383,"erts":13384,"assis":13385,"','')":13386,"Checking":13387,"SG":13388,"tur":13389,"Ġ(*":13390,"Ġgather":13391,"ONLY":13392,"Keyword":13393,"ĠAuthentication":13394,"ĠMultiple":13395,"ĠBytesIO":13396,"FN":13397,"Ġplate":13398,"ĠForce":13399,"Ġrecipients":13400,"pools":13401,"ĠCre":13402,"PROCESS":13403,"Ġnamedtuple":13404,"Ġdrive":13405,"fileName":13406,"bust":13407,"Ġspot":13408,"Ġexpansion":13409,"Ġphenotype":13410,"specimens":13411,"avigation":13412,"Ġsoapaction":13413,"delim":13414,"leet":13415,"qubit":13416,"MEM":13417,"TTON":13418,"2016":13419,"Ġkwds":13420,"icons":13421,"Supp":13422,"Click":13423,"More":13424,"pies":13425,"Ġ{:.":13426,"Ġpause":13427,"STATIC":13428,"Ġjar":13429,"Ġcauses":13430,"genotype":13431,"distro":13432,"Ġprincipal":13433,"isect":13434,"Ġpygame":13435,"Couldn":13436,"DAY":13437,"votes":13438,"Ġfriendly":13439,"mmutable":13440,"ĠExpected":13441,"Ġkept":13442,"dem":13443,"Ġpatches":13444,"ĠClear":13445,"åĮ":13446,"éĹ":13447,"lications":13448,"ĠConv":13449,"radio":13450,"[@":13451,"Ġhd":13452,"pathname":13453,"Ġorb":13454,"ĠPA":13455,"imizer":13456,"ĠNUM":13457,"Converter":13458,"comma":13459,"RequestMsg":13460,"tooltip":13461,"CODING":13462,"friendly":13463,"enoid":13464,"itors":13465,"tee":13466,"ĠMD":13467,"ĠVolume":13468,"Ġtested":13469,"Mac":13470,"Ġlista":13471,"Separ":13472,"centric":13473,"ĠProperty":13474,"selves":13475,"Ġkeras":13476,"Detect":13477,"Parses":13478,"Ġinteraction":13479,"pane":13480,"ĠValidation":13481,"Scroll":13482,"'$":13483,"JOB":13484,"brid":13485,"Ġdh":13486,"([-":13487,"enses":13488,"Ġtriggers":13489,"384":13490,"SESSION":13491,"IGNORECASE":13492,"sters":13493,"Ġray":13494,"Ġunix":13495,"isson":13496,"Ġ99":13497,"robot":13498,"utors":13499,"Ġ({}":13500,"olated":13501,"ĠAgent":13502,"Ġwhatever":13503,"smart":13504,">\".":13505,"Ġtrees":13506,"Ġfetched":13507,"Contin":13508,"Experiment":13509,"Polygon":13510,"Actions":13511,"TARGET":13512,"xdata":13513,"formatting":13514,"Ġsaltenv":13515,"RDF":13516,"Surface":13517,"Vert":13518,"ple":13519,"('''":13520,"pole":13521,"Ġ2000":13522,"Deferred":13523,"Ġgenerates":13524,"ĠMemory":13525,"continuous":13526,"025":13527,"Ġverified":13528,"åŃĹ":13529,"Ġsmallest":13530,"asn":13531,"omaly":13532,"Ġrecognized":13533,"Ġ512":13534,"coefficients":13535,"ĠCalculates":13536,"Ġvoxel":13537,"categorical":13538,"leton":13539,"Ġ\"\"\")":13540,"(\"__":13541,"ĠFlow":13542,"excluded":13543,"ĠDATA":13544,"Ġtrust":13545,"dtemp":13546,"Ã¡":13547,"ĠSQ":13548,"Ġneither":13549,"books":13550,"Ġdifferences":13551,"ä¸į":13552,"ĠOUTPUT":13553,"BIC":13554,"Strict":13555,"unexpected":13556,"ĠDim":13557,"trust":13558,"Ġlost":13559,"ights":13560,"REPL":13561,"Diff":13562,"ĠSecurity":13563,"fficiency":13564,"guest":13565,"sound":13566,"Ġcircular":13567,"AMETER":13568,"ĠdL":13569,"ĠFuture":13570,"Ġassuming":13571,"Ġsnap":13572,"Ġmultiplier":13573,"atively":13574,"-----+":13575,"ĠOperator":13576,"ongodb":13577,"Supported":13578,"Ġassembly":13579,"ĠFore":13580,"iring":13581,"DENT":13582,"Classifier":13583,"Ġ'{}'.":13584,"Executor":13585,"Ġrecursion":13586,"pu":13587,"ãĥ":13588,"Ġcaching":13589,"Ġhgnc":13590,"undles":13591,"NAMESPACE":13592,"Reads":13593,"freqs":13594,"Ġrelpath":13595,"reduced":13596,"iliary":13597,"}-{":13598,"Ġdatacenter":13599,"capt":13600,"Ġconnector":13601,"Already":13602,"wikipedia":13603,"Ġposterior":13604,"uters":13605,"ung":13606,"Ġmirror":13607,"keeper":13608,"realm":13609,"ĠEnable":13610,"ina":13611,"Ġnapalm":13612,"vecs":13613,"intro":13614,"ĠNothing":13615,"overall":13616,"diagonal":13617,"Ġstrides":13618,"LYPH":13619,"6000":13620,"strain":13621,"Ġrval":13622,"Ġtranspose":13623,"soap":13624,"ĠUnicodeDecodeError":13625,"âĸ":13626,"Ġreview":13627,"Ġpainter":13628,"classpath":13629,"softmax":13630,"655":13631,"rnn":13632,"wide":13633,"ingu":13634,"Drop":13635,"Scalar":13636,"Ġcron":13637,"replay":13638,"Ġcontexts":13639,"Ġgenotype":13640,"Pen":13641,"XR":13642,"declared":13643,"ĠCA":13644,"REST":13645,"testing":13646,"Ġtranslations":13647,"Ġplotted":13648,"ĠUnit":13649,"Ġeffects":13650,"VARI":13651,"JS":13652,"Ġaf":13653,"ĠDes":13654,"Counts":13655,"Ġauthorized":13656,"Modified":13657,"pore":13658,"goal":13659,"Ġvisitor":13660,"getElementsByTagName":13661,"don":13662,"uro":13663,"Ġcompose":13664,"MET":13665,"ResultMsg":13666,"ĠClose":13667,"baz":13668,"das":13669,"Ġstudy":13670,"validated":13671,"subparser":13672,"ĠReads":13673,"ĠBeautifulSoup":13674,"IDEN":13675,"Sent":13676,"vote":13677,"Ġft":13678,"Ġ'['":13679,"__]":13680,"ĠPlugin":13681,"undo":13682,"Ġcompared":13683,"aven":13684,"Ġfastq":13685,"assignments":13686,"FACT":13687,"Lambda":13688,"bare":13689,"instructions":13690,"Ġplaces":13691,"104":13692,"sockopt":13693,"Ġcycles":13694,"âĢĻ":13695,"treatment":13696,"xf":13697,"party":13698,"quares":13699,"Ġenforce":13700,"HASH":13701,"orbit":13702,"cobian":13703,"spend":13704,"Ġrates":13705,"texture":13706,"Outer":13707,"solenoid":13708,"provisioning":13709,"FRAME":13710,"!\".":13711,"Ġfrac":13712,"gran":13713,"Ġholds":13714,"Ġprefixed":13715,"smtp":13716,"perlyConfigured":13717,"Panel":13718,"rosa":13719,"Ġvrf":13720,"Ġsubtitle":13721,"Ġcompletely":13722,"INTERN":13723,"ĠHttpResponseRedirect":13724,"GG":13725,"hl":13726,"ssian":13727,"ferer":13728,"CTED":13729,"ĠFAST":13730,"Ġ{}\"":13731,"ĠGrid":13732,"Ġlinestyle":13733,"Ġsubcommand":13734,"Ġconstructed":13735,"AK":13736,"Duplicate":13737,"ctr":13738,"Ġmaintain":13739,"Ġutility":13740,"draft":13741,"tv":13742,"BF":13743,"lacing":13744,"chaff":13745,"Ġboost":13746,"Ġpersistent":13747,"Ġsmoothing":13748,"/\",":13749,"hemer":13750,"idity":13751,"Real":13752,"Ġproviding":13753,"Ġnormally":13754,"'[":13755,"dyn":13756,"fatal":13757,"phenotype":13758,"\"]):":13759,"wavelength":13760,"ĠElementTree":13761,"modification":13762,"lvl":13763,"wner":13764,"Ġvoice":13765,"coll":13766,"FilePath":13767,"Calcul":13768,"_',":13769,"atex":13770,"icast":13771,"conditional":13772,"adoop":13773,"NaN":13774,"ĠLinux":13775,"scribed":13776,"Mean":13777,"ATED":13778,"ĠLambda":13779,"ĠProfile":13780,"ĠOptionParser":13781,"Car":13782,"fds":13783,"Ġdup":13784,"ĠPr":13785,"Inline":13786,"itervalues":13787,"withdraw":13788,"ALT":13789,"clust":13790,"Closed":13791,"Ġconcrete":13792,"ĠFix":13793,"ivo":13794,"Ġreadline":13795,"corded":13796,"Ġbuilds":13797,"æľī":13798,"Ġregardless":13799,"ISO":13800,"MARY":13801,"Tx":13802,"Ġstoring":13803,"composite":13804,"DEVICE":13805,"cmdline":13806,"Ġsynchron":13807,"Disk":13808,"Ġtracking":13809,"Ui":13810,"vect":13811,"Ġ\"|":13812,"ĠTop":13813,"Ġhs":13814,"Ġassessment":13815,"Expi":13816,"libinput":13817,"alleles":13818,"subjects":13819,"Ġpagination":13820,"Ġldap":13821,"intern":13822,"Ġot":13823,"Ġbio":13824,"Ġ27":13825,"Ġtimeseries":13826,"Measure":13827,"Ġrandomly":13828,"Ġsymlink":13829,"Side":13830,"aes":13831,"rink":13832,"ĠEmail":13833,"ĠWord":13834,"Ġconverting":13835,"Unique":13836,"bench":13837,"hance":13838,"lng":13839,"Ġaudit":13840,"ĠAut":13841,"Ġoffer":13842,"diffs":13843,"impact":13844,"interpolate":13845,"401":13846,"403":13847,"isfinite":13848,"Ġconvenience":13849,"107":13850,"Ġvocabulary":13851,"almonella":13852,"QT":13853,"------+":13854,"Ġphot":13855,"Ġseqs":13856,"Hello":13857,"interpolation":13858,"Shell":13859,"eof":13860,"yr":13861,"CORE":13862,"Ġoptimal":13863,"rete":13864,"()+":13865,"ĠARA":13866,"Ġalarm":13867,"xxxx":13868,"Ġpurpose":13869,"warded":13870,"CalledProcessError":13871,"Ġhdf":13872,"Ġsemant":13873,"Ġpeptide":13874,"('_',":13875,"Ġaugment":13876,"+)\\":13877,"Ġburn":13878,"Ġring":13879,"systems":13880,"Ġfinder":13881,"144":13882,"Ġbinascii":13883,"ZipFile":13884,"Sheet":13885,"]][":13886,"102":13887,"MainWindow":13888,"105":13889,"Pointer":13890,"ĠLock":13891,"Ġcreator":13892,"Initializes":13893,"bul":13894,"ague":13895,"Ġ\"\").":13896,"ATIONS":13897,"ĠInterval":13898,"Play":13899,"kers":13900,"spice":13901,"Ġgal":13902,"provenance":13903,"Ġloops":13904,"Dynam":13905,"Ġticker":13906,"evidence":13907,"ĠBU":13908,"ĠBig":13909,"substitution":13910,"Ġcommunic":13911,"leaves":13912,"DESCRIPTION":13913,"Ġhasher":13914,"Ġxyz":13915,"()],":13916,"Problem":13917,"Ġmyminion":13918,"Ġperforming":13919,"Ġtzinfo":13920,"Ġdivmod":13921,"Ġreach":13922,"USERNAME":13923,"ission":13924,"rdd":13925,"tml":13926,"ĠCluster":13927,"Ġargspec":13928,"Ġpasswd":13929,"ĠSeq":13930,"Monitor":13931,"Horizontal":13932,"descriptions":13933,"cture":13934,"cers":13935,"hz":13936,"Ġwd":13937,"sparent":13938,"(*[":13939,"ĠSpecial":13940,"getpid":13941,"ĠScale":13942,"Ġproceed":13943,"undant":13944,"Ġrol":13945,"Ġspl":13946,"TimeoutError":13947,"Salmonella":13948,"Ġjoint":13949,"minator":13950,"subcommand":13951,"**:":13952,"you":13953,"Ġfault":13954,"Ġemp":13955,"apses":13956,"Ġdiscovery":13957,"Ġadvanced":13958,"Ġapplying":13959,"Ġregexs":13960,"Ġdecision":13961,"Converts":13962,"substitute":13963,"Logging":13964,"Ġtitles":13965,"POS":13966,"Ġdistributed":13967,"Ġplaced":13968,"havior":13969,"emb":13970,"junction":13971,"Ġserve":13972,"Ġstable":13973,"groupdict":13974,"pwm":13975,"ĠSYMBOL":13976,"Ġsemi":13977,"outgoing":13978,"Ġprobe":13979,"MEDI":13980,"(\",\")":13981,"javascript":13982,"routine":13983,"ĠMUST":13984,"tracer":13985,"rsvp":13986,"sphinx":13987,"Glyph":13988,"LF":13989,"ococcus":13990,"ĠTEXT":13991,"dated":13992,"HEM":13993,"symbolic":13994,"Ġplaylist":13995,"Secret":13996,"lipsis":13997,"å½":13998,"semi":13999,"Ġreconnect":14000,"buy":14001,"EXTEN":14002,"Ġconflicts":14003,"relationships":14004,"gps":14005,"ģ¯":14006,"Ġtiming":14007,"also":14008,"dif":14009,"Ġthink":14010,"ĠEstim":14011,"Ġprecedence":14012,"Ġworksheet":14013,"------------------------":14014,"('_')":14015,"(.":14016,"ahead":14017,"Ġcriterion":14018,"covariance":14019,"bypass":14020,"subtitle":14021,"Ġlead":14022,"documentation":14023,"Workflow":14024,"Canvas":14025,"Marker":14026,"Ġmedium":14027,"BEM":14028,"FY":14029,"LC":14030,"xlarge":14031,"Ġsurname":14032,"iguous":14033,"Ġ204":14034,"Ġpreview":14035,"Ġsends":14036,"RequestException":14037,"Ġmasks":14038,"Generating":14039,"brain":14040,"lg":14041,"(''.":14042,"ĠMAC":14043,"ĠLib":14044,"expiry":14045,"Ġstock":14046,"Ġfluid":14047,"atum":14048,"Ġwish":14049,"Ġhar":14050,"ĠNamespace":14051,"FILENAME":14052,"Ġ'?'":14053,"ama":14054,"jj":14055,"Ġ=\\":14056,"arct":14057,"ĠSwagger":14058,"Ġprot":14059,"ĠVirtual":14060,"Ġattack":14061,"Ġsector":14062,"FFIX":14063,"gca":14064,"qp":14065,"Ġwall":14066,"Ġ(\\":14067,"elery":14068,"TypeId":14069,"Ġspans":14070,"whm":14071,"Distance":14072,"Ġtqdm":14073,"Ġia":14074,"Ġwcs":14075,"Ġrst":14076,"Ġensures":14077,"computation":14078,"UNE":14079,"ĠProgram":14080,"Ġpairwise":14081,"discrete":14082,"effective":14083,"ĠStructure":14084,"Screen":14085,"Ġapproach":14086,"scribers":14087,"kappa":14088,"Ġvote":14089,"STOR":14090,"Ġscales":14091,"Ġgrains":14092,"Ġdropped":14093,"Ġfooter":14094,"ki":14095,"dication":14096,"ĠTMessageType":14097,"Ġran":14098,"kward":14099,"Shift":14100,"Ġdtypes":14101,"109":14102,"authority":14103,"queued":14104,"ĠNameError":14105,"Ġcombinations":14106,"Phase":14107,"Ġtarfile":14108,"ano":14109,"Ġtypically":14110,"Eq":14111,"bes":14112,"inference":14113,"chore":14114,"linesep":14115,"Ġcolorbar":14116,"Ġstatistic":14117,"ĠParseError":14118,"IMP":14119,"Lat":14120,"Ġfutures":14121,"coerce":14122,"('|":14123,"Ġhot":14124,"Ġrp":14125,"checkout":14126,"SECON":14127,"ĠQU":14128,"overla":14129,"ĠHTTPError":14130,"Ġcentral":14131,"ssaging":14132,"Ġmysql":14133,"Ġwants":14134,"preset":14135,"ĠInsert":14136,"cumulative":14137,"ĠSHA":14138,"elastic":14139,"ali":14140,"unsupported":14141,"Ġmgr":14142,"ĠGlobal":14143,"Ġpolling":14144,"Ġpeaks":14145,"ĠImproperlyConfigured":14146,"TLS":14147,"ĠWARNING":14148,"ĠHo":14149,"ĠHIER":14150,"Listener":14151,"SOL":14152,"Override":14153,"Ġartifacts":14154,"Angle":14155,"citation":14156,"ited":14157,"Ġsvc":14158,"Ġgtk":14159,"icense":14160,"redge":14161,"Ġalive":14162,"======":14163,"ttle":14164,"Ġeasier":14165,"${":14166,"Br":14167,"RSA":14168,"Sta":14169,"grouped":14170,"Ġdrawn":14171,"attery":14172,"ĠBecause":14173,"BT":14174,"OW":14175,"Scan":14176,"atern":14177,"truth":14178,"ĠCy":14179,"agrant":14180,"ampling":14181,"Force":14182,"Ġpercentile":14183,"Ġestab":14184,"uty":14185,"Tools":14186,"players":14187,"Ġgraphs":14188,"blast":14189,"xl":14190,"İ·":14191,"ĠPut":14192,"ĠRIGHT":14193,"Ġsolid":14194,"SENT":14195,"Ġ\"{}\"'.":14196,"Ġapplications":14197,"GYPTI":14198,"GYPTIAN":14199,"FACE":14200,"dur":14201,"prune":14202,"ĠPIL":14203,"ĠLD":14204,"ardown":14205,"((-":14206,"offer":14207,"Ġgevent":14208,"Ġreasons":14209,"analyzer":14210,"flight":14211,"setValue":14212,"Ġkeyboard":14213,"ĠEGYPTIAN":14214,"ALSE":14215,"Ġtriple":14216,"Funce":14217,"Ġserv":14218,"allocation":14219,"Ġwanted":14220,"dip":14221,"SITE":14222,"OGLYPH":14223,"ĠOptionally":14224,"Ġsingular":14225,"ĠHIEROGLYPH":14226,"Funceble":14227,"Cd":14228,"ELE":14229,"Ġsun":14230,"']('":14231,"para":14232,"opener":14233,"ĠThey":14234,"Ġtraj":14235,"envectors":14236,"ROP":14237,"controls":14238,"sex":14239,"inside":14240,"foot":14241,"Ġdirty":14242,"'}}),":14243,"DJ":14244,"hbox":14245,"Ġconcurrent":14246,"taken":14247,"ages":14248,"acle":14249,"Ġcurves":14250,"Decoder":14251,"Ġ\"_\"":14252,"~~~~~~~~":14253,"lidityParser":14254,"Ġinclusive":14255,"Ġstudent":14256,"ĠSection":14257,"Ġunchanged":14258,"ĠUI":14259,"grab":14260,"ĠParses":14261,"Ġclustering":14262,"Ġ[]).":14263,"ĠCommandError":14264,"Successfully":14265,"ĠScript":14266,"VED":14267,"ivers":14268,"getsize":14269,"Ġstretch":14270,"Ġconsensus":14271,"ĠPers":14272,"logged":14273,"122":14274,"DOMAIN":14275,"BUTTON":14276,"Ġtcp":14277,"Ġrat":14278,"Expect":14279,"CES":14280,".\"))":14281,"Ġexpiry":14282,"Peer":14283,"Ġsoftware":14284,"Ġbon":14285,"Rest":14286,"Ġregisters":14287,"fragments":14288,"tablename":14289,"planes":14290,"software":14291,"æĪĲ":14292,"QApplication":14293,"Ġcg":14294,"Ġhashed":14295,"repl":14296,"139":14297,"Users":14298,"Ġconvers":14299,"Ġterminated":14300,"embedded":14301,"denom":14302,"Ġgpu":14303,"ĠControl":14304,"ĠNDArray":14305,"QIcon":14306,"Ġpn":14307,"Ġdynam":14308,"Opts":14309,"fv":14310,"Ġconsecutive":14311,"fieldname":14312,"trajectory":14313,"Ġgrouping":14314,"finditer":14315,"ĠRaw":14316,"Ġfnmatch":14317,"Ġconvergence":14318,"BEGIN":14319,"Publish":14320,"aio":14321,"Ġdeleting":14322,"ĠNx":14323,"ADATA":14324,"Ġcalculating":14325,",*":14326,"above":14327,"lw":14328,"rator":14329,"staff":14330,"reporter":14331,"ilies":14332,"rie":14333,"prof":14334,"ĠLimit":14335,"Ġdfs":14336,"eb":14337,"sanitize":14338,"copt":14339,"replication":14340,"Services":14341,"Ġ'{}.":14342,"Functions":14343,"Ġrectangle":14344,"Ġearlier":14345,"Ġodd":14346,"unwrap":14347,"Ġhunt":14348,"ordinal":14349,"Ġregression":14350,"Ġoverwritten":14351,"Ġrepl":14352,"Ġreplacements":14353,"marize":14354,"operators":14355,"Ġkmip":14356,":(":14357,"Ġsay":14358,"beats":14359,"Requests":14360,"Ġ2018":14361,"Ġamong":14362,"Free":14363,"gos":14364,"wv":14365,"asp":14366,"Ġproviders":14367,"ĠPDB":14368,"Ġprints":14369,"Ġjdict":14370,"Ġassociation":14371,"Ġsmtp":14372,"metri":14373,"Ġpdu":14374,"Ġinfinite":14375,"Ġbt":14376,"divide":14377,"ĠAvailable":14378,"php":14379,"ĠNOQA":14380,"GLOBAL":14381,"='{":14382,"facet":14383,"QUAL":14384,"TIFICATE":14385,"Put":14386,"bile":14387,"uda":14388,"108":14389,"does":14390,"Ġlimited":14391,"Ġoccurrence":14392,"ĠBaseException":14393,"ĠVALUES":14394,")\".":14395,"Recs":14396,"exus":14397,"configurations":14398,"popleft":14399,"Ġprotobuf":14400,"Statistics":14401,"Ġdecl":14402,"Ġdiffer":14403,"Ġintf":14404,"little":14405,"matic":14406,"Ġ45":14407,"Ġtracer":14408,"randn":14409,"Ġalternate":14410,"Ġdense":14411,"']],":14412,"Ġhop":14413,"tobacter":14414,"ĠfileName":14415,"pylint":14416,"Ġ'_')":14417,"EXEC":14418,"vbox":14419,"Ġdum":14420,"``).":14421,"splitter":14422,"Ġsearching":14423,"azimuth":14424,"CU":14425,"HI":14426,"005":14427,"([\\":14428,"Primary":14429,"Ġazosid":14430,"Ġfragments":14431,"ĠARABIC":14432,"Life":14433,"nas":14434,"illow":14435,"Ġpropagate":14436,"Contact":14437,"ĠMeas":14438,"('-')":14439,"keras":14440,"Trigger":14441,"Ag":14442,"dL":14443,"æģ¯":14444,"timeline":14445,"fec":14446,"ĠBEL":14447,"Ġdbus":14448,"QtWidgets":14449,"Ġmeasured":14450,"similarity":14451,"acon":14452,"ole":14453,"rers":14454,"(\"*":14455,"Ġexcludes":14456,"frontend":14457,"nos":14458,"ucli":14459,"severity":14460,"ito":14461,"backoff":14462,"Ġ33":14463,"Ġdirected":14464,"argmin":14465,"(\"!":14466,"ĠSame":14467,"cleot":14468,"ĠEnter":14469,"ĠAssign":14470,"sx":14471,"Ð»":14472,"viations":14473,"Ġendian":14474,"{}</":14475,"Ġ}),":14476,"Instances":14477,"ĠIdentifier":14478,"mux":14479,"oked":14480,"arator":14481,"Ġcart":14482,"asy":14483,"Ġconstruction":14484,"Ġnewer":14485,"DEV":14486,"DataType":14487,"ensis":14488,"ĠPoly":14489,"WHITE":14490,"Ġ`{}`":14491,"\")),":14492,"MARK":14493,"TASK":14494,"Ġnaming":14495,"Ġomit":14496,"Consumer":14497,"avatar":14498,"Ġshows":14499,"spection":14500,"ĠHEAD":14501,"Other":14502,"srs":14503,"Ġinds":14504,"Ġvoid":14505,"Ġkappa":14506,"Ġqry":14507,"ĠFiles":14508,"WINDO":14509,"Lvl":14510,"SUM":14511,"Ġcraw":14512,"hear":14513,"Ġprocedure":14514,"IFORM":14515,"Expand":14516,"*'":14517,"descriptors":14518,"Ġdbs":14519,"Ġtruth":14520,"Ġsimpli":14521,"detector":14522,"Big":14523,"jk":14524,"lus":14525,"deposit":14526,"Ġignoring":14527,"Ġdashboard":14528,"('`":14529,"Ġresol":14530,"comparison":14531,"ĠUseful":14532,"ĠAttributes":14533,"ISTS":14534,"ĠManager":14535,"Writing":14536,"LR":14537,"_')":14538,"either":14539,"gauge":14540,"nid":14541,"strength":14542,"Ġmtf":14543,"illis":14544,"Ġorth":14545,"Ġtech":14546,"abbr":14547,"coro":14548,"Alias":14549,"-{":14550,"Ġ'^":14551,"Ġindexer":14552,"=====":14553,"commits":14554,"Ġsimulated":14555,"Ġvirtualenv":14556,"Ġbands":14557,"Ġtruncated":14558,"å°":14559,"Ġbn":14560,"Ġminimal":14561,"Ġcalib":14562,"normalization":14563,"6789":14564,"ĠTraceback":14565,"]==":14566,"gates":14567,"pwd":14568,"ĠTe":14569,"Ġmeter":14570,"Ġprox":14571,"ĠVari":14572,"axy":14573,"PROPER":14574,"symmetry":14575,"horizontalLayout":14576,"?')":14577,"_]":14578,"Ġcance":14579,"Ġpaper":14580,"igmp":14581,"Ġexplo":14582,"DICT":14583,"Ġseqid":14584,"enk":14585,"fox":14586,"ĠVPC":14587,"010":14588,"offline":14589,"imported":14590,"Catalog":14591,"Lim":14592,"gte":14593,"urses":14594,"Ġincomplete":14595,"Ġ'\"'":14596,"Ġtopo":14597,"forum":14598,"bsolute":14599,"loops":14600,"Ġbuffers":14601,"Ġslash":14602,"mixed":14603,"Ġpure":14604,"Ġconsist":14605,"prj":14606,"Resolver":14607,"Cols":14608,"enterOuter":14609,"longest":14610,"CharField":14611,"enterOuterAlt":14612,"Average":14613,"BV":14614,"ceptions":14615,"ĠFast":14616,"ĠGUI":14617,"dbname":14618,"transformed":14619,"gency":14620,"Ġcommunity":14621,"Ġmonths":14622,"Verify":14623,"Ġseverity":14624,"upyter":14625,"MIP":14626,"student":14627,"editable":14628,"Specification":14629,"Ġthresholds":14630,"rfind":14631,"Ġcoin":14632,"Ġ`_":14633,"publication":14634,"ĠSettings":14635,"fitness":14636,"2013":14637,"Ġenvironments":14638,"uing":14639,"ĠSI":14640,"ĠHist":14641,"DEL":14642,"Ġ42":14643,"(**{":14644,"allocate":14645,"Ġpotentially":14646,"ĠCar":14647,"ĠSecond":14648,"DIT":14649,"Ġreduction":14650,"224":14651,"istent":14652,"Ġpathname":14653,"Ġpylab":14654,"129":14655,"floating":14656,"CONTEXT":14657,"Ġcoef":14658,"Assignment":14659,"district":14660,"Ġvx":14661,"hore":14662,"Ġidle":14663,"apikey":14664,"ATICAL":14665,"lstm":14666,"DH":14667,"cats":14668,"isclass":14669,"Medi":14670,"Ġsignatures":14671,"cognition":14672,"onyms":14673,"Ġurwid":14674,"HEMATICAL":14675,"ugh":14676,"Ġancestor":14677,"Ġtier":14678,"Ġurlencode":14679,"closest":14680,"Ġoperating":14681,"Ġallocated":14682,"ĠMATHEMATICAL":14683,"'/":14684,"GING":14685,"Ġeitem":14686,"setsockopt":14687,"movie":14688,"ĠDetect":14689,"pherical":14690,"kn":14691,"Ġweld":14692,"typed":14693,"ĠCore":14694,"Ġcommits":14695,"EXCEPTION":14696,"gpg":14697,"segmentation":14698,"Ġinvoice":14699,"Ġbuiltin":14700,"rgba":14701,
[...]
