#version: 0.2
s e
i n
r e
o n
a t
e r
Ġ =
o r
s t
Ġ t
se l
sel f
e n
d e
a r
Ġ i
a l
m e
a n
l e
Ġ self
Ġ c
Ġ f
h e
Ġ re
i on
i t
u r
Ġ p
Ġ <
c t
Ġ n
c e
Ġ in
g e
Ġ a
a me
r o
Ġi f
) :
Ġ s
" "
Ġ e
Ġ o
Ġ de
Ġ '
u e
u t
l o
en t
in g
Ġt he
p e
Ġ d
f i
l i
ur n
at e
t urn
s s
Ġ b
o t
Ġde f
u n
i d
Ġ #
c o
on e
r a
Ġ m
. _
Ġ w
a d
Ġre turn
Ġ< /
- -
l a
( )
Ġf or
N one
v al
m p
Ġi s
an d
n ame
ge t
Ġ "
t e
u l
p t
k e
at a
Ġt o
y pe
Ġ (
ar g
c h
r i
"" "
' ,
d i
Ġ st
u m
i l
Ġ """
u p
e l
c k
t er
e d
( '
i s
) )
Ġn ot
m a
at h
o l
c on
_ _
e s
t h
se t
at ion
se r
x t
val ue
Ġo f
arg s
v er
a m
Ġ None
[ '
Ġ T
' ]
o de
e ct
Ġ :
a s
p ar
ul t
Ġc on
ke y
t ype
r or
en d
Ġ l
Ġ +
' )
a p
Ġ and
' :
or m
t a
b le
s p
Ġ h
v e
i me
in t
ct ion
Ġ {
i z
Ġ *
Ġe x
p ath
i g
al l
o d
Ġt h
Ġe l
t o
pt ion
Ġ [
( "
li st
Ġel se
Ġ 1
a ge
b j
Ġ g
i le
Ġ _
Ġ %
Ġ u
" ,
f orm
t r
q u
Ġ or
d ata
m ent
Ġ lo
-- --
Ġb e
p o
Ġ= =
it h
Ġc o
st r
Ġ -
fi le
Ġ 0
v i
an ce
re n
Ġ r
0 0
it e
or t
p er
i se
Ġ A
E r
p ut
q ue
Ġd ata
Er ror
r ue
e t
p ro
par am
k w
in e
Ġ value
re s
i st
Ġa s
R e
Ġn ame
fi g
) ,
Ġ I
Ġ S
a se
u b
ro m
ar t
ap p
Ġ me
iz e
Ġst r
or d
Ġ se
u s
Ġ ra
al se
o ut
c he
Ġ C
Ġ F
kw args
i c
st ance
el d
e w
e x
a ble
f o
Ġ v
Ġp ro
a ck
Ġd i
o w
Ġre s
r y
er s
in it
t ime
form at
" :
Ġra ise
" )
Ġp ar
que st
ad d
l y
m s
bj ect
e xt
Ġw ith
o ur
Ġ P
f a
re d
= '
._ _
c i
Ġ `
] ,
__ (
te xt
Ġ y
d ate
ren t
Ġf ile
s ion
Ġ an
la ss
] )
h t
de x
f f
s c
s h
app end
ur l
co de
Ġ get
in d
mp le
Ġm a
Ġ key
an ge
our ce
u re
l en
Ġc h
Ġl en
Ġ >
Ġ x
Ġ __
Ġf rom
g g
Ġ list
un t
m m
t ri
o p
b u
l s
in stance
j o
p re
Ġ D
Ġex ce
li f
o c
Ġp a
at ch
i p
Ġ* *
Ġ E
er ror
ce ss
d er
Ġe lif
p a
co l
Ġ set
Ġ 2
it y
Ġo ut
Ġ on
th od
r int
ss age
re ad
at tr
Ġ )
b o
u st
h o
i eld
. .
Ġ he
re ate
Ġt ry
um ent
ra y
con fig
on se
di ct
un d
i m
o s
u le
ĠT he
Ġ en
se d
Ġ{ }
ro up
di r
Ġres ult
in fo
lo w
p y
Ġexce pt
ode l
m o
i ve
p h
Ġw h
ĠT rue
d d
m b
T rue
Ġt ype
ig n
Ġ al
or y
a g
Ġ Re
= =
r an
ver sion
s ize
ut e
Ġ N
ss ion
) .
Ġth is
o m
ĠF alse
te d
v ent
ce s
Ġis instance
Ġth at
c a
Ġ M
i v
I n
val id
il d
ar y
ar ray
ame ter
Ġ la
sp onse
[ "
Ġ V
Ġt ime
k en
Ġp ath
Ġc ol
il l
b el
lo ad
Ġ ro
i r
Ġi t
it ion
Ġn p
um b
Ġn ew
Ġb y
or k
F alse
c lass
at or
Ġp rint
Ġp re
l u
Ġ L
Ġw e
Ġ[ ]
c al
s on
Ġ un
Ġo s
up date
' .
r ite
er y
Ġ at
= "
y s
n ect
E R
un ction
o re
li c
lo g
i al
m in
jo in
( ):
Ġ+ =
ption s
t ent
l ine
ar i
e p
f e
s a
Ġa re
in dex
Ġ k
vi ce
Ġs up
p ort
st art
a ult
lo ck
c ur
li ent
gg er
Ġin t
Ġre quest
Ġo bject
g s
" ]
ma ge
de d
Ġ O
# #
p p
re ct
j son
Ġ R
Ġdef ault
ing s
pe ci
al ue
a pe
mm and
tri b
n ode
fa ult
umb er
ar get
ta in
b ase
um n
---- ----
co unt
a ct
la y
` `
at us
Ġ' '
l it
C on
y n
qu ery
fi eld
t s
le ment
se n
sc ri
b ack
st ate
Ġ args
O N
re ss
u ser
Ġ U
Ġ all
I N
ut h
Ġh as
an n
Ġi d
i es
Ġ G
l ate
an g
Ġ` `
str ing
Ġu ser
arg ument
p i
Ġa dd
a c
Ġcon fig
Ġc ur
lo at
od ule
en er
un c
ma x
Ġ B
Ġw ill
w ord
l in
ĠI f
th er
as k
Ġn ode
o k
Ġ kwargs
Ġt e
m at
Ġ W
b y
g th
Ġf il
ce ption
] .
Ġl ine
fi x
mp ort
t y
ar d
Ġs ub
l l
Ġs h
Ġd o
ma p
turn s
{ }
" .
t p
g roup
Ġp o
re quest
t ra
ad er
A T
o bj
m l
i fi
ow n
he ck
w rite
Ġlo g
ameter s
a ve
Ġ /
ig ht
Ġf ield
s ub
a b
i f
Ġe xt
bu g
e c
d a
Ġ !
* *
Ġ le
Ġout put
Ġdi ct
ate d
R E
po s
ar ch
o und
an t
Ġ! =
Ġstr ing
po int
m it
S T
r ame
} ,
Ġre sponse
qu i
ul d
Ġme thod
Ġ \
u ct
ser t
w a
de fault
a mple
Ġsup er
() )
Ġi te
c ation
re e
ke t
Ġ 3
Ġ> >
f rom
g ra
m d
w ork
v el
Ġco mp
ĠV alue
Ġu se
Ġ error
res ult
Ġma x
Ġ'' '
c ord
j ect
( [
co mp
sp lit
sp a
la ce
it er
T ype
Ġf unction
me thod
u mp
ter n
o bject
Ġ H
Ġst art
la bel
ĠE x
Ġn e
param s
ĠValue Error
Ġs peci
Ġ>> >
Ġo p
Ġb u
E x
ar n
ite ms
c all
l er
de bug
Ġme ssage
Ġpar am
lo t
st ri
me ssage
ro w
' ):
ul l
m odel
Ġn o
re am
ĠT h
li b
value s
c s
Ġpa ss
r on
w e
ĠI n
re p
ation s
an s
Ġc an
Ġb o
Ġ url
s or
Ġ z
up le
Ġin dex
Ġi mport
S t
ser ver
ite m
Ġvalue s
it s
w ith
ĠRe turns
L E
Ġs o
en ce
te mp
f or
re g
spa ce
Ġin put
in ter
ari able
nect ion
b e
st e
Ġr ange
l at
Ġa pp
: `
Ġ end
d s
pe ct
to ken
[ :
Ġin stance
r un
Ġ }
sh ape
se s
i x
Ġa c
N ame
ot e
a x
Ġc all
c lu
0 1
Ġcon t
out put
Ġc reate
Ġo ther
co m
mo ve
te s
n um
'] ,
Ġb ase
id th
O R
Ġst ate
s g
== ==
ption al
Ġ j
Ġm odel
h and
key s
par se
ad ers
fi len
re turn
Ġc heck
ĠTh is
a k
K e
en sion
it le
d ing
o st
Ġlo gger
fi l
i ch
n ew
l p
st atus
D E
il s
Ġre g
iv en
Ġre t
Ġite m
Ġcur rent
filen ame
M E
Ġr un
trib ute
re f
in put
ta ble
Ġt ext
' t
o u
Ġ |
Ġ version
f t
n o
a ch
c reate
f unc
g in
Ġ ent
b s
Ġa x
name s
Ġn umber
A N
at ure
sel ect
n d
s ource
A L
v ar
() .
li mit
t ings
( (
ma in
m odule
Ġcon tain
] [
.. .
vi ew
C o
() ,
Ke y
ann el
Ġp er
I D
' s
Ġt ran
en ame
Ġf loat
c lient
Ġd is
Ġo bj
n p
s ing
Ġm in
'] )
ser vice
Ġm ust
Ġe vent
lo b
Ġfor mat
P ro
s k
Ġt arget
ver t
Ġparam s
fil ter
o g
or s
Ġspeci fi
e vent
m ode
Ġc ode
d f
Ġg iven
Ġl in
ad ata
Ġ valid
ra p
r c
le d
Ġ one
Ġu sed
n et
ho st
Ġ query
/ /
Ġc a
che ck
c ls
od y
ment s
Ġ- >
scri ption
all y
ho uld
c lo
n e
1 0
s um
Ġp y
D e
Ġwh ich
Ġte mp
Ġs u
d b
Ġro w
con text
con tent
re sponse
## ##
pro cess
th on
g ht
Ġpa rent
s o
n ot
00 0
s y
') ,
o ff
h as
or ted
. """
a mp
Ġh ave
r id
Ġ 4
type s
Ġd ate
la ble
Ġs ource
Ġpar ser
che d
Ġre ad
d oc
ap i
ra w
Ġ argument
clu de
A R
u se
ut ion
o ptions
ms g
Ġm sg
Ġ array
ction s
P ar
fe ren
ut es
Ġon ly
Ġm atch
Ġt ra
S E
Ġi mage
Ġs hould
) .__
Ġas sert
Ġto ken
Ġs ize
Ġcon text
Ġ{ '
D ata
Ġc al
d o
m t
pt s
on g
s u
ot h
Ġc lass
)) )
rect ory
len gth
b lock
a st
t arget
po p
Ġcont in
i mage
Ġin ter
Ġh and
co mmand
col umn
tr y
ir st
Ġcol umn
ack age
a y
ol d
Ġg roup
ur ation
s i
pe c
er r
Ġp art
Ġ{ "
Ġco mmand
t adata
Ġop en
Ġ @
ist s
le te
c re
a uth
Ġt ag
Ġn um
c y
3 2
Ġfil ename
Ġ up
ĠP ar
ĠA r
ate s
I d
: //
che ma
Ġc ls
a v
in al
gg ing
Ġcon tent
u al
jo b
Ġcontin ue
p r
m i
ar k
ri al
a in
un k
m atch
Ġp os
Ġan y
Ġla bel
1 2
ĠC on
file s
R es
id s
ic al
se ssion
id get
Ġ Q
ta g
p ri
p s
[ -
Ġm at
Ġ update
ot al
de f
res h
sen t
Ġhe lp
Ġe lement
c l
ĠD e
Ġ --------
ste m
Ġf irst
le an
E N
P I
he re
ht tp
fa ce
Ġ json
Ġy ield
Ġs p
field s
stri p
l per
6 4
Ġ( '
T I
Ġt able
Ġd oc
pa rent
Ġo ptions
ĠEx ception
Ġ val
] :
M e
mb da
yn c
o f
tr ans
Ġ ['
Ġwh ile
ind ow
r ange
l d
Ġch ar
ro ot
Ġt uple
' ))
le vel
ke d
S e
Ġc lient
re ak
Ġs ys
Ġ X
Ġe ach
Ġbo ol
que ue
Ġ ver
co re
qui red
ca che
F ile
on ent
at s
Ġm ode
Ġin it
id x
f ind
lin k
i o
Ġf a
feren ce
s ign
m an
Ġf ound
al t
Ġwh en
te st
c ent
Ġfile s
f loat
Ġs y
vi ron
at tern
Ġh t
Ġo ver
u res
w idth
ist er
n s
ri x
Ġa ction
T E
pe d
ran k
and om
a re
col or
Ġg ener
par ser
cur rent
s with
i ck
pre fix
ord er
add ress
co mm
orm al
he lper
st ore
if y
qu ence
Ġ arg
ri es
) ]
f rame
li ke
Ġw ork
b ro
con d
rep lace
ff er
Ġfil ter
op en
par t
Ġ .
ile d
la st
iz ed
u me
Ġspecifi ed
ig h
ch ange
Ġb ut
T o
ump y
str uct
o us
tra in
ri ght
S et
lo c
Ġtran s
U n
Ġs ign
ifi er
A C
res ource
he ader
Ġa ct
Ġ Y
L ist
trib utes
Ġm odule
c or
v ed
E n
sa mple
un i
n umber
lo cal
c ket
g n
Ġh ost
mp ty
t itle
co py
arn ing
Ġte st
y le
en v
u d
t ing
a ction
( *
co ding
lin es
Ġresult s
te g
Ġm o
Ġof f
Ġ 5
S I
Ġpo int
p lot
Ġv ariable
p end
c cess
Ġdo es
Ġ attr
Ġst atus
ra ct
st amp
Ġ q
Ġc or
con tain
che s
Ġi ter
per t
Ġ ""
} )
wa it
Ġla st
ra ph
) ):
Ġa uth
c md
Ġlen gth
a i
ate g
iz er
Ġ J
t ask
P E
Ġp ort
R O
Ġma ke
con nect
st ream
t en
ction ary
off set
: :
Ġb reak
fo re
" },
Ġin to
Ġb lock
method s
Ġf e
Ġre cord
ch ild
Ġres ource
Ġpro cess
lob al
low er
er t
ur i
ĠPar ameters
ĠAr gs
00 00
i ss
v is
F I
ol der
per ation
pa ss
ex ec
A r
e lement
x y
T T
ag er
ca de
i ble
f unction
pert ies
p rint
ĠT ype
Ġ' .
Ġget attr
b in
( _
Ġp ri
Ġ server
ut ils
Ġ --
Ġa ss
Ġs c
di m
2 5
bu ild
mb ol
= {
le ase
oc ket
Ġlo cal
temp late
c li
'] .
st ep
D i
fa ct
Ex ception
Ġo ptional
Ġd ist
Ġco unt
Ġb ack
Ġpar se
pro ject
Ġt ask
S tr
clo se
y load
1 1
Ġlo ad
G et
'] :
V alue
lo gger
v id
L O
g en
D O
Ġu sing
bo x
re q
Ġor der
bro cade
u id
Ġse ssion
Ġin fo
Ġ-------- --
Ġun i
f ter
i b
ma il
Ġre p
at ing
Ġth en
en code
Ġlo gging
ust om
to p
n er
ut o
Ġ' %
p age
in ed
Ġhas attr
l t
Ġs ample
se arch
'] ['
c ul
Ġn ext
on t
lu gin
Ġex ist
Ġ qu
ann ot
Ġde st
S er
q l
Ġch ange
read y
he aders
le ction
l an
st d
r t
G E
Ġne ed
C O
Ġa d
sc al
Ġde l
Ġc md
by tes
pect ed
a ke
Ġpar ameters
fi r
Ġw as
set tings
le s
Ġhe aders
im um
Ġa v
L o
Ġhe ader
lic ation
Ġen um
iz ation
( {
m ary
1 6
Ġch ild
re cord
Ġargument s
ĠS e
Ġtemp late
ex p
Ġcol or
d u
Ġy ou
o me
R L
m ote
Ġht tp
Ġtime out
lic y
C h
Ġf unc
has h
gra ph
sen d
p lay
per ty
Ġn et
r it
scri pt
Ġex p
C lass
o i
Ġf la
g ener
t on
Ġpro ject
ch ar
me ta
S S
Ġ> =
U T
se rial
id ent
Ġ Key
contain er
ch annel
di c
ĠC o
ust er
at ive
Ġ ...
z er
==== ====
time out
con nection
Ġt f
t ree
U L
Ġf ind
m on
g ment
0 2
f low
ion s
9 9
Ġ ----
co pe
Ġro ot
ension s
Ġm ult
f n
Ġpar ameter
oth er
Ġc ase
" ):
Ġfield s
ax is
Ġal low
Ġd b
Ġcon nection
Ġname s
t x
form ation
` .
re move
ht ml
Ġdi rectory
f la
con ds
Ġe d
Ġd type
ai lable
n own
Ġpro vi
b ody
path s
hand le
or age
Ġoff set
Ġ ..
. ')
start swith
po st
bo se
me tadata
call back
Ġname space
m g
Ġp age
' '
Ġdi ctionary
Ġst ream
Ġm ap
Ġ ]
di s
Ġkey s
lo cation
Ġs ame
Ġor ig
IN G
tern al
mi ssion
ut il
ĠType Error
Ġ &
Ġv ar
Ġre f
Ġ select
L I
en cy
. ")
Ġse n
Ġsh ape
Ġ service
ent ial
-- -
: ]
Ġ< =
d own
M A
Ġex ec
Ġfor m
C ol
Ġid ent
at ures
ĠA n
A D
pt h
Ġpre fix
able d
ut f
x ml
la s
Ġd f
n ing
Ġla y
v ariable
i as
R I
er ate
i de
Ġax is
el l
in s
n ext
Ġent ry
p k
us h
sa ve
] ]
to col
Ġw rite
en s
le ct
Ġdi ff
point s
Ġm an
T ime
s pec
a ss
mple ment
de scription
Ġc l
0 4
Ġ 6
Ġinit ial
e ar
t ro
ex ists
Ġbu ild
p ack
1 4
Ġw here
g o
Ġy ang
st er
Ġn umpy
di ces
Ġin st
Ġlin es
T Y
de lete
a il
Ġ job
Ġal ready
date time
de code
hand ler
at ic
Ġst ep
Ġle vel
qu al
er ge
ition s
p ub
ol ume
E lement
st ack
Ġadd ress
de red
] ))
la mbda
Ġ ar
Ġb ody
= [
#### ####
o b
object s
it or
Ġreturn s
N A
et ch
Ġdate time
ph a
3 3
der r
Ġca che
Ġ limit
Ġat tribute
gra m
con f
ma ke
ĠI D
f g
add r
r iter
Ġenum erate
ver se
teg er
Ġ 8
d ot
Ġ vi
Ġf rame
Ġby tes
f ull
P o
Ġs cal
t he
r type
d type
it ies
Ġp h
di rect
ma sk
Ġcall back
node s
de l
c p
c at
Ġch annel
s up
result s
t tribute
ing le
Ġre quired
Ġth an
Ġ err
U N
per i
Ġma y
w er
Ġm ore
pre ssion
ĠG et
c ry
-------- --------
tr an
d ump
N ot
Ġo ld
Ġset tings
ang u
ect or
di sp
ĠW e
con st
Ġa pi
m od
m ark
w ard
ĠP y
g h
m ory
p orted
st op
Ġp ackage
w ise
O bject
l ation
Ġthe re
angu age
f y
Ġ" %
on ly
Ġw ord
column s
p ackage
Ġreturn ed
Ġco py
n ow
ent ry
1 5
tri c
f er
ro p
( **
Ġpass word
] ['
Ġp lot
Ġen v
C E
e st
par ameters
Ġse arch
ĠT O
s chema
D I
b ar
net work
A dd
Ġobject s
') .
} '.
Ġra w
o ver
Ġstr uct
Ġn on
pass word
F rame
Ġth read
)) ,
F A
Ġite ms
Ġs um
c le
Ġre move
st yle
C H
ter m
pre sent
Ġt itle
[: ,
qui re
i str
ĠS et
viron ment
Ġc lo
Ġa b
Ġt w
F ield
Con fig
ext end
Ġin clude
Ġso me
g rid
ro und
b it
le ft
AT E
il ity
M L
ifi cation
Str ing
TT P
Ġdi m
Ġde scription
p onse
Ġme tadata
b atch
\ \
Ġ K
se q
a u
bu ffer
p c
M P
we ight
ge x
p ol
di fi
Ġt otal
co mple
Ġerror s
w rap
Ġs orted
ic s
ma g
ta gs
Ġto p
Ġlin k
Ġt er
an ts
ol s
s rc
ĠF or
ce pt
Ġext ra
fir st
as sed
Ġlo cation
u i
ol low
in st
i e
o ption
Ġco mm
r s
Ġ---- ---
ĠP ro
Di ct
c c
Ġ' /
Ġreg ister
N o
r ate
or ig
Ġde vice
r ule
sh ow
Ġs ingle
AN G
T ext
de vice
T H
ct x
as h
1 3
T he
er n
Ġ' -
Ġo ption
Ġhand le
Ġbe t
P O
t uple
Ġw idth
Ġs k
Ġ1 0
Ġco m
g ine
se ction
2 0
) [
Ġg raph
las ses
P ath
lay er
label s
Re quest
m y
o se
ge st
Ġprovi ded
= (
mb er
le t
in ing
ition al
Ġg en
ĠU n
L A
he d
S train
un ter
Ġa fter
o pts
re sp
Ġf ull
ĠD ata
Ġco ord
id d
ĠS t
C T
ra ise
ul ar
act ive
H and
tr ue
Ġbe fore
sa ction
ĠC reate
ed ge
Ġcon st
li ce
ver y
vi ces
t otal
u de
ri pt
set s
Ġw rap
ĠA dd
ta ils
m ult
per ator
we en
'] [
I te
ĠRe turn
scal e
Ġin formation
or g
sy stem
ĠL ist
p attern
ex ception
ok up
Ġa wait
Ġco mple
ĠDe fault
ac cess
Ġ' --
s ys
re t
Ġst op
Par ser
2 4
B o
user name
ĠKey Error
Ġme ta
bo und
a it
w arning
f ul
o pt
N ode
Ġp assed
. "
, -
ri de
C ON
a f
Ġdoc ument
co ord
Ġd own
ran ch
Ġex c
ateg ory
Ġ lib
Ġhas h
Ġin d
Ġnet work
g ress
Ġma in
he ther
Ġch unk
Ġs chema
ĠTO DO
ci es
di st
Ġs ave
Ġexce ption
ĠN ot
act er
iss ing
l ing
ex it
Ġre st
cre t
red ential
Ġ' \
bo ol
Ġre sp
ut ton
Ġcolumn s
W idget
me di
" ],
ly ph
he ight
S ub
w h
lo op
Ġt mp
Ġ' ,
K E
me an
Ġa g
f s
Ġst d
], [
Ġe mpty
ith er
Ġid x
5 5
as on
Ġpa yload
Ġav ailable
ex c
Ġt ri
Ġconfig uration
ke ep
Ġit s
UL T
T h
std out
group s
val s
TY PE
al og
vi ous
F orm
Ġ view
Ġrequest s
ĠEx ample
in ation
d uct
c an
Ġla mbda
ol ution
di rectory
ĠA PI
Ġnode s
st ats
s peci
S ON
r andom
Ġat tributes
Ġen coding
Ġf in
Ġn ormal
St ate
Ġas ync
ip le
e k
Ġo pt
Ġ' _
al id
do main
` ,
NA ME
Ġwe ight
} ".
Ġg lobal
mat rix
Ġmat rix
F F
Ġ( "
. ,
Ġed ge
0 3
at er
Ġr ule
Ġcreate d
Ġb in
v ate
Ġse quence
f fix
Ġse nd
In valid
TI ON
Ġb atch
z one
init ial
g ument
th read
man ager
Ġ ):
de st
Ġz ip
ol ve
1 8
Ġsh ow
init ion
t mp
z ip
Ġr andom
pa ce
Ġp attern
pos ition
Me ssage
Ġa p
time stamp
< /
Ġpo st
Ġf ollow
Ġp lt
Ġ' {
te ct
s ort
w d
com ment
re ction
resh old
p en
del ta
en sor
pp ing
E vent
Ġs alt
Ġc li
Re turn
row s
" ])
gn ore
Ġdata base
ro u
app ing
Ġt ree
Ġhand ler
vid er
ent ic
pro file
Ġbe en
Ġ right
Ġbet ween
pos it
00 000
O G
Ġcomp onent
In fo
da y
Ġtype s
Ġp ub
Ġex ists
E L
v ari
Ġac cess
Ġ{} ".
Ġcon vert
py thon
error s
di ff
Ġdata set
ĠR un
O T
s ig
f fi
w indow
con n
', '
Ġcontain ing
5 0
me d
bo ok
w w
6 6
" ))
pro perties
FA ULT
name space
exec ute
attr s
T ER
Res ponse
Ġex ample
__ ,
Ġg o
it ude
Ġs rc
a ded
t xt
ĠC heck
Ġ like
comm on
o lean
Ġre present
1 9
word s
Ġcontain er
i pe
mode ls
U S
Ġb ound
Ite m
Ġn ow
en u
Ġ[ "
ser v
un it
re turns
iv ed
Ġtag s
th ing
re qu
b ind
Ġre ference
i mport
Ġlo op
Ġde lete
si de
Ġcon nect
ra int
de v
n g
Ġpos ition
Ġtw o
ac count
Ġ" .
Ġle ft
f ra
] ):
Ġsp lit
n ormal
Ġo b
ent s
R A
pro t
w idget
re c
Ġdi r
ern el
p date
Ġm ask
Ġp k
sy mbol
= %
h ist
Ġ queue
ĠM e
Ġ 7
in k
in ce
Ġhe re
Ġfor ce
at tributes
Ġre n
co der
s n
Ġc tx
C reate
Ġdiff e
In dex
s v
Ġdi rect
k nown
val u
zer os
Ġsk ip
Ġuser name
st derr
Ġi p
ch ain
oi ce
" ),
: %
w it
child ren
ext ra
r ary
ver age
Ġde pend
ca use
ab s
ri ver
sample s
Ġsu ccess
or ies
ro ll
inter face
m al
2 3
Ġpoint s
w arn
istr y
Ġcal cul
Ġcon n
Ġcal led
Ġl ong
Ġj ust
ta ch
comp onent
ch unk
i mp
wa re
Ġre q
1 7
Ġc ustom
`` .
S ize
Ġs ort
Ġchar s
Ġal so
le m
Ġse rial
ĠA ttribute
lat form
Ġdef ined
Ġac count
Ġi gnore
ra di
sh ot
mplement ed
ĠR es
b ot
o id
al ys
ck er
Ġse e
valid ate
Ġv ari
C lient
Ġcon d
L e
T O
Ġf act
disp lay
b l
V ER
if t
ex pr
(' \
Ġlay er
Ġv is
M odel
bo ard
p lace
u uid
con tro
ifi c
ĠU RL
data set
Hand ler
Ġver bose
Ġi ss
Ġlabel s
Ġs ix
il der
I O
f it
reg ister
B U
ste ad
Res ult
Ġm ark
Ġpy thon
b ution
re st
A B
it ial
g it
p ing
I T
Ġrep lace
Ġpar sed
E X
ĠO ptional
Ġdis play
A S
var s
am l
redential s
ext methods
ce ll
ss ible
ĠD i
B u
2 9
Ġexist ing
Ġ{} '.
e mail
st at
Ġthe m
Ġs a
8 0
1 00
Ġhe ight
Ġfe ature
cur ity
he ll
ĠQ t
t f
Ġ },
Ġd on
Ġf ig
port s
Ġfa iled
il y
mo unt
6 7
an k
] ),
S h
ut ure
h er
Ġorig inal
Ġw indow
o ci
A n
f older
up per
g or
ĠL OG
ran s
S peci
Ġs ig
Ġby te
ator s
Ġw ant
B y
w s
e mp
Ġse ction
Ġpa ir
Q u
pa yload
Ġex pected
Ġun it
i a
' }
Ġw ait
s ocket
p lugin
gor ith
re po
ca st
Ġext methods
c ase
g lobal
Ġre mote
he ad
co ls
c er
Ġst yle
at tribute
(' -
U ser
e ded
Ġrow s
s cope
se quence
Ġ' {}
L ay
v es
ent er
de pth
Ġsign al
2 8
ch o
ĠL o
U E
Ġst ore
e mpty
sp ort
se conds
Ġuni que
Co mp
Ġo pts
p lo
tri cs
Ġm od
ĠPy thon
6 0
Ġm issing
Ġ" \
le ep
i an
ter min
rou gh
en cies
c ked
pa ir
ĠSe e
y ear
Ġpro file
en coding
lat ive
Ġpro perties
Ġo peration
ff ect
Ġvariable s
rep r
er o
H E
po ol
O ut
dump s
s ite
in dices
O r
alys is
Con text
ĠAttribute Error
a red
Ġsy stem
ta x
AT I
late d
o peration
ĠR a
2 7
Ġcon f
Ġelement s
a uto
http s
e red
Ġe ither
dir s
inter val
Ġfa il
v en
li ght
Ġgener ate
ta il
posit ory
I P
idd en
Ġp d
Ġin stead
resp on
ers ion
in sert
en viron
N T
Ġin teger
p id
c ut
trans form
ol ver
it es
Ġtime stamp
ĠY ANG
Ġuni code
ĠI t
or ity
Ġ 9
I G
F ound
de sc
Ġreg ion
ident ifier
le g
s id
load s
Ġbe cause
par ts
Ġs ocket
de pend
H e
al low
po licy
Ġp e
0 5
g round
Ġs im
ith ub
pro xy
n on
c fg
po ch
ĠN ame
Ġext ract
b its
Ġf n
Ġdo main
_ ,
Ġm on
Ġsy mbol
Ġp lugin
Ġx ml
E T
al y
n t
cur sor
tra ce
li sh
G roup
re quired
(' /
Ġstr ings
ĠT o
cl uster
wa y
f in
s core
li ed
M O
l ong
fe atures
and id
ang o
d t
fla gs
N O
he lp
s q
Ġsup ported
igh b
c lean
che me
doc ument
KE Y
c lasses
Ġscal e
al led
u sed
Ġre ce
la p
S C
Ġi mp
he x
. '
() ))
Ġde bug
mb ers
Ġ ge
c ert
ĠN ote
gorith m
Ġc lean
f etch
stri ct
Ġse conds
a bel
o ptional
iv ity
U RL
u red
Ġw hether
Ġthe y
Ġa bs
Ġpre vious
st orage
og le
Ġs pec
and ard
Ġvalid ate
Ġbase d
In ter
sign al
o uld
__ ()
3 4
comm it
Ġhttp s
g re
Ġend point
Ġpro perty
to m
= {}
vis ion
reg ion
Ġ keep
mb ed
en o
ĠH TTP
Ġattr s
3 0
Ar ray
Ġme an
token s
add ing
S O
ign ment
a iled
D B
re ference
serial ize
ent ity
[: -
Ġse cond
Ġc ell
es c
ĠJ SON
Ġext ensions
Ġ1 00
B ase
(' --
Ġm y
se cret
A t
(' %
d r
wa ys
i er
P y
Ġdef ining
C heck
Ġbu f
() ):
s ql
as ure
Ġcl uster
la b
Ġfla g
__ )
fe ature
A PI
D yn
ise s
an y
Ġst ack
Ġcontain s
Ġmult iple
re mote
Ġm erge
ce d
Bo x
Ġcur sor
difi ed
Ġtrans form
Ġother wise
Con tent
re port
Ġl at
re l
DE FAULT
Ġg rid
pre ss
ex pected
Ġp ol
c b
ap shot
Ġse q
m ath
ver bose
im g
o red
Ġst ri
Ġb ot
U R
Ġ ),
cur s
ĠE T
lo gging
mo ved
Ġw arn
cs v
change d
di ms
uni code
Ġpart s
T R
mg mt
requ ency
Ġdiffe rent
ang le
Ġs cope
in ates
A pp
j ust
Ġind ent
Ġfla gs
clo ud
ra g
end point
GE T
n umpy
ma pping
p l
Ġm apping
end swith
2 01
I L
ho ok
i ew
L ine
gg reg
Ġs n
O P
te red
me tric
a ctions
Ġu s
Ġen code
A uth
E D
Ġdis able
il ter
en ded
iz es
Ġin valid
variable s
Ġcor respon
Ġ" {
ched ule
Form at
Ġy our
li m
pre c
U P
Ġfollow ing
(" %
f d
nd array
P AT
Ġdist ance
ĠS er
tri e
bu f
tra ct
ar r
con vert
c ustom
Ġcor rect
wit ch
Ġ( (
co res
ĠRun time
arg v
Ġg ra
i ce
a z
se c
al pha
re lease
(" \
as ic
Ġad ded
Ġsen t
( -
() [
back end
uni que
in clude
/ {
j ango
fi ll
w here
Ġen vironment
re al
n orm
Ġmessage s
4 4
cry pt
- %
dir name
ĠE n
Ġf it
el s
Ġmat ches
Ġkey word
Ġ Z
S P
Ġ" ,
Ġcon ver
is ion
c ap
col lection
fact ory
s pect
Ġinter face
' \
cent er
/ %
S H
g p
Ġre po
`` ,
v o
Ġspeci fy
Ġtra ce
Ġdefault s
Ġb oth
default s
ut ed
Ġ" _
Ġal pha
F O
ĠD E
8 8
oi ces
A P
ĠCo mp
unt il
2 2
======== ========
s pe
Ġident ifier
pro perty
ER R
Ġt ake
by te
i od
r ation
te x
al le
Ġb it
F ailed
C ode
s m
up lic
pa re
en ces
P re
Dyn Class
state s
ro ss
S y
Ġbu ffer
app lication
s alt
auth or
P RO
Ġsc ript
Ġre port
Ġt rue
input s
Ġren der
Ġpath s
Ġ} )
data base
su ccess
Ġf inal
Ġin dic
at io
for ce
- +
p ted
ĠW h
D F
Ġst ats
:` ~
un its
D ate
Ġpo ssible
c la
R un
Ġse par
Ġex pression
en se
sa fe
Ġent ity
st im
c ard
Ġstd out
Ġcol lection
Ġf ix
k ind
Ġ" /
Ġsample s
arch ive
P er
event s
Ġtoken s
Ġs ure
cle ar
} '
Ġp ipe
L oc
yn am
u int
ul ation
Se ssion
fa il
__ ['
Ġs ite
s ync
Ġc ert
d raw
ĠO r
6 5
Ġc annot
G ER
par ameter
Ġin dices
z e
lic it
Re g
pro to
Ġp op
ex ce
l anguage
Ġth rough
Ġd t
p atch
pi x
ĠS tr
n a
b ab
ĠRuntime Error
In put
Q L
Ġcal lable
ut able
ĠU se
Ar gument
i k
Ġi mg
t c
i re
p b
v olume
Ġ_ ,
Ġs yn
Ġde cor
Ġo w
Ġe mail
n an
Re ad
M an
Speci es
v m
I mage
ign ore
im er
Ġv olume
fact or
k er
set up
Ġdoes n
M ap
umb ers
D is
l ers
Ġt r
Ġdel ta
Ġd a
peri od
Ġmax imum
end ing
Ġt y
3 5
s ure
n ly
ta b
Ġe very
Ġnot e
iv es
se ries
ag ent
Ġallow ed
Ġrun ning
ma c
ari es
__ .
jo bs
it ive
ro le
3 7
ma ster
} .
Ġ- =
mp t
ne ss
Ġh ist
SI ON
FI LE
lu g
A M
l ush
Ġd one
C K
comp ile
ffi ci
Ġs ince
d at
Ġass oci
b utton
pro p
peri ment
Ġ utils
time s
Ġa uto
Ġwith out
comple te
ĠF ile
######## ########
Ġthe se
lay out
g ments
i mple
ge d
to ols
6 8
T able
Ġo ur
w in
Ġst at
re gex
pi pe
ro ute
Ġlo ok
co unter
Ġex it
t t
Co unt
ific ate
( ['
'' '
argument s
Ġapp ly
sk ip
Ġclo se
F rom
v as
fla g
Q t
m erge
u ally
vi de
Ġpre sent
Ġas yn
er ic
ke ts
Ser vice
f name
bu cket
inst all
and as
ces sed
V iew
ATI ON
fa st
__ .__
pro tocol
le ted
Ġ uri
} \
Ġdist ri
ĠRa ises
am ily
Ġa st
({ '
ad min
Ġlo c
f mt
g lyph
i ent
V ersion
Ġme mory
Ġh igh
ci i
ext ract
ser vices
Ġevent s
Ġbe ing
feren ces
Ġcom ment
Ġap pro
am s
Ġ" --
Ġl anguage
Ġ kw
ĠYANG DynClass
ĠG ener
ren der
r u
en gth
f ont
r l
Ġco uld
h y
s leep
per ations
lu x
Ġinput s
Ġthe ir
re lation
={ '
u x
s l
C all
ve c
ch ron
Ġwith in
me mber
Ġ' ')
Pro cess
Ġa ut
ci mal
Ġch ain
Ġset up
element s
Ġfin ally
al ias
Ġ# #
step s
pt er
me mory
se p
pub lic
Ġme tric
F or
di stance
Ġ% (
E nd
is h
Ġs pace
Ġmethod s
Ġinst all
qui res
Ġ ,
St atus
g b
Ġsup port
resource s
le ss
Ġ art
Ġst orage
Ġ" {}
** **
T ag
Ġv ector
clu ded
il t
] +
Ġ" -
t k
filter s
ĠAn y
Con nection
g ate
mi ss
doc s
Ġz ero
Ġf ont
Ġan not
ĠN o
Ġset attr
Ġp ix
et ri
Ġw idget
re set
module s
Ġbe st
Ġab out
EN T
lo okup
gener ate
ar s
co e
ĠC h
en abled
7 5
n ull
v s
ch ine
ifi ed
r f
() .__
ter s
r b
Ġde pth
di o
0 9
2 00
U M
sy m
Col umn
H TTP
Ġde sc
Ġht ml
Ġspecifi c
6 9
. *
ol ute
s ist
Ġdown load
Ġf older
Ġsu ch
Ġlo wer
Ġtime s
Ġre al
Ġcomp ute
Ġw rit
} "
Ġag ain
A ction
ome try
4 5
f lat
t ick
exce ptions
4 9
h a
Ġs m
Ġe qual
LO G
Ġauth or
log in
a fter
In stance
ok ie
V alid
lay ers
ĠI P
c f
ĠI N
Ġh ow
Ġs ql
ut er
Ġb ranch
rt ual
N umber
zer o
en e
Ġcon struct
app ly
Ġpro xy
Ġre gex
sum mary
Ġweight s
ind ent
E S
he s
in es
Ġro le
A l
D S
ue s
3 9
str u
} {
la ck
Ġter m
C ur
l on
sp an
Co mmand
term ine
(' .
re ce
Ġre quire
so le
) "
he et
Ġext ension
Ġwh at
d rop
to ol
* (
Ġpo ol
Ġ ))
weight s
link s
Ġgroup s
Q U
ERR OR
G ener
h s
V AL
Ġfe atures
Ġs core
PAT H
p ad
() ]
AL L
Ġ/ /
Ġun der
O L
mon th
th is
l int
re r
Ġpro p
Ġsign ature
OR M
r and
count s
s im
v ing
en gine
sp ath
bin ary
ĠI O
ow er
Ġwrap per
L og
n n
Ġact ual
Ġstruct ure
Ġpro tocol
Ġo perator
Ġcontent s
cur ren
Ġper iod
c ategory
di a
ance l
Ġf ill
ser ved
co s
Ġde code
Ġf mt
Ġm ath
al k
3 8
Ġre lative
Sub Element
ase s
_ .
tri es
ign ed
mission s
content s
Ġmode ls
con t
message s
ens ity
Ġp lace
T ra
_ {
Lay out
Ġsub process
Ġ1 6
ax es
Ġact ive
ä ¸
D o
Ġt x
Ġchange s
{} '.
ul ate
ĠU ser
Ġ join
__( **
= _
e q
sh a
sh ort
Ġse gment
Data Frame
Ġp ad
To ken
am ma
E xt
b ed
p an
Ġde tails
Ġf p
file path
Ġre verse
command s
Ġpre v
St art
Ġcli ck
de tails
plo y
ver s
Ġ' *
Ġupdate d
Qu ery
Re turns
Ġbu cket
le af
Ġc re
ut ing
ĠIn dex
get attr
Ġmatch ing
g ithub
A GE
el y
Ġfilter s
channel s
le x
hist ory
n one
ĠD o
0 8
Ġan g
Ġ[ ])
is hed
ble m
mult i
Ġmult i
g y
L abel
A c
N D
entic ation
7 7
I ter
) ])
os ition
b ranch
al s
Ġinter val
U pdate
PO ST
st ed
ĠR E
D esc
su ffix
th reshold
le ctions
Ġne eded
s yn
down load
m ut
Ġback end
" \
Ġ' ',
scri be
la in
s lice
ten sor
Ġapp lication
exp and
Ġre trie
Ġex clude
Ġro ute
Ġent ries
Ġ( %
set default
create d
Po int
r pc
ro l
v oc
Ġbin ary
sq rt
ex ample
"] :
O f
Ġw ould
", "
Ġfunction s
ĠV alid
Ġbo olean
r p
resh ape
act ers
ll er
base name
Ġal ways
Ġre try
Ġa mount
un pack
Ġex pr
Ġcomple te
Ġi m
Ġdest ination
ic le
T rans
res sed
ĠCon fig
-+ -+
we b
Ġwarn ings
Ġ2 01
4 8
Ġra di
C S
'] ))
ss l
Ġ' <
v ector
m ot
Ġf etch
Res ource
edge s
pro vider
Ġcorrespon ding
Ġ2 00
Ġh o
i fe
ST R
Ġun its
S ER
Ġse ries
o unt
Ġinstance s
log y
Ġadd itional
= ""
as cii
ed it
re en
"] .
m ar
Ġo c
=' ',
V E
ex pression
ĠO S
in f
Ġd raw
are a
Ġchild ren
co me
om atic
j s
ĠC ol
A ttribute
ĠC al
, )
to re
lo aded
col ors
sor ted
: \
ta ct
w riter
t z
coord s
Ġsu ffix
d uration
miss ing
image s
Ġdim ension
Ġtra in
ĠP ath
BU G
d l
def ined
in valid
. )
main ing
Ġcomm on
Ġ{} ,
code s
Ġapp end
Ġst derr
Ġy ear
read er
T ree
) '
Ġc fg
en um
tra ck
Ġw ho
ath er
q a
me th
Ġopt im
M S
qu ences
ail f
Ġset ting
f req
Ġre moved
Ġe valu
Ġco mb
c m
U B
Ġbo x
Ġb ind
de s
ur ing
Po licy
Ġass ume
h igh
se cond
AT A
Ġk ernel
Ġhe ad
AC K
le ar
c u
Ġf ra
Ġp r
V I
c ing
W S
ĠIn valid
A G
Ġre c
Ġen sure
dered Dict
Ġsy m
Ġsh ort
f p
o bs
t ion
Man ager
Ġdistri bution
lo ss
Ġper form
: -
Ġre ason
ĠP er
AB LE
Ġma g
Ġf ast
Ġ' __
Ġpri vate
Ġpro gress
B lock
cul ate
change s
Ġn d
be fore
per cent
Ġ{} )
c d
t ty
Ġax es
% (
Ġc at
Ġiter able
w rit
Ġre l
e val
se ed
Ġd ay
mp ls
St ream
Ġimage s
sign ature
R o
Ġassoci ated
ut or
Ġlo ck
B utton
und le
ur face
I C
Ġ[ ],
0 7
P C
f inal
sh ip
Ġ[ (
raise s
") .
se gment
ist ics
S ource
ac y
one s
m enu
p latform
Ġk ind
SE T
de c
ĠWh en
"] ["
act iv
Ġe stim
host name
Ġc ategory
Ġ< <
da ys
Ġal ias
go ogle
Ġp ick
part ition
Ġd st
], [-
iter items
Ġselect ed
g t
Ġtran saction
25 6
in v
ar m
( __
F ilter
on s
Ġver ify
Ġexec ute
task s
speci fi
Ġsu bject
d st
config uration
N S
Z E
x x
Ġ li
pro duct
for med
ĠStr ing
contro l
TI ME
Ġtra ck
run ning
F e
g ative
Ġf name
st atic
ar ted
Ġwe b
ic ro
Ġs lice
Ġg lyph
ces ses
IN T
Ġexce ptions
} }
Ġvi a
Ġcomm it
T emp
su bject
am ount
res ses
G raph
B A
Ġrequest ed
red u
Ser ver
pro c
Ġrecord s
Le vel
me trics
n b
ist ered
rule s
ver ify
raint s
o ms
, '
ww w
Ġc p
Ġst ored
Ġdef inition
chron ous
un try
Ġ util
Ġover ride
ĠQ u
Ġme mber
Ġpy lint
Ġ until
Ġf lat
be ta
E d
Ġpo licy
Ġcommand s
r m
Ġre lease
W indow
sing le
Ġpa cket
pri vate
: ])
or iz
__( *
M ode
Ġchange d
et work
so ck
Ġpk g
ĠIn itial
di gest
Col or
Ġcoord inates
Ġno qa
pk g
act or
i i
sig ma
' re
ynam ic
Re cord
reg istry
EN D
Ġs av
Ġname d
Ġme ans
op s
cond ition
Ġwe re
De fault
Ġcond ition
ent ries
Ġchar acter
3 6
g no
Ġ"" ,
Ġ $
andid ate
W e
Ġd at
9 5
I mplemented
ast ype
Ġgener ator
serial izer
ĠT ime
Not Found
Ġm u
r al
a che
Ġneed s
Ġle ast
li p
n ote
bo ve
ab spath
Ġt ensor
fa ces
re try
temp t
2 6
Ġc types
Ġc y
Ġst andard
4 0
Ġpub lic
comp ute
at om
Co uld
cp u
) /
m u
Ġid s
ĠU pdate
ation Error
ĠM ake
ĠN umber
I S
Ġco e
script or
up load
re quire
Ġgener ated
) *
Ġw ay
A s
i li
block s
)) .
fir m
t n
fo und
at ches
ex clude
Ġ' )
d river
O K
user s
} :
Ġm ar
ĠA l
pro gress
Ġcomp at
con v
C P
> '
u ff
Ġm ost
ci o
M o
qu ote
source s
Ġadd r
Ġre direct
is file
en vironment
( ',
sum er
In itial
o perator
component s
ife st
f lush
Ġn orm
Ġf d
Ġup load
ve lo
Ġfact or
Ġw x
sh ift
orig inal
ho me
Ġdi rection
Ġsup p
de lay
gener ator
ĠAr gument
Ġpro bab
Ġlo okup
F unction
j or
f un
Ġre pr
Ġs pe
Ġr ate
OR D
d one
Ġin sert
b and
Ġchar acters
il er
output s
av ailable
ĠNot Implemented
B e
ĠExample s
Ġre set
G ui
Ġorig in
h our
Ġter min
ĠB u
Ġen gine
H T
Ġpro duct
Ġb its
ĠN O
h idden
ut c
G S
s d
s cheme
g er
5 6
el ls
Ex ec
Par se
Ġp ut
as sert
orig in
ol ved
plot lib
Ġup per
ad a
] *
spa ces
I F
Ġre du
bound s
gra de
' "
Ġf uture
er ature
re ssion
Ġman y
pt o
DI R
e poch
record s
Ġf low
C A
Th is
ĠIO Error
P RE
work er
Ġg ot
o om
. ',
Ġc enter
Con tro
L IN
Ġc redentials
al ance
ur se
e lem
ib ility
lo ts
ĠO ther
Add ress
target s
me mbers
ateg ories
be st
5 8
si red
Ġd er
Ġrepresent ation
C lo
cl us
Ġin teg
Ġde tect
ĠS h
curs ive
Ġin spect
ĠA pp
Ġs ide
c r
ce l
Ġi mplement
Lo ad
ra in
Ġse ed
def inition
Out put
} /
Ch ange
ĠDefault s
ĠDi ct
4 7
k ernel
i con
Ġe lem
Ġth reshold
M M
mat ches
Ġal gorithm
tran saction
Ġro t
cess ary
Ġstate s
g a
gen e
) }
ĠA s
Ġc lasses
ot ype
i ces
y aml
Ġn s
serv ation
b r
Ġma ster
Lo gger
Ġin ternal
at trib
y g
) ;
di v
P UT
Ġdis k
bin s
'] ]
= ['
h older
AN D
Ġan s
C annot
1 000
sc an
Ġrepresent ing
select ed
ar ge
Ġcont rol
m k
---------------- ----------------
Un known
Ġsig ma
Ġresource s
Ġcalcul ate
fer red
in ate
ue ue
(' _
con cat
own er
bu ilder
le v
un ch
D oc
De vice
pre sen
ro t
B O
Ġs hell
S A
top ic
b er
A d
ult i
a ut
iv ely
ect ors
P AR
t ile
Ġp adding
di fy
Ġsum mary
me m
Ġ Error
t tp
Ġ* ,
pre v
Ġd uration
. ",
Ġedge s
Ġd ump
Ġ1 000
sa mp
= -
load er
f c
prec ated
Ġco unter
( \
I M
Con st
struct ure
Ġpair s
ĠB y
ne ighb
ot o
stru ction
il ities
ph i
Ġc ap
Ġb ro
be gin
ĠB ase
) \
Ġuser s
ext ension
OR T
Ġ1 2
ad ded
ser ve
Ġmin imum
SI ZE
p g
str ings
p ush
Ġ2 0
Ġs amp
ĠC LI
ex ist
Me thod
co cc
CO L
Ġbe gin
> `
Ġword s
ou ble
Ġdecor ator
cocc us
il ar
Ġencode d
H el
Ġa ctions
dim ension
') [
di stri
cor rect
lin eno
Ġmon th
as set
Ġlib rary
W arning
Ġa u
as ync
Ġsuccess ful
8 6
Ġ# :
z y
S c
Ġi o
A ct
p lan
t d
De f
stri ction
Ġs pa
Sy stem
_ )
ĠI mport
Ġgen e
di ag
Ġwork er
s ity
O n
FI G
Ġ' :
ĠRe ad
_ %
lan k
ĠO nly
Par ams
is o
ss h
L ink
gno red
Ġre pository
Ġdirect ly
C al
hand lers
f ree
2 1
rid ge
tran sport
ep copy
S u
ĠCo mmand
( ?
medi ate
limit er
Ġp id
Ġre lation
us age
Ġh y
Ġlay out
Ġto o
init ions
Ġvari ant
par sed
unk nown
Ġg it
vari ant
0 6
in ner
Ġac cept
) ',
li s
av a
url s
es ca
o gram
] ])
idd le
pa cket
U p
ref resh
Ġvis it
or ld
ren ce
operation al
ri ption
Ġcomponent s
Ġb ar
pri ce
Ġv m
Ġn umbers
P age
c um
pe at
select ion
Ġlist s
ho od
i ed
Ġa bove
Ġp ers
uplic ate
de p
IN FO
D ir
ident ity
Ġd rop
S ign
di vid
at tach
X X
ron t
P a
T ask
ĠF I
se curity
Ġs imple
5 9
Ġinst alled
Ġdim ensions
sc ape
Ġmo ve
R ow
(" -
Ġan alysis
Ġ' '.
di ction
re verse
Ġuse s
strict ed
wrap per
Par ameter
ched ul
package s
M ax
en able
Ġp latform
Ġc sv
alle l
H O
i um
ĠB o
i fact
c kets
re ason
Ġcol lect
Ġoutput s
Re f
S pec
d x
Ġe tc
Ġme trics
Ġar r
ĠData Frame
8 9
e cho
Ġrep ly
ot ential
cry pted
se par
de g
Ġ ?
d p
Ġan other
Ġre quires
end s
{} ".
Ġvalid ation
F la
Ġfil tered
o o
DE BUG
Ġman ager
all back
frame s
Ġiss ue
at ype
Ġz one
ĠOr deredDict
Ġpart ic
Ġaut omatic
C ore
rag ma
O UT
request s
in ternal
Ġca ched
is dir
Ġf alse
tain er
al g
Ġag ent
Ġt ab
fe ed
qu are
pro b
ĠE xt
Ġlog in
cre ment
ĠS y
Ġnd array
Ġp l
a a
W ork
op y
ip v
Ġus age
fa iled
bo ot
re v
res olve
di sk
Ġcol ors
RO M
Ġav oid
ac ity
_ (
ĠW hether
Ġex pi
ro py
rep ly
c n
O S
Ġen able
Ġpro to
N E
O bj
Ġle t
(" --
er a
Ser ies
Ġd id
sen s
Ġc he
connect ed
Ġth ose
Ġre ader
s hell
sup press
P Y
i ases
Ġarray s
Ġat om
D ATA
c redentials
Ġex pect
ex pi
end er
Ġglyph s
Ġfe ed
e mon
L ength
Ġcall ing
P ri
O F
ĠRe move
7 9
me sh
Ġd uring
Ġen abled
ust ers
Ġstri p
'] (
s in
ant ity
l ang
cord ing
, ))
Ġpart ition
Ġto ol
st ract
Ġt or
ar ange
Ġstart ing
VER SION
Ġin ner
p ng
Ġ vert
dic ate
Ġhe x
ch oice
opt im
En try
Ġc lear
m en
r atio
s w
or ary
Re c
u ses
allow ed
Me ta
Ġtask s
P A
S p
row ser
ĠP o
in c
Ġlo aded
Ġm d
ifi ers
Un able
al ity
S tore
vari ance
ĠRe quest
Ġpro vider
Ġas set
ron g
c wd
ong o
medi a
t ic
R ange
Ġre striction
+ '
se ss
Ġ[ [
Ġne cessary
Ġang le
ĠL E
Ġspeci al
oriz ont
Ġr ank
Ġcurrent ly
co ver
ĠUn i
process ing
MA X
re direct
p df
Ġo prot
Ġcol lections
Ġd s
di rection
re lated
parser s
b ig
r strip
s heet
ï ¼
ma ss
Ġe ffect
pri ority
Ġtarget s
ur al
ME NT
U RE
Ġw in
radi us
ĠP re
() ),
Ġ"" )
vis it
ĠH e
Ġi gnored
update d
ou gh
cre en
[' _
Ġsa fe
ĠA ll
ĠOS Error
Ġde termine
Ser ial
s lug
ca ched
ci py
ĠPar se
e mbed
part ial
co gn
ra m
Ġcall s
pt r
v l
. \
Ġro und
Ġper cent
ĠY ou
Ġh params
Ġtra ining
on d
Ġc la
Ġde v
co d
e mit
Ġy et
Ġpro gram
al ign
arg in
Ġy aml
the ta
Ġse cret
Ġbut ton
Ġrece ived
ub e
fo o
Ġde leted
) (
Ġp s
Ġw riter
f time
t l
Ġnormal ize
ĠX ML
ĠIndex Error
table s
Ġpro du
pi ck
(' :
in teger
( %
pt ure
ffici ent
Ġbe low
can vas
Ġf requency
Ġasyn cio
u ous
contro ller
\ '
Ġrule s
ĠD is
X T
or ter
Ġat tach
Ġmark er
Ġp andas
li ct
Ġco ver
instance s
sup er
Ġma c
Ġc ut
p x
Ġstate ment
Ġm ight
orizont al
Ġde sired
Ġme asure
E M
Ġph ase
f alse
cat alog
a ff
ta ck
Ġr v
AR N
esca pe
po wer
Ġsource s
Ġlo w
J ob
str ument
P S
g z
Ġ" <
a w
Ġradi us
se ct
trans late
ĠN ode
T est
per and
ex port
se m
C AL
pipe line
ch or
. %
Ġc b
Ġne ighb
L L
Ġ'* '
Ġtop ic
li d
ĠNotImplemented Error
clo sed
Th read
! !
ĠOther wise
version s
function s
Ġt ile
Ġn b
5 7
Ġl on
an is
ta ge
SI G
m er
F T
D U
P ER
ut ation
mo dified
0000 00
con struct
ĠA t
se ek
Ġ) .
Ġprovi de
re at
al th
Ġex port
over ride
F ORM
co mb
P art
Ġle g
ut down
Ġexec ution
9 0
Ġpipe line
Ġpro c
Ġpri mary
Ġho ok
(' {
Ġt s
divid ual
Ġw ell
Widget s
Ġreg istry
. '.
w b
p al
'] ),
ĠH and
for ward
fi d
Ġl ate
Ġ ],
Ġp ragma
" '
n dim
b us
Ġ archive
ĠF ind
Ġor g
ĠS peci
Ġcol s
Ġbound s
iter able
ĠCon vert
Ġstep s
') ]
Ġfile path
CON FIG
sc reen
T ran
st it
Ġse curity
Ġ ])
ref s
Ġ6 0
k s
Ġon ce
cli p
] ],
A ll
ass ign
de rer
e qual
LE CT
PI PE
P L
Ġty p
ĠLOG GER
t w
f amily
> <
ĠL og
Ġexp licit
etri e
Ġde c
Ġch oices
bo sity
Ġact iv
C an
mo oth
Ġd ot
ha vi
Ġare a
er ies
AC E
Ġfail ure
Ġarg parse
d n
Ġsc an
M in
key word
T C
Ġe mbed
fra c
li er
ch oices
Ġtrace back
ç ļ
TE D
Ġk nown
di an
pair s
un set
ĠRes ponse
V ariable
Ġmo dified
au ss
Ġcur r
g lob
Ġsn apshot
st mt
pre dict
cry ption
Ġmeta var
çļ Ħ
pend ing
p red
str ftime
pub lish
host s
å ı
comp at
Ġhost name
Ġex act
Ġac cording
b reak
b a
Ġre lated
/ '
c red
Ġ ~
3 1
Ġback ground
="" ,
z en
co st
ateg y
Ġin cluded
M B
Ġc ir
7 8
I TH
Ġpart ial
Ġa ggreg
Ġsav ed
Ġk now
Ġpackage s
a ggreg
v ol
Ġpre dict
Ġre maining
.. ..
ĠO bject
5 01
normal ize
Ġsh util
Ġres olve
[: ]
at ter
Ġ3 2
Pro tocol
Ġmodule s
ci pi
lib rary
C TION
] ["
riter ia
ON E
Ġh app
Ġover write
un ic
old ers
W N
O pen
e m
Ġse p
R ule
sub process
ĠI mage
Ġt ick
Ġcount s
Ġretrie ve
est im
Ġwrap ped
In t
sn apshot
not ification
C RE
Ġh our
â Ķ
w x
Ġb l
Ġne sted
25 5
Ġfix ed
Ġse c
) ",
Ġversion s
pre pare
Ġbase string
s chedule
> \
Ġac ce
dest ination
sign ed
O ptional
(' .')
col lect
ant i
Ġor d
T ensor
andid ates
Ġ[ {
Ġ1 5
Ġautomatic ally
ip s
Ġe poch
Ġme sh
Ġch o
Ġs cheme
up ported
chedul er
m q
mark er
Ġi prot
P h
g l
ĠS ub
Ġin side
pri mary
Ġfig ure
f uture
li es
Ġset s
pro mpt
de tail
N um
plugin s
ad o
g ame
vo ke
pe er
ĠQt Gui
) +
Ġe p
Ġp ower
Ġr c
Ġl ater
si mple
pri ate
ĠM A
Ġselect ion
li hood
Se arch
redu ce
Ġformat ted
rec v
Ġpro blem
Ġso ck
g r
da pter
thread s
flat ten
c ar
re pository
mit ted
UL L
ist ic
Ġabs olute
` :
Ġpre c
tent ion
Ġblock s
ol ds
T A
Ġ ve
ue ss
w n
He ader
cl ar
Ġst ill
Ġchannel s
ier arch
Ġe ven
ĠArgument s
Ġb ash
quest ion
pro ps
par s
ac cept
index es
ĠO pen
me asure
Ġf s
ad cast
Ġed it
Ġd river
ĠT rans
ex ternal
Ġe v
sp l
Ġg l
Ġbu ilder
Ġraise d
Ġcheck s
ĠMe ssage
Ġme mbers
Ġsupp lied
ru pt
MA P
qui et
Ġn ull
Ġst atic
(' <
ri c
ĠImport Error
Ġbe ta
CO DE
Ġconver ted
ĠBu ild
Ġsm all
cal c
Ġass ign
Ġ ut
Ġma chine
qui val
Ġde lay
Ġco re
ter ms
C I
depend encies
is instance
5 4
al let
Ġnot ification
B ack
Ġp lan
clu ding
> "
Py thon
Ġu uid
Ġen viron
comp ress
Ġagain st
sen der
ver sed
Ġw arning
f requency
Ġpre sen
Ġtuple s
S M
P ort
(" /
Format ter
Ġ" '
sup ported
ed itor
Ġappro priate
ĠI d
so ft
g ent
Ġf req
Ġan aly
Ġal t
Ġle ss
ĠLo ad
Ġow ner
or dered
Ġg re
l st
Ġfor ward
Ġpos itive
k ip
7 0
distri bution
st rap
clus ive
do cker
ph ase
mon itor
Ġreg istered
FI X
dis able
Ġst age
page s
ĠRe g
y ment
Ġinter pol
O ff
Ġad min
N etwork
US ER
ĠC an
we ek
d jango
Ġc ent
ro uter
i ver
v c
Ġval s
p n
t imer
Ġde scri
as is
Ġvi de
Ġpro cessed
vide o
et adata
d c
get item
log ical
curren cy
am era
Or der
Ġ'{} '
const ants
ĠI ter
lap sed
Ġs imp
Ġout file
W ith
Ġex periment
T S
Ġreg ular
ar is
M sg
Ġp g
c ss
Pro perty
Re stricted
J SON
line ar
te p
gra d
Ġs sl
N e
b lob
s age
H ER
ran t
ra se
T arget
u la
Ġm s
st age
N G
list s
ĠS o
U ID
en ch
Ġlo ss
an aly
M D
Ġd x
L S
Par ameters
Ġe scape
Ġow n
z z
Ġb ig
Ġquery set
gre es
Ġp atch
C F
ann er
) -
M odule
ĠT ra
Ġ* =
Se lect
d ouble
w alk
9 8
Ġvi rtual
on y
Ġscal ar
Ġwork ing
late st
Ġlink s
Ġcont roll
ot es
vis ible
[ (
t le
Ġal ong
p us
ge o
a ws
vi rtual
par k
Ġconnect ed
Bu ild
di sc
Ġd ig
ls o
man y
bot tom
Ġinitial ize
. ".
~ ~
Ġmat ched
B in
Ġn one
Ġwrit ten
select or
Y ou
Ġpro per
Ġme dia
} },
get Logger
Ġin v
ĠIn put
Ġf h
ĠB e
Ġstri ct
M I
Ġe val
c id
R C
b ias
Ġs w
D own
O ption
Ġt b
HE AD
j a
W rap
( ["
Ġ" )
A ccess
v lan
ĠS top
find all
Ġf ore
Class Type
Ġprocess ing
{} )
al f
ab ility
Q ueue
t od
Ġqu ote
bind ing
rit ical
st o
Ġi mplemented
ct ype
Ġcoord s
Ġse en
Ġde termin
Ġmo difi
Ġf un
ma chine
ep s
A F
I f
ĠF orm
I s
Re ce
Ġre presen
il ing
t ar
re lative
fix ed
> >
pre vious
disp atch
make dirs
p adding
ro y
e valu
po inter
Ch ild
ro id
Ġg lob
Ġchunk s
b i
an alysis
Ġapp lied
Ġdepend encies
Ġse quences
Ġpar sing
Ġde ploy
mo st
add Widget
O ptions
"] [
work flow
Ġb ad
Ġhist ory
4 2
os id
Value s
A li
h ing
char s
ma s
Ġun known
W idth
Ġex ternal
MO DE
ty le
Re ference
fig ure
Ġpos itions
M IN
Ġt a
um my
FI EL
ĠC O
ext ensions
Ġa verage
ĠO ut
Str uct
temp ts
b asic
Ġtable s
Ġs ync
CE SS
ĠS T
Se quence
Ġ: :
Ġco st
f lux
]) .
Ġne gative
Restricted ClassType
ff ff
Ġident ity
B ind
p d
p m
t ol
Ġ[ -
TT ER
yg on
G B
name d
Ġs olution
ĠDE FAULT
O peration
ĠM odel
Ġpri ority
Lay er
I ST
et te
t b
co v
Ġdef ine
" %
Ġch oice
s witch
on ical
tri p
her it
lis hed
um an
App lication
or ing
Name s
Ġpix el
se ctions
Ġtake s
Un i
Ġ' #
4 6
b ad
Ġlay ers
Ġiter ator
ĠT ext
Ġal ign
map s
Type s
Ġurl lib
sp ose
Ġx range
Ġiter ation
i ms
con ver
c ancel
Ġb ins
EX T
Ġm enu
Ġpre tty
ys ical
D A
Ġm x
com ments
std in
ĠF ield
Ġbu ilt
Ġb and
IN TER
b g
Ġ arch
Ġpri or
process or
P TION
Ġp an
ĠInitial ize
Ġcert ificate
W rite
ite xt
al gorithm
Ġe ps
se g
Ġsen der
Type Error
Ġbase s
Po ol
Ġl ang
co okie
Ġ'/ '
se mb
Ġs creen
r gb
Ġt ar
ĠC lient
ne ed
mag ic
) ')
Contro l
Ġclo sed
" >
po logy
ĠH ttp
de epcopy
Ġo perations
as array
D ATE
te in
ĠA lso
e v
l c
Loc ation
Ġ2 55
ma jor
Y ANG
Ġref resh
state ment
C ache
Ġtran sport
po ut
log s
AR T
istr ation
i j
ra d
s li
on al
Con nect
Ġo bs
Ġimplement ation
Ġs witch
Ġre ct
ĠN e
an ded
Ġspecifi cation
* .
s cores
x im
Ġcon v
s izes
A UT
( ('
ites pace
config s
Ġlate st
Ġb lob
ix ed
Ġm ime
valid ation
ĠW indow
Ġhe lper
se e
Ġde precated
Ġ' ':
Ġd ue
Ġmat plotlib
Ġsh ared
bo olean
Ġt urn
ul k
limit s
C L
il ent
format ter
' {
Ġlin eno
at rix
Ġt z
man age
d en
call point
form s
w ik
Ġca st
me s
Ġauth entication
de vices
Desc ription
pro gram
(' {}
Ġcase s
sist ent
pt ime
A pi
Ġ3 0
ind er
Con tainer
iss ue
s r
Ġ---- -
Ġpick le
ward s
Ġpresen ce
) **
Ġun pack
fast a
Doc ument
ARN ING
Ġ: ]
A uto
back up
Ġu id
Q UE
c ity
Ġn args
Ġwork flow
V er
Ġsome thing
di ctions
ĠA c
ĠH T
r ing
En abled
Ġ jobs
de ploy
ĠQt Widgets
Ġt xt
il on
ĠF unction
Ġf ree
Ġthread ing
M atch
Ġm ut
Value Error
Ġannot ation
ar c
Ġexp and
Ġasyn chronous
Ġat tempt
ĠSt art
': '
yn tax
ĠF ROM
Ġda ys
pe t
De lete
Ex it
LIN E
quival ent
level s
Ġvide o
8 5
Ġconstruct or
an ization
v a
t m
n r
E V
F C
Ġs at
Ġact ually
si dered
work ers
Ġn n
Ġ services
w atch
ial og
Ġs chedule
Ġtri gger
ch at
ĠThe re
Ġmap ped
co very
Ġfilename s
**** ****
'] ):
ci rc
! ")
' %
p in
run time
bl ue
en ate
ch r
Ġc ells
Ġ å
re dis
Ġdi ag
ĠD B
Ġc andidate
key words
w t
ap s
b lack
Ġh idden
ĠE ach
Ġcom ments
RE D
encode d
Ed it
12 8
M y
ĠC all
Ġbot tom
ens ure
pro g
pos itions
end ar
N ew
at ory
m id
to ur
ierarch y
r um
Ġs cipy
Ġsp an
annot ation
ĠN OT
Ġcon sidered
t or
LA GS
lo ur
: ",
n u
ĠE vent
ient ation
-+-+ -+-+
us ing
ĠM o
g amma
F act
st ar
HER E
wh ite
A nd
Ch annel
s b
ĠT emp
= ='
7 4
P ORT
__ __
no ise
pe ak
U rl
ci pe
Ġprec ision
D R
q s
ou se
Ġthe ta
ĠA ND
Temp late
b acter
Ġcontroll er
Ġ" @
ok ies
Ġno ise
ĠQu ery
Ġindex es
Ġp ack
Ġbe havi
LE D
bu ff
connection s
Ch ar
act ivity
O ver
B B
G en
D ec
exist ing
Config uration
o auth
Ġis n
Ġdo cker
Time out
ĠL oc
Ġman age
ffi c
ĠA uth
cel ls
ing er
Ġsh ift
symbol s
_ '
av ing
Ġv ol
Ġdocument ation
Ġpro mpt
Ġtime zone
mo ves
Ġst mt
ren cy
spl itext
O nly
set ting
Ġformat ter
at t
tect ed
P H
de cor
7 6
Ġr atio
C om
Ġnot hing
LE TE
ty p
Ġans wer
di git
Ġ'. '
Ġpri ce
Ġcre ating
: .
Ex ist
com ing
o ols
ä »
fail ure
ĠP O
Ġre cursive
server s
voc ab
g u
| '
u ation
Ġinter pre
k it
S chema
list en
cont in
tri gger
split lines
Ġ1 1
P T
de scriptor
Ġg u
read line
Ġit self
Con vert
Ġsh a
p ot
Ġmult ip
get ter
cal e
S end
j ac
Ġcoord inate
Ġcat alog
back ground
scal ar
m is
Ġal tern
ro les
Ġconfig ured
Ġrun time
contain s
ix in
ad ing
A x
is ode
auss ian
C C
Ġoc cur
Ġread ing
last ic
Ġ ^
po se
ĠNO TE
leg end
hy lo
S o
at ial
e ver
con sole
not ify
pattern s
( ""
ĠPro cess
M issing
ada pter
D D
b b
ĠLE TTER
as c
im it
Ġnormal ized
sh ared
LO W
aris on
W ORD
Ġsim ilar
Ġd en
Ġma ss
8 4
te ction
ex periment
ue st
ĠHT ML
Ġp lay
ĠC ON
ph er
t i
Ġpe er
: ',
G rid
S L
Ġd jango
Ġkey words
ul ated
Ġter ms
n ail
ic ally
ï¼ Į
H ost
Ġgre ater
D ist
per mission
depend ent
b alance
r d
Argument Parser
sa ctions
ĠSt ate
ro pout
J E
N OT
ro zen
ĠM ax
Ġframe s
Ġpub lish
e e
ge ometry
Ġ| =
sem ble
mo ving
mult ip
Ġst ride
Ġtest s
ut it
Col lection
S Y
Ġcomp are
ĠW rite
ĠC ode
Iter ation
') ):
(" {
Ġline ar
auth entic
ĠC ur
se gments
A A
spe ed
it al
Ġb asic
Ġupdate s
] (
z oom
FORM AT
c ategories
iter al
Ġad just
time delta
() }
0000 0000
Ġconst ant
Ġbo ot
exec utable
s ol
Ġp ur
Ġar ound
Ġs cores
ĠNot es
St ap
ĠComp ute
G I
Ġmake s
Ġallow s
Ġe qu
Ġmerge d
Ġm is
Ġin dividual
ard ware
G e
d m
P os
v ance
sess ment
P U
al ive
Stap hylo
con tract
Ġselect or
b am
, ),
Ġfact ory
u er
Staphylo coccus
sub net
St orage
pix el
4 04
query set
Ġen er
Ġvalid ator
F S
b p
exec ution
O B
local s
Hand le
Ġty ping
ĠIn ter
n c
pro cessed
Ġc v
VAL UE
res id
: "
B ar
ĠS E
Ġsub net
Set tings
Ġ ri
ub class
L Y
vi ation
Ġarg v
pan el
ure us
Ġq s
a verage
th umb
Ke ys
Ġap pe
S tyle
al e
Ġa ureus
Ġuse ful
TE XT
â Ģ
li cies
=[ ],
T er
pri or
ul lable
Ġpre pare
ĠSy stem
Ġclo ud
ĠU RI
ĠL e
lic ense
Ġcon tract
iz ing
D ialog
V ar
view s
Ġdefault dict
B E
ĠA ss
b undle
b ank
loc ked
Ġper mission
ent ifier
ĠD O
Ġ5 0
Ġl st
scri pts
int s
Ġp lease
Ġdirect ories
b ra
template s
Result s
P ol
ĠC lo
M T
Ġ ()
Ġco urse
Ġpix els
ff s
call s
cre ase
: ],
Ġs sh
A ss
Y Y
Ġ1 9
range s
s la
Ġth ing
test s
e ffect
iter ator
const raints
n x
li ca
Ġ 64
Ġ' +
ĠGener ate
Ġc c
Ġcl one
RE AD
i or
di ctionary
Ġpr in
ĠF ilter
Ġm ot
config ure
Ġthread s
A b
en coder
Ġf o
Ġse gments
/ (
S U
i ke
Ġst arted
or th
Ġgo od
cert ificate
Ġ' "
i red
cal lable
cre te
Cur rent
Ġtemp erature
ĠT ry
t un
Ġreturn ing
) ],
R R
s olver
Ġg radi
Ġmar ket
P osition
S QL
(" {}
plo ts
Ġor dered
ĠCreate s
'} },
u ch
Ġres pect
ta ched
ge s
Ġtrans ition
Ġwork s
Ġo k
ir ation
dim ensions
or ical
Ġ2 4
Ġs urface
Ġg ate
ran ches
Ġlimit s
M etadata
M ulti
en ari
Ġp ush
gre en
fin ished
oc ab
ĠCon struct
p lain
r us
Ġcur ve
m c
ch rom
Ġread s
Ġe tree
Ġco okie
Call back
Ġsepar ate
################ ################
Ġvar s
Ġ{} ).
G L
Ġde vices
CH E
A ME
trace back
av g
================ ================
Ġme m
Trans form
ĠUn ion
ĠW ITH
OR Y
By tes
ffici ents
able s
prec ision
ĠFI X
in i
ĠO n
sid er
__ ))
ib ration
Ġspe ed
Ġf lux
ex pect
ĠW ork
Ġp i
99 99
c nt
('/ ')
Ġ( :
sub mit
ip her
man ifest
T uple
Ġp red
chunk s
min imum
an e
Ġcal c
} ]
M enu
Ġconnection s
SE LECT
Ġc ard
location s
Ġche cked
ct ools
Ġver tex
f r
out file
Ġdata frame
const ant
wrap s
wh ich
Ġbyte array
x s
gra di
S D
={} ,
ĠN ew
Ġb a
B ad
S V
P lease
x path
per m
Ġversion added
s olution
Re ader
add resses
comple x
, "
ry pto
cur acy
fid ence
m icro
\ "
max imum
Ġper missions
LO CK
ĠTo ken
cl one
h i
h ref
Fact ory
Ġi con
I I
ly ing
ĠP lease
lin alg
o perations
ĠH ow
(" .
ĠA R
L ATE
list dir
Ġsen sor
k a
Ġ( -
pol y
Pro xy
LI ST
P ass
it ch
Ġde p
lic ked
Ġde limiter
abs olute
al an
To ol
Ġres id
Ġg amma
m x
Ġa z
âĶ Ģ
at oms
)) ]
Ġflat ten
Ġ æ
serv ations
6 3
l r
valid ator
iz ers
ĠO ne
Ġx y
ur ations
Ġs pect
are st
co untry
Ġconst ants
Ġre v
Wrap per
C re
base d
diff e
ĠID s
_ :
e f
Ġparent s
^ {
Ġma de
ĠE lement
Par am
` )
u ble
open config
En t
g gest
set Text
Ġt ail
we et
pl us
Ġsent ence
5 2
project s
Ġ( {
] =
he el
({ "
Ġmo dify
Ġbu ff
Ġcon version
Ġiss ubclass
7 2
02 4
un ary
local e
re tries
Ġp ull
ĠM ust
annot ations
Ġauth entic
e le
er al
Ġnum eric
ĠAr ray
ĠWindow s
Ġlo ader
ĠT uple
Ġv s
Ġge o
ĠF irst
Ġe s
ad just
ab ilities
Ġdis patch
> ',
gate way
t ip
de cimal
' },
(' [
Ġs id
uff le
ĠCon nection
Ġlo gs
Ġcomple x
V al
li ve
Ġcalcul ated
f h
ma y
require ments
de ps
C B
cy cle
in teg
Ġs lot
pro du
ST AT
ph ab
Ġcall er
coord inates
Ġc ross
ĠG roup
gn itude
U t
m ime
STR ING
Ġredu ce
bu ilt
Ġpattern s
he l
Ġcon sole
Ġcompat ible
au dio
T ri
Ġdo uble
c ross
Ġdoc s
Ġau dio
r ho
char acter
Ġass igned
Ġs ur
er red
Ġ_ ("
: ")
Ġd y
ĠG raph
Do es
4 00
Ġback up
n umbers
Ġserial ize
) ")
an it
5 3
p ull
Ġm ig
4 3
de leted
per missions
Ġr df
igh ted
re vision
Ġpro cesses
read s
Re p
Ġge ometry
Ġre ferences
Ġcond itions
X ML
out er
! ')
a ce
sh ould
In teger
Ġsymbol s
length s
ĠFIX ME
P ub
it ation
Ġde scriptor
ĠHand le
pol l
Ġfa ce
Ġcp u
Ġob tain
ir d
Ġsub scription
gra ms
7 3
l v
cli ck
ĠRes ource
IG N
/ {}
Ġb us
specifi c
Ġhapp en
Ġw rong
mo difi
trans fer
Ġse g
ĠThe se
h ow
Ġph i
d ynamic
Ġsub class
O p
re peat
z on
Ġdepend ency
phab et
ect ion
be at
TE MP
ĠO R
Ġn u
Object Name
S K
ĠOut put
' ll
l uster
b order
Ġc wd
ver tex
Ġfin ished
F unc
Ġst o
H ash
$ ',
di g
Ġk lass
etrie ve
JE CT
Ġres olution
err no
() ).
a ched
Ġin f
ent ities
Ġco untry
U RI
Ġde g
qu ot
Ġw a
i ally
et c
lif y
Ġl arge
leg ate
} ')
le arn
AR Y
time zone
' d
re name
Ġp ie
c v
5 00
ns upported
rece ived
ast er
pro j
ag raph
Ite ms
C ell
Ġw atch
Ġsign ed
Ġpe ak
n ative
parent s
expand user
Ġp otential
Ġconfig ure
uplic ates
6 2
Ġqu al
al ignment
te am
Comp onent
} ),
Ġsub set
Ro le
Hel per
Ġb lank
)) ))
Ġpartic ular
b um
ĠUni code
jo int
Ġhost s
Loc al
T itle
y label
Ġb el
Re move
pos ure
Ġmin utes
Be gin
T RI
ac c
Ġh ref
Ġre d
vert ical
b box
V ector
=" %
E C
p at
y es
s lot
An y
Pro ject
ble ms
ne g
b re
callback s
Ġder iv
ener gy
mult iple
Ġserial izer
F ind
av es
HEAD ER
Ġcomple ted
b tn
x label
W ARNING
: '
} /{
Ġcon tact
spe cs
y ang
Ġconst raints
speci men
Ġwho se
ise d
o x
c us
Ġs leep
and atory
Ġs li
cl usters
Ġdi rs
a e
ĠW HERE
requ encies
FIEL D
Un it
ĠA d
kw ds
Ġrequire ments
Off set
AT OR
Ġfa ils
con tact
Ġh it
U se
å Ī
Ġn x
Ġdef initions
Ġpo inter
En gine
Ġen coder
Ġal ignment
ys ql
fin ish
set ObjectName
in ja
const raint
s ites
F ail
Pro file
le c
ill ar
ĠO ption
ĠG iven
Ġde cimal
cipi ent
Ġpar allel
Ġurl s
Ġdi alog
Ġconst raint
S ample
cal culate
trans ition
LOG GER
N ext
n l
Ġco s
ĠCal culate
Bu ffer
Auth or
Data set
ild card
Ġent ire
Ġdi gest
Ġdoc string
list ener
neighb ors
date s
Ġany thing
S um
__ :
AUT H
ac l
A SE
Not Exist
tt l
Ġtor ch
U I
Ġd ry
Ġd ynamic
gen es
end or
AC HE
K EN
n i
ĠF la
co urse
(' #
Change d
Ġc ar
ce ed
cur r
ĠO ver
Ġp ending
Ġf amily
Ġr ho
V is
SC RI
Ġpers ist
Ġcheck sum
M ark
v r
6 00
RE S
Ġp in
L D
de serialize
s parse
Ġ" +
Di rectory
g ge
g ap
8 7
= ',
è ¯
M apping
Ġre dis
Ġplugin s
sen sor
Ġc red
is is
Ġb undle
ĠMe thod
s quare
Ġg ame
=' '):
Ġ: ,
Ġtime delta
Ġtemp orary
N UM
ro om
Ġb g
Ġpro ps
Ġr s
Ġsepar ator
' |'
m ig
y m
stat istics
Ġindic ating
50 9
] }
Ġdis abled
play er
st andard
ro s
Ġin cluding
wh en
Fe ature
re es
__ [
tran spose
fin ite
' )))
format s
ĠT est
QU I
ĠSer vice
Ġth ree
mo re
Ġevalu ate
Ġa dapter
ph rase
Ġt ax
Ġlevel s
') (
ne sted
Ġmon itor
Ġone s
Ġhand lers
Ġlocal e
sp in
Ġexec utable
a N
p andas
Ġcre ation
Ġ light
en c
Ġs parse
ver ts
act ual
gge red
initial ize
Ġb order
Ġcon cat
Ġ\ \
d ns
F low
n el
I mport
Ġener gy
Ġrot ation
iddle ware
Ġcode s
ĠDi ctionary
stream s
Initial ize
9 7
B atch
Ġca use
fi re
iss ues
Exec ution
d ag
> </
ste ms
imp l
Ġfra ction
P ost
ma zon
ap pro
train ing
po sed
Ġsh are
Ex p
lo s
ĠV ersion
Ġs lug
Pro perties
in line
Ġdi ction
ns ure
([ [
Ġe quivalent
Ġb box
ĠA S
vent ory
warn ings
Ġv ectors
Ġv ocab
se quences
Ġc map
Ġrange s
MP LE
Ġstart s
P lugin
th resh
Ġth umb
ex e
Ġed itor
TYPE S
Ġsamp ling
ri ve
ĠT ensor
Ġpre vent
Ġresult ing
Ġcomp uted
Ġman ifest
ĠB ack
ĠRes ult
Ġbot o
inger print
Ġpage s
ĠStop Iteration
Inter face
: ,
... ")
om ial
separ ator
Ġ vec
-------- ----
(" ,
Ġstd in
Cur sor
W h
f path
)) [
Ġg ive
sh are
Ġgra d
de t
ĠSer ver
set Level
hook s
Ġret val
Ġadd resses
gener ic
Ġbet ter
Ġcon sumer
m ul
f w
Lo ck
VAL ID
W A
Ġsuccessful ly
Ġver y
Ġevery thing
ch er
ĠS QL
Ġindic ates
ĠB lock
Ġm p
Ex pected
Ġart ifact
Ġin place
p db
P rint
al iases
tick s
ir t
ag ing
mut ation
sh utdown
cut off
wa gger
Does NotExist
BA SE
T AL
Ar gs
We b
ĠT ask
Ġd ensity
Ġcli p
ip ant
st arted
(' ')
f lo
C LA
Ġch rom
gg ers
ful ly
Ġcomp ile
b et
s at
w ave
mit ive
global s
cur ve
" {
add itional
M etri
r x
ĠD ate
sg i
comple tion
wrap ped
Ent ity
I TE
Ġne ver
Ġadd ing
Ac count
k ill
ST ATE
Sy mbol
check sum
Ġmag ic
ro ke
UN D
c les
w orld
ĠS hould
Ġrun s
m argin
concat enate
Ġannot ations
velo per
ri ft
Ġf g
/ "
set attr
Ġen ough
ĠT able
Ġte am
loc ity
NotFound Error
l strip
A gent
Ġe ar
ĠEx ec
cond itions
Ġre cent
Ġiter ations
re pos
Ġt imer
at ives
te rest
res ize
VI CE
yntax Error
Ali gn
} ',
er ial
pro cesses
j id
sert ion
pi e
Ġtrans fer
k ing
Ġ' [
con trib
SS L
res olver
Bu ilder
ra ft
Ġwho le
Ġart ist
lev ant
clean ed
h ip
Ġre versed
s ur
Ġw s
gp u
Ġcheck ing
F ont
Ġs s
sh ard
Ġc er
Ġim mediate
% %
local host
ance st
9 4
:` .
Ġ= >
ud it
Ġrece ive
ĠValid ationError
cogn ized
F E
r r
Ġd d
Ġun less
Ġtr unc
Ġ_ ('
æ ľ
Ġe as
C LI
p w
di alog
part ic
am b
Ġro uter
Ġpre diction
Ġle x
Ad min
Ġse ctions
] '
([ (
O M
f an
U ST
Ġp lain
Ġa mp
Ġsup ports
crypt o
a gg
Ġm id
Ġexplicit ly
p ip
un ion
Ġsyn tax
Ġtermin al
load ing
hour s
clar ation
Ġf allback
gener al
app s
bo lic
S tep
c andidate
Ġ sel
sup port
Ġbound ary
az ure
ri end
ench mark
urn al
like lihood
f its
d om
enari o
U SE
to list
j ava
con sumer
cont ig
base s
Ġb ias
ĠN ow
ĠCal lable
C R
ist ers
os ite
FF FF
sent ence
si ble
sa ved
L imit
ĠS im
de tect
pick le
Ġres olved
semb ly
Ġre cur
Ġ% .
g ui
l sp
Ġop s
I con
Ġlist en
la ces
ĠCon tent
gra mm
^ \
s ame
b rowser
comp are
Ġj s
mot or
ge om
ul ly
3 00
Ġp layer
Ġal le
vert ices
c map
Ġd uplicate
me try
run ner
re a
ct l
scri ptions
PRE FIX
Ġlocation s
[ _
ĠO peration
Ġfra gment
æ ĸ
df s
w ar
6 1
I ds
AT CH
Ġqu ot
Ġauthor ization
st and
mk dir
P open
al ect
v or
lo pe
ĠM ulti
ili o
Ġin c
get cwd
set item
ĠHttp Response
Ġmo unt
rand int
tuple s
Ġtri p
A ST
Ġcy cle
å Ĳ
Ġinclude s
C ustom
ve red
Ġrelation ship
Ġdiffe rence
medi an
Ġc r
get her
ĠS end
Ġtemp file
W OR
ap er
M atrix
In st
[: :-
UN T
'] },
Ġe ig
J s
al loc
Ġread y
anis m
' })
me t
rou ped
i os
Ġ( _
Ġlong er
ff t
offset s
S ave
Ġre vision
k g
m time
filename s
] ',
Ġn ullable
Ġ/ =
sk y
comp ressed
sp f
00 1
ĠD esc
array s
in complete
inter pol
Ġserial ized
ĠM an
Ġresponse s
lec ule
ance s
e ss
f l
Inter rupt
Ġgradi ent
y y
che my
Id entifier
ateg orical
Ġp t
Ġver bosity
Ġvis ible
File s
m ol
ĠV er
Ġcomp ression
] -
ta u
Ġin line
Ġmay be
f q
Ġqu ant
con firm
Ġ1 4
tr l
ĠS ome
M on
Ġ ur
ĠCur rent
Ġh ome
(" [
Ġg uess
Ġget s
Ġact or
Ġvert ices
v oid
Ġ`` '
sens itive
Ġ1 024
Ġlook ing
Ġprobab ility
Ġcomp ress
cor r
D C
f ollow
ĠG o
all en
Def inition
ĠS M
lit eral
window s
Ġspa ces
Sc ript
ul ator
un ity
Ġload ing
Ġs izes
s ince
Ġgener al
S UB
w all
Ġexec uted
irt ual
Ġme as
Ġextract ed
f ront
Ġ" __
12 7
inst alled
ĠPer mission
Ġbehavi or
] |
Ġprobab ly
l b
ĠSet s
h ide
un ce
def s
fra gment
P ay
fo cus
io dic
gener ated
Ġdiction aries
Ġinitial ized
s urface
Ġpre dicate
reg ions
co verage
ĠA WS
Sh ow
wik i
r v
vers al
h dr
Ġent ities
Un ion
Ġpop ulate
al m
a ign
map per
so me
R el
Ġ Ð
Ġdata sets
pre tty
not es
uni form
curs ively
Ġconf lict
S tack
x ies
ript or
de scribe
Ġlocal s
Ġs ol
V AR
comp iler
Ġc andidates
ĠT ag
Ġgen es
g f
sp ac
D ep
il li
ĠC lass
Ġu i
ĠM ap
Ġover lap
Ġin correct
Ġs la
Ext ract
(" <
Ġrepresen ts
as ses
ret ch
ation al
Ġn ative
example s
Gener ator
t cp
... ,
stit ution
ĠCol umn
9 6
ch an
QUE ST
Ġth row
Ġassume d
Ex pression
hex digest
V M
B Y
ĠG e
Ġp ip
Ġe st
ĠS ave
Ġdict s
l n
Ġlong itude
M ult
g ot
check s
q q
ST ART
Ro ot
R ect
ĠSe quence
_ =
v cf
ord ers
ch a
inter faces
D P
o v
O ne
Ġp at
Ġout side
CON T
Ġse ver
ĠD oc
E P
re maining
da emon
Ġ question
ro utes
Ġport s
st one
def initions
RO OT
M ain
Ġstat istics
neighb or
pi ed
F ore
]) [
Ġpre ss
DE X
h it
c licked
fi ed
Ġent er
Ġ9 0
b ridge
Ġvis ual
Ġde grees
ĠExt ract
r st
è ¿
ind s
C ACHE
termin al
pre cation
Co mm
Ġwe ek
out ine
code Error
N ormal
sc roll
33 33
qu ant
Ġproject ion
c ritical
([ ])
Ġob servation
r df
Ġleg end
ir ror
DE LETE
dig its
Ġinst anti
T op
Ġdecode d
M ixin
m ust
v g
ĠL ine
un der
Ġhand ling
bs ocket
d ensity
fil tered
ject ory
ile s
ĠP rint
""" ,
(" _
min ion
ca y
Ġcon sider
object ive
board Interrupt
j ar
Ġs olver
Ġcreate s
P lot
graph ic
c lock
... ')
æ ķ
ot er
() ])
Ġgo ogle
N N
E mpty
')) ,
8 2
S ec
h orizontal
ĠS alt
Ġab ort
li ance
Ġs mooth
res olved
CO M
Fla gs
u do
I Z
- >
Ġcur rency
ĠForm at
Ġtrans lation
Ġ"" .
CO MM
dict s
D en
I R
Ġdate s
exec utor
de coder
Con d
V olume
Ġo l
num eric
non ce
dic ator
_ ):
LI C
relation ship
Ġin ject
activ ate
L ib
Ġ er
Ġto k
que e
Ġraise s
Ġpol y
Ġb ra
Ġexample s
d ating
Ġbo ok
ex cept
Ġspecify ing
Ġinteg ers
in x
Ġb asis
_ [
he alth
Ġr gb
ci pal
mark up
H ist
od b
ins pect
shape s
2 000
C opy
P attern
Ġc ategories
Ġhash lib
+ "
Ġth ings
Er r
W riter
g as
J son
Ġl s
Ġpk t
s ix
ub er
Ġcan vas
UN K
sertion Error
R aw
Ġc ancel
art ist
": "
Ġro om
ĠP Y
ash board
Act ive
ser ted
Ġwh ite
work ing
LO AD
ang les
sel ine
ĠPar ameter
Ġ', '.
Ġe cho
Ġ1 3
comple ted
Dis play
' m
UR CE
re moved
R AN
Ġfor ms
su me
res olution
DE N
Ġ{ !
ĠP ri
ĠM ark
STAT US
Ġf ront
d ry
m ongo
cu it
Ġlat itude
Co mple
ĠDe lete
may be
j i
g id
Ġc s
initial izer
k v
lit ude
OP TION
m ts
n m
Ġformat s
obj s
Ġde tail
Ġhy per
T P
P e
Ġlog ical
W ord
in ator
data sets
LA B
Ġc riteria
Ġact ivity
H o
ĠP ass
cal ar
min or
UT F
ĠU sed
Ġsub parsers
Ġcomp arison
call y
Ġin struction
Ġr ather
Ġ"{} "
Ġta ken
Ġacce pted
C D
mo use
AD D
Ġper m
pri v
Ġ'- '
Ġg ithub
sub plot
writ ten
Ġdi v
sec ure
mar ket
? ?
ne gative
Lo ader
Clo ud
ch art
ĠWe b
Ġen crypted
t ls
SS AGE
Ġdetect ed
B it
G IN
ĠE X
` ):
Ġa m
Bin ary
he st
At tr
M ake
Ġl c
reg ular
Ġper formed
mat ched
Ġtest ing
normal ized
gg le
Ġc atch
Ġc ipher
ach ine
Inter val
(', ')
HO ST
us r
Ġdepend ing
Ġcalcul ation
evalu ate
1 01
in formation
M C
ĠSe arch
Ġiter tools
Ġbl ue
U nsupported
ct rl
ri ces
Ġro les
ĠS ign
ĠE nsure
ss ib
qui ck
G A
cap acity
} ")
im al
su med
Ġcomb ined
az ard
stru ctions
sub scribe
AC T
PO INT
Valid ationError
o perand
ĠTemp late
y e
Ġre start
Ġsimp ly
t ice
Ġdat atype
Reg ion
Tag s
F loat
h ot
Ġw ave
TO KEN
ĠIP v
St ats
(' "
art beat
Ġreg ions
G P
He ight
Ġqu eries
ip y
> ,
er ation
def ine
vel ength
âĶĢ âĶĢ
A ML
n or
er ce
ar ing
le arning
Ġa ux
Ġimp orted
Ġ{ :
" }
Ġt en
Ġde bu
Ġa ws
sub scription
/ .
g ing
ac quire
Ġass ignment
pix els
ten ant
Lo op
re quires
ĠT ake
Ġident ify
. '''
b lank
m n
per son
func s
initial ized
ĠF e
Ġin herit
ĠN etwork
T AG
n ick
en otype
Ġg p
Ġro ll
out e
format ted
Reg ister
Data base
Ġexact ly
z a
Ġnote book
={ "
mt ree
: ].
T F
Ġ' $
li very
Ġfin ish
iv ing
update s
Ġp mag
Ġoffset s
Ġle af
Ġactiv ation
ul ative
Ġtri m
Ġla b
0 33
En coder
Ġcon firm
the me
Ġiss ues
N et
Ġ2 56
Date Time
Ġpan el
w cs
Ġu su
samp ling
9 3
9 2
b ri
Ġsh ard
Ġw alk
Ġto gether
custom er
Ġtw ilio
app a
p ur
re cursive
Ġc t
Ġch at
Su ccess
Ġo per
min utes
Ġac c
Ġ quiet
Ġin crement
Ġx s
Ġob served
Ġreplace d
Gener ate
ĠS ource
sv g
Ġinter vals
rece ive
F IN
lin space
l arge
v p
in ct
ur ther
ĠU N
(" '
Ġo perand
len s
gradi ent
P ix
note book
S up
Fla g
4 1
Ġ[ %
Ġtemplate s
Ġmap s
S top
diffe rence
str ptime
quee ze
speci es
k lass
Con struct
Ġwait ing
voc ation
Ġf i
: {
P ackage
Ġ2 5
Ġcompat ibility
ĠP ol
Ġ"" :
: ]:
f tp
go ing
e ta
Ġr hs
sc atter
h its
Ġstate ments
data frame
Ġext ended
Ġexec utor
M Q
fra ction
Ġcoe fficients
Ġtry ing
s lots
se udo
sub set
Ġe c
ak er
tw o
dis abled
mo us
In it
vid ers
gen ome
cla red
curren ce
Ġ' (
st ation
Ġw orld
Ġan chor
Ġde sign
re lu
Ġ" #
ĠD on
Ġsignal s
ĠSer ies
ci pher
Serial ize
Ġinterpol ation
co un
]) ]
im ing
map ped
com bo
Ġder ived
COL OR
char ge
Ġbo ard
unic ate
Ġhour s
T otal
Ġs q
inter section
ar row
Ġp p
ren derer
, **
ç Ķ
ans wer
Ġbase name
En ter
place holder
G RO
DE D
Ġsen ding
Ġ{} :
Ġa ge
ĠX XX
Ġb lack
init y
ce il
Ġkey id
iter ation
Ġw on
ĠS up
Ġro uting
Element s
Ġsim ulation
l ations
Ġh uman
ĠS tore
ĠP h
/ ',
un ded
syn tax
Ġca pture
Un expected
Ġbind ing
utc now
ĠSpeci fi
ĠW ill
b ing
ĠG ET
Ġobject ive
Ġcom ma
C or
ut ine
] )))
Bo ol
vent ion
pt ide
Ġsu c
Ġgen ome
) ._
se qu
Ġf lush
Ġre peat
Ġbegin ning
c mp
ai lab
ĠSt ream
Ġdi ms
ĠQt Core
fast q
ĠI s
Pre fix
e ch
k m
ma v
ĠV M
clean up
AN CE
sm all
+ +
Fail ure
me ga
temp erature
boot strap
Ġre pe
] {
attach ment
ad ow
pro bab
ri ch
l ar
h at
Ġ5 00
R ate
b gp
pro blem
Set s
Ġc ss
Ġapp s
Ġar c
account s
Ġwrit ing
Ġpre dictions
C ho
I ME
Ġglobal s
Ġdig its
w ers
Ġgener ic
={} ):
ĠAs sertionError
=' %
r split
tr unc
widget s
}: {
Ġch art
Ġi r
Ġn an
state ments
Ġhand led
lat itude
un ct
Den ied
Ġp df
per form
ass oci
") [
To String
S pace
re ferences
an te
Ġgo ing
h int
dis connect
TIME OUT
art ifact
Ġnew line
C ATE
g ence
Ġd ct
bacter ium
D im
me ans
Ġcomp utation
v rf
vi ded
read lines
Ġlog ic
al ette
ph one
run s
AR D
Ġcl usters
re trie
ut ype
ck s
ma pp
Ġz oom
() ['
ĠT ran
vance d
10 24
Ġc od
ud y
t in
x b
Ġs ilent
() ``
arg er
led ge
Ġm icro
Ġapp lic
U sage
("" )
vis or
Ġda emon
Ġestim ate
alan cer
la ys
ctype s
ex act
ver bosity
ĠIn stance
Ġ1 28
TEMP LATE
ĠA ct
ĠM in
Ġme t
ci al
Ġz er
allen ge
re present
ĠD ec
Ġurl parse
inter vals
se en
Ġre ally
ĠIn st
n ado
Ġpass ing
R PC
Ġb p
work space
leg al
B ACK
s cheduler
Ġpa gin
Ġver b
T ab
Me mory
Ġcorrect ly
O D
RE QUEST
Ġd l
vari ants
5 1
. /
Ġin strument
with out
qual ity
P P
Ġcon s
Ġch r
Ġcomp iler
8 3
Ġtrans late
ra vel
con s
Ġin verse
Ġrun ner
Desc riptor
d y
x c
vo ked
c annot
ĠS kip
ex change
Ġm k
ĠM ay
ĠPO ST
il ename
ta ke
Ġspecifi es
__ '):
ld p
Ġc m
Ġat trib
style s
art icle
pr in
qu eries
match ing
Ġmu ch
d k
Ġf ully
St at
E num
inter p
( ("
tri m
Ġscal ing
at al
co okies
ĠA b
Ġc id
ĠS p
ĠR o
B C
Ġext end
Ġpro blems
CO MP
Ġappro xim
= ('
L ast
Ġre tries
w ind
Ġ{} \
At tributes
ĠAl low
mp aign
Ġlength s
ĠKey boardInterrupt
Ġac ross
Ġdir name
S ocket
vid ence
SO URCE
Ġ( `
Ġon to
de limiter
Ġg zip
pre view
Ġcer tain
L en
d id
Ġh alf
min ute
v d
} ",
Ġhist ogram
ig hest
RE F
Ġprevious ly
e ig
iter ations
( """
X Y
Ġoptim izer
Contro ller
in ations
Ġc rypto
dic ates
[ [
Ġf oo
co in
re start
Ġnot ify
Tran saction
' ve
Ġto ler
Ġla unch
OL D
Ġma jor
Ġchar set
ut ures
Ġco verage
Ġexp anded
Ġs r
str ategy
Ġlocal ctx
ĠD ist
Ġm andatory
oc us
Ġunder lying
c riteria
Sh ape
ailab ility
N on
ed u
Ġe t
Ġpro b
im ize
R UN
om y
am ing
Ġbu g
compat ible
W E
`` :
ĠB ad
Qt Core
os ome
x lim
__ ',
as ked
Ġreplace ment
Ġs in
Ġmin or
Clo se
Ġproper ly
B L
qu ad
LI B
tz info
m v
C he
r ations
Ġt un
Ġre levant
der iv
cla use
deg ree
request ed
Ġmo ment
spac ing
lo red
part itions
ĠSe ssion
Ġ{ {
x F
Ġ â
Ġto l
ĠIter able
Ġinter faces
ass ignment
LA Y
Ġneighb ors
Ð µ
Ġo cc
v ailable
Ġa ff
el low
ĠConfig uration
y lim
Ġat tached
Ġa ble
te ll
ĠP lot
Ġwh itespace
ĠL AT
bind ings
+ ',
ĠPro ject
Ġvert ical
TE S
ĠD jango
R F
le ting
Ġb rowser
ĠKey word
cul ar
Pa rent
Ex pr
speci al
Ġattach ment
ĠSM ALL
r aries
Ġcho sen
S kip
ony mous
7 1
Co ord
From String
æķ °
ĠV ariable
err Handler
Ġclean up
SH A
ĠE nd
cre ation
Ġqu ality
> ')
Ġf id
F LAGS
Ġb alance
ac ce
8 1
F OR
lo bs
Ġal iases
"] ))
prefix es
Al low
Ġcho ose
TER N
ĠCol or
w sgi
29 5
D L
Ġf fi
Ġs ites
Ð °
å ħ
Ġe mit
client s
Ġsub mit
bro adcast
ER S
serial ized
IG HT
ĠCh ange
riend ly
Ð ¾
Ġf c
S ection
ĠG it
66 66
SER VER
le ts
eric a
Ġf type
qu antity
return code
CH AR
m or
Con s
Ġdepend s
Ġ" [
Ġappe ar
H ttp
Ġ und
Ġpro g
Con v
Ġdeg ree
re ctions
ĠG tk
pk t
Ġpol l
Comp ute
N C
KE T
par allel
ĠS c
C md
ada pt
import s
F older
get value
CH AN
A V
mapp ings
: ')
E s
W ait
Ġneighb or
TE ST
) ``
int o
Ġex change
Ġso ft
Ġt p
end points
M ask
Ġcallback s
Ġi i
file obj
Ġcomple tion
ipe line
activ ation
c amera
Ġ ke
Ġin s
Ġbe come
sist ency
4 29
a ir
Ġmeasure ment
Ġp lots
S B
Ġa ffect
to k
Ġco v
' ^
start ing
SP ACE
optim izer
Ġtra iling
SE S
Ġimmediate ly
response s
mas ked
J o
on gs
ĠE ither
Ġat oms
B ound
g res
. +
V EL
in strument
pa y
] "
Ġr r
ĠM O
--- +
Sign al
Ġ4 00
ct est
ĠU p
ĠA pi
Ġre name
th ers
dir ty
ust ed
Ġd c
Ġd ummy
pre dicate
ĠLAT IN
ĠBo olean
Ġh dr
Re port
ĠAdd ress
ch dir
group by
Ġlist ener
up s
direct ories
S im
! "
Ġcomp ressed
Ġvari ance
Ġcut off
int f
Ġpro j
Ġget ting
Ġsepar ated
ta int
ann ing
Ġend s
Ġ' \\
Author ization
comp osition
b n
pe g
call er
dat atype
hy per
over flow
Ġa gg
Re quired
reg istered
Ġdecor ated
Ġover rid
ING S
vi e
LE NG
Ġeps ilon
R andom
len ame
pro d
99 9
Ġerr no
long itude
Ġindic ate
C luster
Ġspeci es
run e
expi res
Ġb s
depend ency
æ Ī
O perator
arg parse
as sessment
plan e
å ¤
ad j
ri gin
Ġr m
po licies
? ',
Pass word
al o
ĠCon text
rot ation
jo urnal
Ġfont size
l and
G O
ĠClo ud
r mtree
5 12
iz able
Ġdown loaded
pa yment
Ġal loc
hist ogram
Ġr and
Ġpers on
project ion
Ġn a
Ġle arning
ĠMax imum
LENG TH
N V
b ut
ã Ģ
T ABLE
e qu
Ġp ot
Ġ8 0
e ach
ext ent
ma ker
Ġcontain ed
xt ick
Ġ3 1
Ġwork ers
un used
xy z
ph an
CRE ATE
ro uting
() `
Ġph one
ĠI SO
Ġbro adcast
domain s
IT S
Ġp f
Se gment
Ġcor relation
b f
an chor
ma ils
we st
Ġpos itional
Ġpop ulation
Ġstr ategy
Ġco pied
Ġc rop
HT ML
ext ended
da pt
width s
Ġwork space
SIG N
c andidates
ul us
ert ificate
o ct
Ġ' ').
RE G
~~ ~~
w o
te m
w allet
Ġexp onent
z ed
Ġt ic
ĠR O
h d
Ġf urther
l ator
Ġs i
Ġme di
ĠQ ueue
Run ning
ac ked
g c
Ġf l
Ġo auth
pre diction
g i
Ġh ard
Ġma il
Ġ': '
Ġor ientation
ä º
Create s
m f
t ot
ĠCon st
percent age
in crement
My co
helper s
State ment
author ization
Ġ[] ):
Ġoccur red
Tra ck
su do
L U
ud ent
Ġv lan
has hes
B ER
M od
Ġs quare
dest roy
1 00000
m ysql
Ġr pc
TI FI
} -
Ġd ns
Ġclient s
bot o
A rea
Ġp print
Ġst ar
Ġg ap
) ['
ĠS H
L T
pro vision
idx s
bit rary
col lections
DI S
Ġhigh er
Ġiter ate
Ġwindow s
Ġp db
let ter
Ġplan e
Set ting
Get s
n ers
ME SSAGE
Ġ---- --
ĠC or
ac ket
bet ween
Ġto do
ĠP ost
en cryption
inter pre
Ġprocess or
(': ')
In ternal
Node s
Ġ" (
ri er
ak ing
ob servation
-- +
au x
ĠPo int
flo or
C G
R U
n ed
ĠL O
ep isode
comp ound
lo pen
Time stamp
contain ers
g ain
RE CT
Ġaltern ative
name spaces
Ġnon ce
Ġc um
as ing
Lo gin
ĠT Type
Ġorder ing
Ġman ually
Ġre ached
rel ations
volume s
Ġma gnitude
ĠN ULL
ĠDe termine
seq s
ĠDe f
Ġav g
Ġout er
AT URE
AC TION
C CESS
Ġpri v
il la
Ġstream s
Ġdocument s
Ġre comm
ang ing
en crypt
' +
Ġc d
tod o
\ .
velo pe
= ["
as yn
Ġl arger
ĠM y
Ġcan onical
Ġf its
Ġd ag
Ġ( ``
non zero
ssib ly
Ġs heet
Ġname spaces
app ings
Cre ating
G o
re store
Ġk ill
Ġ4 0
e gg
Ġh aving
ĠEn vironment
Ġ ser
Ġn c
aggreg ate
re load
Ġt k
Ġst uff
cal cul
Ġe lapsed
ur b
Ġ[ ('
Ġos id
Ġcomp ound
Ġc n
Ġne g
Ġfa ke
Do main
in file
fe at
ĠO N
Size Policy
Ġat tempts
comp ression
Ġmin ion
E qual
Ġde epcopy
bound ary
is nan
Ġren dered
ĠSer ial
}. {
m and
pe x
Ġsh utit
comm unicate
Ġs l
con j
Ġfloat s
Ġadd s
Column s
PA SS
Ġle ading
Ġli ve
v cs
i ate
le ast
xt ure
C ap
la x
Ġpredict ed
a o
c atch
C ells
r ated
Ġ# ##
pa red
12 3
mode s
Ġevalu ation
) ?
le tes
ch anism
ĠR etrieve
EV ENT
S yn
Ġt c
x ff
Ġ1 7
Ġfil led
h ardware
Ġf rozen
Ġhand les
Ex ample
tra de
Ġoption ally
Ġco li
Ġt tl
Ġ1 8
po ssible
pa cked
period s
c rop
la zy
qu ared
filen o
ĠPermission Denied
sc ene
Ġso up
Ġf rag
estim ator
Ġw saction
Ġretrie ved
Ġsmall er
ri pts
ich ia
AP P
decor ator
cher ichia
mo dify
ĠP RO
Serialize ToString
v ectors
Ġd p
Ġ4 04
TH ON
can onical
ĠRe quired
Le ft
Ġn l
=" {
Ġmark ers
in ux
Ġre store
mp ath
Ġserver s
lex er
Or deredDict
Id x
Ġde coder
Ġnot es
Hel p
u g
measure ment
Ġl n
CO UNT
å Ľ
Ġm argin
Ġcont ig
Ġin terest
Ġzer os
h df
info s
over write
yn omial
MA GE
Ġten ant
Es cherichia
k b
Ġren derer
b ulk
h ub
} _
QUI RED
ĠP ub
IL D
or al
Ġsub mission
Ġdo ing
ĠAdd s
Point s
C UR
in et
Ġb r
or n
Ġ" *
el ta
LE VEL
Ġdetermin ed
B ody
in ject
AN T
Ġestim ated
specifi ed
f olders
rel path
Ġf lu
to pology
Rece ived
n om
ĠT arget
Ġform ula
at tempts
cipi ents
per sist
s mooth
mg r
authentic ated
, ,
T e
i ence
at ar
or ientation
ĠN AME
Me mber
ct ime
Ġme th
amb da
Ġaggreg ate
me as
co vered
ĠA ccess
ĠK E
An alysis
conver ter
__ ),
signal s
C M
riter ion
at ched
qu bits
pro bs
49 67
Ġsp in
Ġexpression s
Ġart icle
Ġnum er
over lay
illi seconds
Ġto ols
TR AN
Ġplace holder
ĠS chema
IN DEX
Ġmin ute
æ Ĺ
ĠC ustom
Ġ\ '
Se curity
Ġo thers
RE E
Ġproject s
limit ed
out dir
s olve
Ġde scribe
S izer
ĠN aN
Ġde ad
Ġcustom er
I mp
Ġpre serve
ump tion
uto ol
p f
ĠString IO
fa c
Co unter
Ġres olver
ĠMA X
.. /
('. ',
char set
Sp lit
log its
P RI
Ġf all
el se
ĠN ormal
port al
Ġiter items
ĠDesc ription
Ġqu ad
ce eded
ĠAdd itional
second ary
* ',
Ġe q
Ġl iteral
En coding
) })
S N
De st
Ġdisplay ed
G HT
Ġst ation
Ġre ject
WOR K
as sets
ĠM ag
`` )
, %
O FF
g al
è ®
Ġun used
As set
Ġboot strap
ĠDoc ument
de veloper
check point
ri bution
Ġconfig s
tran sactions
ma inder
title s
Ġup grade
ren gth
out come
Se q
stit ute
Ġre pos
ta iled
quest ions
scal ing
b atches
Ġex cluded
5 00000
Ġk m
Ġoverride s
ĠS ince
Ġun able
ĠTh read
List Type
box es
go od
d h
Ac cept
P r
Ġ( [
sub parsers
Ġrequire ment
high light
1 0000
Ġc f
up grade
ĠM apping
t bl
ĠA nd
Object s
Ġ' ?
Ġ( {})
'] =
Ġen cryption
Name space
Ġpercent age
an cy
(" .")
Ġsh utdown
Ġde ps
Ġco variance
) `
er ance
ĠRe cord
sequ ent
U sing
b uted
Ġip v
i loc
å ®
lap se
G lobal
ĠV AL
Ġexpi res
T ry
Ġma king
n ic
w ho
scope s
} `
h alf
Ke ep
Ext ension
F in
Myco bacterium
ĠS imple
construct or
u it
Ġ' &
Ġis o
pop ulation
Tran sport
ĠHow ever
R ad
iso format
Ġl d
re cognized
pa gin
req s
R ight
ĠC opy
ĠL abel
on ic
Ġsu ggest
b old
i pt
v y
ca pture
org anization
m ix
de serializer
ther net
Ġconver ter
G R
la g
Ġlog ged
new axis
al ert
ine ss
t ions
Ġr h
=[ ]
Qt Gui
Ġtoler ance
Ġin p
ĠDe vice
pub lished
.... ....
Ġsyn chronous
De codeError
Ġda e
che cked
== =
tod ay
u z
Ġg as
Ġindex ed
qu it
ĠS SL
Ġn or
get env
Ġco lour
cre ts
Ġdeploy ment
I p
h ierarchy
Ġin tern
Ġen c
Ġtrans formed
s queeze
Ġtrans formation
Ġcon sistent
UR N
ĠGener ated
Ġbro ker
Ġal ert
Ġw ind
Ġ[ _
log file
Ġle ave
th ro
Ġpa yment
Con f
Ġ-- -
Ax is
id le
Ġclean ed
N X
S R
NO WN
Ġx path
(' __
4967 295
* \
M AC
] ')
Ġf ew
ĠO K
A I
-+-+-+-+ -+-+-+-+
G RA
A X
al es
Ġin coming
need s
çĶ ¨
P ush
sp y
real path
or a
---- -
li ck
NO DE
> =
W rit
ĠSe lect
UL TI
Ġclo sing
ĠDE BUG
N ULL
oc kets
sn mp
Ġto pology
z A
b all
P R
p du
w id
re cipe
at tention
li g
Ġmodifi cation
b c
g rp
Field s
alle le
Ġ"/ "
ol ing
us ion
start s
ĠH el
; \
d uplicate
ĠT ri
Com ment
ype s
Ġcheck point
"] ),
GRO UP
C MD
Ġp w
Ġgener ation
trans lation
Speci fi
Ġn r
sh ake
dimension al
Ġs cheduler
one y
Ġch an
Ġclass ification
ĠData set
Ġlike ly
al tern
ian a
I B
lo y
form ula
by ref
coun tered
pri se
Ġfla sk
V irtual
k y
il ine
h params
Ð ¸
stri de
St re
de grees
ĠP AT
Ġ lif
Ġp c
it able
ĠGet s
f coe
Pro vider
D raw
ar ante
pa gate
M achine
gn c
tx n
Ġf w
ul ary
Ġw ildcard
b on
Ġpress ure
c rc
Ġt reat
Ġth resh
Ġvalid ated
Ġprovi des
anit ize
Ġw allet
Ġst and
ĠU sage
tes ian
Ġopen ed
å Ń
c df
ĠP art
Ġfile obj
IN E
q os
scal ed
ĠC om
im uth
b ranches
Ġt au
Event s
PRO TO
Ġm ouse
AS H
Ġg reen
MS G
la unch
in str
Pro to
Ġperform ance
Ġgate way
{ '
Ġredu ced
Ġlet ter
d ropout
Ġcon fidence
Re direct
RE SS
pri me
Ġc amera
Ġh ide
ĠRe ferences
ĠS IGN
D river
Ġm er
qu is
Ġsub sp
bro ker
d ro
ar ound
extra s
class ification
g uid
r up
(" #
session s
out s
Ġcomp iled
ĠM ult
Ġx max
sup ports
asc ript
pro of
au g
Ġop code
Ġtran script
NO RE
Ġ" :
de cl
Ġi de
write Field
author ized
sd k
Sign ature
B LOCK
[' --
Ġ\ "
Gen us
al chemy
sh utit
IN ET
AL I
18 0
Ġd om
ra b
' ``
an sion
ĠI mplemented
Ġro utes
ĠValid ate
C ATION
ĠCheck s
Ġfast a
u c
Ġprin ted
Ġlist ed
CLA SS
Lo okup
Ġinitial ization
Ġj ump
u v
pro tected
n at
Ġdef ines
Ġskip ped
Ġacce pts
S imple
è ¡
wh itespace
Ġen crypt
g uess
or ator
is digit
iv ot
Ġwe ighted
O perations
x min
Ġp en
conf lict
ol ding
Er p
iss uer
merge d
Ġusu ally
se cs
Ġm m
ne eded
ĠOr der
Ġalle le
ĠE d
Ġcode cs
Ġvolume s
Z one
it ect
"] ]
EN V
Ġdistance s
let ion
precation Warning
k o
Ġi l
wh at
sens us
pal ette
M IT
ĠCo mm
cp us
eps ilon
im ation
AR CH
in fer
Ġse ct
not ation
Ġwidget s
F UN
Ġs g
Ġr x
ic les
pa g
ME TH
Ġhigh light
Ġvari ants
Content s
d up
z ure
Ġac cum
sw ap
429 4967295
ĠN um
p od
Ġ utool
Ġh ad
Ġun expected
comp ose
we ep
O pt
th rough
Ġpro tein
ĠN ull
Key Error
cred s
, :]
de ad
Ġde ep
m r
s park
er as
re cur
per ms
TI CAL
Se lection
TR Y
Ġme dian
Ġext ent
reg istration
Ġestim ator
override s
retrie ve
fun ctools
sto ck
in verse
ĠPer form
S n
Ġ1 80
(_ ("
Ġcomb ine
M ag
Pro gress
ĠJ ob
Ġplot ting
En able
" +
[' __
Tra ce
T L
Ġc mp
pro tein
End point
T here
v oice
cal ibration
Ġk v
Ġpol ygon
Ġde al
F D
v x
Ġt rial
ar p
Ġm appings
rece iver
Ġthe me
Ġal phabet
fore ign
Ġqu antity
P op
Ġembed ding
B IN
S UP
Ġh its
ach ing
over lap
en crypted
num s
ĠNot Found
coe ffs
Ġre served
Ġfile system
Ġfe at
l hs
ut ron
ph ysical
Ġfilter ing
A lt
I X
[ ...,
x FF
Ġv cf
Ġp alette
ab c
exp onent
b ian
Ġr id
s am
Ġp b
av ascript
cent ers
Ġspect rum
Ġsever al
Ġre load
Ġb ulk
(' >
mp y
Ġre action
ph oto
C ategory
MA IN
Ġcla use
sli ces
SU CCESS
b id
Ġ license
Re mote
ĠS Y
Ġdescri bed
de claration
ig ure
fig size
e lapsed
Ġfun ctools
N ONE
ĠO PTION
Execution Error
g iven
Ġset method
Ġent erica
Ġsu do
ific ant
HO ME
thumb nail
su ite
auth entication
cer ts
Ġmap per
y ield
st ub
an za
Ġbound ing
201 8
F etch
og en
B asic
Ġ'' ))
{} ,
cul ates
Ġwh y
Ġcoe fficient
/{} /
b d
Ġs ink
um ing
ĠB in
a fe
b asis
Ġt ries
ĠI mp
Ġhe at
tra cker
Ġl it
E E
in o
st able
vis ual
e per
x i
1 12
ĠC PU
sc r
contin ue
Ġas c
LE N
Ġpart itions
Ġuni form
! =
ĠValue s
Serial izer
y ml
pro files
Ġenum s
Ġn ick
Ġin file
et s
lin ux
Ġformat ting
embed ding
ĠSpeci fy
w as
File Name
loc ator
mut ations
Ġ' @
Ġd uplicates
ang ular
DO WN
ĠStr uct
samp ler
ve y
(' ',
fact ors
l m
net loc
P ower
f allback
Ġf ire
top ics
Ġvisit ed
Y PE
Ġm iddle
Ġh ack
Ġm asked
LE S
Ġread able
Ġc lock
ĠM E
Ġnormal ization
Ġcap acity
OPTION S
pe m
ĠApp ly
C LO
g zip
s ilent
æ ĺ
Ġ` %
ĠD own
Ġlin ked
Ġb ank
Ġh old
fa ke
Ġca re
MA IL
+ =
li sion
Group s
Ġd ic
block ing
] \
Ġshort cut
!! !!
w k
at tempt
to o
tra ffic
Ġne arest
velo p
c redential
o per
ab ort
hand led
De cimal
F it
in p
ĠI S
fe e
Ġob servations
hel lo
D ay
ĠP age
Rece ive
F actor
ced ure
Ab stract
RO W
( {})
ID s
w heel
{} .
Ġprodu ce
st roke
ver b
comb ine
i et
et ched
ĠIn teger
Ġdis p
API TAL
Ġ[{ '
Ġdo ctest
ĠTh en
right ness
now ledge
T c
Ġle arn
posit ive
' ",
v pc
Config ure
Ġf requencies
Ġco res
ĠC SV
l la
s ci
w l
Ã ©
de crypt
ĠT er
2 00000
[ \
Reg istry
ĠU sing
LE FT
CLI ENT
9 1
h op
Ġre cipient
ĠU TC
Ġrece iver
LIN K
t reat
Ġa ck
args pec
scri ber
Ġ`` (
clo sing
N ow
in dicator
Ġcor pus
Ġh orizontal
Ġsecond ary
Ġkw arg
mav link
. :
al ways
Ġd w
qu id
ci p
Ġadd ition
ĠJ o
lastic search
Ġdef er
ĠC APITAL
Ġpa y
spa wn
doc string
cmd s
Ġf our
ĠE C
Ġsamp ler
z mq
Ġb ed
3 00000
)) ):
Ch ain
ĠCon nect
gn oring
æĸ ĩ
t id
Ñ Ĥ
mat plotlib
re m
Ġend points
Not ification
Ġvol tage
Ġb c
ĠH E
En vironment
ĠW ith
Ġlike lihood
V ari
] /
f type
Ġra ster
Ġinter section
ĠTime out
8 00000
R GB
Ġf ar
Ġin dependent
CO D
radi ans
a res
en dian
read able
Ġar bitrary
Ġv ox
> ",
P M
i mag
Ġin voke
Ġb ranches
Ġcal endar
lev ation
r at
ol ation
ĠT H
ĠS N
ĠCh annel
Const raint
Ġsat is
____ ____
Ġs olve
ĠA ction
ĠMA V
ma gs
SE TT
h n
Ġhe alth
Ġun ion
Ġvi rus
TO DO
exp iration
ĠSt atus
Ġpie ce
> %
s f
ä ½
Ġc e
ul ations
O b
Ġre cipe
ame l
Ġtx n
iz ations
Ġla zy
Ġoc curs
rot ate
String IO
Ġvari ous
ĠLoc al
Ġ ;
co ped
h ape
o a
if s
mo ment
cal endar
W H
ç »
ĠS u
Auth entication
sp h
ĠW rap
Ġimport s
multip lier
per f
pa use
ER Y
ĠCon tro
ret code
Ġdescri bing
Ġderiv ative
D T
d ent
Ġsee ms
Ġclose st
ro gram
Name d
coe ff
Ġexpi red
al ty
'] }
itor ies
SI S
PAR AM
Z ip
ĠS ample
su res
CON NE
Ġequ ation
ĠC F
comp act
Ġimp licit
al bum
jac ency
C alled
H ub
] ]:
ĠB Y
> '.
Ġin str
Ġ" ."
code c
Ġat t
mark ers
ven ience
Ġb b
Ġinter active
A dapter
Ġm i
6 00000
Ġin crease
Ġcon trib
el t
ĠAc count
ancest or
o sed
u dio
me ter
'] ).
F irst
T K
av ig
Ġlook s
re ject
Create d
wait ing
Ġcorrespon ds
Start ing
Row s
j ump
root s
Ġh ighest
{} ]
Ġcomb ination
ĠS yntaxError
Ġres ize
Ġreg istration
E mail
from timestamp
DI RECT
Ġ' '),
ĠV iew
, \
Ġif ace
Ġr ng
RE AM
sql ite
Ar g
Cond ition
M ust
r hs
Ġph ysical
Ġme mo
ff e
Window s
Ġc redential
id er
AR K
Ġin serted
Ġ" $
Ġac curacy
optim ize
S PE
Ġex posure
P ers
ill ing
Pub lic
ven ance
i am
Ġcontain ers
Ġscope s
Ġident ical
Ġt ot
Ġb old
Ġy max
Ġ'_ '
Ġp ys
read ing
Che cked
9 00000
C ase
ra pping
Ġmat rices
trans itions
Ġprefix es
f b
con version
Ġca ption
peri ments
Ġoptim ization
Ex ists
Pa ir
Ġrepresen ted
/ <
ĠKE Y
ist ed
Ġpar s
C y
ĠS SH
Ġsql ite
CHE CK
us ic
... )
check er
ĠReg ister
Mult iple
Ġ` ~
{} "
{} \
7 00000
valid ators
disc ard
iet f
Ġfast er
Ter min
vis ions
termin ate
Ġve locity
YANG ListType
Temp orary
separ ated
******** ********
R a
et ree
Ġ'{}' ".
class name
mark s
N ET
Ġg rouped
Ġsp atial
Ġexp iration
By te
>` _
m ical
GE X
ident ifiers
= __
al go
Ġre cursively
IN ST
) [-
n ost
ĠU P
Ġscal ed
Ġmulti processing
OUT PUT
W D
c rit
ĠRe place
Ġdid n
ra ction
ang er
ata ble
Ġl hs
po ses
process ors
L AN
S chedule
Ġt i
Ġtmp l
Ġgu arante
Ter m
de sign
="" ):
ĠDis play
W IN
Ġfollow s
HTTP Error
cal ib
language s
Ġsli ces
ĠRe ference
find er
Ġorg anization
Ge ometry
ĠSystem Exit
[ ~
=' ')
Bu cket
e in
ent ropy
fi ler
view er
Ġspe cs
am ent
ĠS P
coe f
Ġs ong
add Handler
script ors
Ġasynchronous ly
S ync
and s
config ured
Ġrecord ing
LO B
Ġauthentic ate
p illar
o prot
x p
Ġse ns
") ]
sub plots
EN CE
Ġsc ene
tun nel
in el
Ġg ives
Ġident ifiers
04 8
s ink
Ġt d
Ġcon vention
M ULTI
an ity
mm ar
De tails
ĠM atch
sc p
ME TA
H as
L P
ren ces
RE NT
tran script
g w
Ġsc ripts
Ġt t
vi rus
cap abilities
Ġb i
sub type
ĠY ield
E W
S ite
op le
F ilename
S to
u li
Ġs pi
Ġxml ns
R S
ist ype
pre dictions
Ġso ap
ĠA mazon
Ġv a
Ġpre ferred
Ġsh uffle
ifi es
from string
temp ting
Mo ve
Ġthumb nail
h ave
fa b
ome ga
MB OL
m ant
ne arest
e a
Ġpa st
Ġa data
ver ted
Ġas k
Ġse ss
ĠNe ed
h w
Ġimport lib
Ġep isode
ãĢ Ĥ
F ull
ca ption
ĠO Auth
Ġobj s
cor pus
Ġmean ing
ĠDo es
built in
A WS
p otential
ce pts
Ġaggreg ation
( .*
Ġr d
tri ggered
en g
Ġp ul
Cal culate
d ummy
ĠD ep
lib s
Ġdebu gging
L ines
d T
w ire
un link
Ġco okies
ĠW ait
19 2
Metri c
local ctx
Ġh du
Ġclass ifier
Ġin fer
lin ked
comp liance
writ ing
Ġmac ro
probab ility
Ġzip file
Ġapp lies
Pro duct
Ġhapp ens
D V
il de
is ing
sub s
tol erance
arg inal
Valid ate
Label s
Ġe le
ĠEx p
Ġmime type
Ġsq rt
F LA
Ġa io
hand les
pop ulate
network s
ORD ER
namespace d
Inst all
lo ok
D es
Ġs low
Ġtor nado
v endor
sh uffle
ĠE RR
Ġextra s
IG NORE
cla re
i ri
Pri ce
new line
SER T
r ates
Ġ-- >
U UID
Ġas sets
()) [
I t
f m
ĠC IM
bre viation
S cale
Ġt m
ĠM on
Ġmar ked
L ANG
Ġh int
manage ment
Ġ... ,
Ġaccount s
Ġevalu ated
nor mpath
I MAGE
Ġv max
tri ct
ĠPro tocol
Bo olean
Ut ils
R M
po w
pos al
H H
an ted
Ġf olders
ĠA SC
an a
Ġre moving
ĠB it
black list
G ate
b oth
CRE T
" ',
Ġdi alect
pre p
queue s
ass igned
ob served
re versed
Ġsub sequent
W T
f rozen
Ġfig size
) ==
ĠV ER
rf c
é Ģ
SE D
fra g
q t
{} _
Ġcorrespon d
tra j
Ġge om
Ġas pect
Ġimport ant
schema s
medi ator
C a
ĠM odule
split s
ĠY AML
ĠS ort
Uni code
4 00000
re action
Ġl p
ĠE l
Ġover la
ĠURL s
T r
Ġm ol
Ġan n
final ize
cred it
B ot
` ).
Ġsw ap
Ġn dim
] ")
Ġi v
kw arg
Ġx min
grid Layout
Ġ quick
et ime
oc c
St atic
band s
Max imum
C ancel
p lt
ch i
Ġa mb
Ġup dating
etrie ves
S W
Ġf lip
Ġl b
ig ma
gener ators
M AN
Ġar row
alys istype
ĠL ay
Ar t
e th
l bl
R T
ĠC H
Ġle d
d ct
sub mission
He aders
DO C
ĠRa ise
i face
ĠSh ow
p ct
s cipy
Ġs b
white list
in struction
ph inx
Ġtransform er
Q A
le st
go v
ĠCommand ExecutionError
week day
Ð ½
stack overflow
taint y
e lect
re cent
ced ence
(_ ('
Ġview er
los is
ro me
ta bs
ĠA N
=' \
ph ot
SER VICE
i co
re ports
ra sh
Ġhas hes
work dir
ide o
= (),
ex clusive
if ts
uber cu
A ng
Ġre ward
ĠN on
Ġapp ended
R ON
j inja
Ġblock ing
tic ket
ubercu losis
D ER
Ġen countered
/ #
Ġob server
< <
q te
Ġt weet
os a
Ġsup press
Ġcon tour
ĠHe re
ĠSE LECT
e very
Ġde viation
ĠC ache
i ra
de sk
id en
Load ing
Ġnew ly
son g
N ote
ĠUn known
Ho ok
Ġ[' -
Ġmis match
> {
d rag
de ep
Ġf r
sp atial
vi m
ĠO ptions
Ġinitial izer
ĠJ son
ĠC ho
Ġget ter
Ġ-------- --------------------------------
save fig
Ġl l
Ġal igned
pr inter
12 34
Ġshape s
u zz
ĠE ND
Ġhook s
Ġpie ces
e ff
ach able
CON ST
r ity
in herit
Ġre main
ch ines
bu ckets
cre ator
Ġ' ;
Ġsh own
ĠLo ok
STR U
distance s
d ense
on ts
Ġh ierarchy
ĠRe f
Ġ'. '.
mon ic
Ġsn mp
listen ers
ST REAM
Ġgra b
epoch s
Ġt up
P ACK
ir m
ĠR PC
order ing
v v
re served
al igned
am big
ĠL ink
qual ifier
SP ON
Connection Error
ĠSp lit
itect ure
tick er
ĠD I
late x
af ka
Ġresp on
D one
Ġst e
sent ences
Ġdepend ent
yg ons
sect or
Ġobtain ed
D AT
t up
Ġf ocus
=' /
Ġ---------- -
back ward
ab stract
Ġsc roll
ĠO P
Ġsu itable
ĠMe ta
buff ers
Ġa dapt
ĠO UT
Ġreference d
Ġlanguage s
(? :
! '
Ġbe am
Ġg ain
ĠS tep
cs r
Ġsort ing
Ġstrip ped
de legate
cy cles
Valid ator
Ġexpi re
li o
lat ent
Ġembed ded
Struct ure
Ġa ren
ent ion
and box
' ',
Ġfore ign
ĠSpecifi es
c rs
å į
i el
In sert
Ġpub lished
fetch all
resid ue
h ard
Ġover lay
g rant
z s
as m
Ġt uberculosis
Ġp rom
index ed
Ġresid ual
UP DATE
Ġtic ket
à ®
Ġback ward
Sum mary
Q SizePolicy
g ies
ĠCon verts
E ST
G iven
mat erial
OP EN
ĠP ort
ĠE mpty
ĠDe cimal
C redentials
d w
ĠS O
si b
ail y
Ġfollow ed
sim ilar
uz zy
ar ily
Ġin ference
Ġca pt
B l
de lt
it ute
): ]
Ġfloat ing
deploy ment
peak s
i ro
Ġd ropout
pri mitive
f lip
Ġg t
Ġr sp
cor relation
86 01
ĠTra ce
f ork
Ġv min
Ġfact ors
An aly
C ard
Ġn t
text s
Ġ2 3
In formation
Ġint s
Sh ort
backend s
[ %
Ġ3 00
mplement ation
Parse Error
Down load
Ġy es
Ġmo ck
ĠBy tes
it ter
Ġo mitted
") ):
counter s
Ġperiod s
Ġinteg ration
ĠGo ogle
Ġrepe ated
+ \
S pa
W ID
t gt
ar gest
Ġs ci
ac curacy
fil led
tor ch
Ġc nt
au ge
Ġpad ded
f requencies
Ġ1 0000
## #
ĠAss ume
ase d
an el
con tour
ĠI gnore
Ġstop ped
coord inate
Ġmig ration
: <
å Ĭ
out h
Rep ly
e tag
reate d
mo ck
str and
=[ ]):
. '))
Ġpar agraph
Ġimp ro
SO CK
ein sum
G it
sp here
Ar n
track s
We ight
G ot
q dm
s as
index er
DE F
Work er
d v
ra s
Ġtra de
ro var
Ġj ava
ä¸ º
Ġmeasure ments
[ ^
m ens
Ġp illar
Ġout come
Ġab stract
specifi cation
= ",
d ynam
Ġde clared
ra ster
Ġy s
ff set
b idden
p ul
te l
ĠI Python
Ġpro xies
mac ro
] ",
ign Key
Ġro utine
percent ile
Ġmanage d
C enter
all ery
leg acy
ĠTrans form
N ull
su c
Ġsk y
case s
Ġlit tle
b w
x axis
ann ed
Ġload s
Ġsession s
Ġor bit
cap ital
Man age
v stack
Ġ` ``
PAR ATOR
I E
g d
ĠW rit
scal es
R ender
S ingle
u ght
Ñ Ģ
Ġt gt
MO DU
Id entity
an alysistype
tra st
SE CRET
')) .
set Enabled
as sembly
C ertificate
D ouble
l lable
oth ing
auth ors
writer ow
Metri cs
b io
} _{
Ġse ason
temp dir
cre asing
zone s
Ġoptim ize
= \
E B
ĠLoc ation
Ġtra jectory
Ġdest roy
Ġang les
_ "
as pect
sample d
Ġs f
fil t
vol tage
in ventory
Ġo ct
ot ropy
un ix
(' \\
Re lease
Ġreg ard
bo ost
B g
re ward
() ;
ch ors
(" >
Ġexce ed
ir th
class ifier
tp l
annot ate
Ġlex er
Ġp ing
CA SE
O rigin
r atic
De bug
DO UT
ä¸ Ģ
pie ce
+ ')
t weet
al ker
arg max
s ke
Ñ ģ
expi red
f old
n ex
Ġde crypt
Re quire
start up
Ġbuild ing
S CHE
Ġe ta
ve x
Error s
ĠF rom
Ġtri ggered
Ġs ke
Ġ| |
Ġden om
Ġeig en
ĠE OF
Ġ2 8
B LE
Ġup on
ĠDo cker
Ġpl us
D elta
user id
inter active
place ment
Line ar
t rees
Ġp tr
Ġm ul
ĠSt orage
Ġrot ate
D K
NAME S
Date time
: **
Ġp m
Ġinter mediate
are r
transform er
get attribute
Ġco me
ip ants
ld ap
bri ef
() )))
Ex port
Ġmat erial
Un its
n y
co lour
vi a
om ic
Min imum
i ct
Ġh a
Re set
bs ite
W RI
Ġi x
Ġth ro
F ixed
y ellow
he artbeat
Ġend ing
Ġrec v
attach ments
Ġp od
rep lic
ipe dia
clar ations
N U
ĠV ector
i ff
r n
Ġn at
ĠR ET
Ġver ification
Ġdirect ive
G EN
ex posure
Ġtran sactions
quis ition
f ingerprint
on as
Ġdata store
Ġpro files
Ġcur ses
ick er
snapshot s
ĠR GB
Ġup loaded
addr s
Ġsto res
in voke
blue print
S cope
Ġf ingerprint
Ġb atches
ve st
Ġstr and
ĠDe precationWarning
Ġyield s
exp licit
Ġview s
Valid ation
/ {}'.
u ids
ab b
Ġsen se
full name
al arm
Ġqu otes
Col lect
TO P
de cay
Ġident ified
Ġ'/ '.
rest ype
1 32
ĠF rame
Ġ2 2
connect or
Process ing
p late
on ce
ser ts
Ġsub stitution
Ġref er
product s
ss ue
RE GI
train ed
FI L
Ġsen ten
Run ner
ur is
(' =
ide s
Th reshold
Ġsav ing
Ġcollect ed
writ es
Ġprobab ilities
SCRI PTION
B R
p v
Ġv pc
ag ents
wit ter
ĠTake s
, ):
urn ame
ĠN S
Ġinterpre t
Ġuser id
Ġmode s
å º
al phabet
Ġg ran
font size
Ġtax on
c ri
con fidence
Ġl w
Ġre ports
Ġpo ssibly
Ġindic ator
æ į
type code
ren d
pro viders
ATI C
Ġtimestamp s
p ic
ĠI tem
ĠC OL
ill us
ĠU ses
head s
ĠRE ST
Ġf q
ap alm
U AGE
Cal lable
quot ed
PASS WORD
Ġsenten ces
S amp
Ġ3 60
ĠA x
ign ored
Iter able
h olders
Ġt reated
ĠRe dis
so up
co oling
ĠA L
12 0
Ġref s
Ġrecomm ended
R oute
m irror
}) '.
Ġexpect s
st p
Ġ2 1
Ġinter p
ific ates
At tach
IN VALID
u df
Ġw or
IN PUT
Ġiss uer
gorith ms
al formed
Ġin voked
ĠT ABLE
data store
Ġy min
ĠH ost
Ġsu ite
serv ing
ĠERR OR
X ml
c as
j pg
Ġb enchmark
OR TED
Per mission
LAB EL
ma gnitude
de precated
port ion
FF ER
expi re
d it
ĠP DF
ĠB E
Ġindex ing
={} '.
201 5
ĠS ize
Up load
manage d
1 99
A sync
G ithub
w p
__ ')
Ġse ar
transform s
' '.
} </
ar di
ĠT YPE
if ul
Back end
Ġamp litude
up y
play list
Ġbound aries
estim ate
m aries
re pe
ut ter
Di ctionary
Ġsample d
Ġcir cuit
1 33
d uplicates
Ġph oto
Ġskip ping
require ment
b t
un ked
add Action
=' .
TI VE
Ġfla sh
Ġtop ics
F uture
ac illus
AT TRI
][ -
se ason
ĠG L
ll ite
band width
j ax
RE C
Process Error
pto ols
ar ity
lip se
Ġtermin ate
Ġproduct s
' %(
h azard
stop ped
Ġstruct ures
Ġsla ve
| \
sp ot
Add r
aut iful
predict ed
partic ipant
N orm
Ġd r
... "
mal lest
ĠF LAGS
ĠB asic
Ġmo ving
G Y
] ].
record ing
graph y
LI MIT
Ġdiag onal
f k
Ġe g
ĠS Cons
Ġcal ibration
short cut
y axis
um or
Ġ* /
00 01
ĠFI LE
SPON SE
ur able
ent ially
Ġsize Policy
T CP
par agraph
Bytes IO
ĠVer ify
h r
authentic ate
V O
in place
or b
ĠC alled
SE PARATOR
Box Layout
ĠExec ute
5 000
h du
Ġde ci
head ing
uplic ated
Ġassume s
Ġre use
Ġup stream
curren ces
Ġrecur se
M erge
Ġs d
Ġex clusive
) >
? \
C ALL
Ġint ro
P K
v iz
Ġ# ################################
Ġto day
ĠA uto
S yntaxError
{ \
Ġc le
ĠCon tainer
RI GHT
dispatch er
de sired
Ġs lope
Ġ( ?
arg types
Ġth ough
ĠF in
Ġ& =
include s
Part ition
Ġa ir
Ġe lect
th rift
Ġ` {
Ġline width
ST OP
lat tice
resid ual
' ")
Ġ utf
ĠI F
ĠU UID
Ġ", ".
Ed itor
Hist ory
m iddleware
Ġn m
Ġ{} .
" %(
S F
pro be
AT TR
mark down
Per iod
Ġ201 6
CONT ENT
UNK NOWN
n dims
ip pet
Add s
ĠSet ting
So up
ver ter
Ġh i
ĠL ength
ĠO b
L anguage
ate llite
ĠM atrix
1 10
l or
Ġst ypes
Ġsplit s
Ġprodu ced
b ol
Ġa way
Ġev t
A vailable
Ġth us
post er
Process or
Ġre mainder
Ġo mega
Ġl argest
Re try
level name
Ġnotification s
Ġm ix
Temporary File
d get
key id
ĠSet ter
Ġbind ings
r ating
h uman
re gs
kw s
tri al
Ġwe ak
Ġin structions
Ġb ond
Ġne st
ĠSet up
timestamp s
circ uit
P G
lic ity
Ġapplic able
Ġmo lecule
chain s
cap s
mot ion
D X
k l
con c
Ġpa cked
activ ated
P acket
R etrieve
e g
Ġg rant
us b
ĠR andom
match er
env s
pub key
ĠRe ce
RE GEX
KEY S
Ġleg acy
D a
n v
} ))
ty ping
16 0
exp anded
Ġbel ong
8 00
d ashboard
di alect
Ġqu bits
AS K
Ġoperator s
Ġbel ongs
Ġo id
Ġ` {}
Back ground
C at
Ġre strict
Me dia
Ġback wards
re cover
ĠR el
Ġstyle s
C AS
it ers
Ġg c
str s
Pri vate
Ġh ub
Dep end
c art
o spf
p itch
Ġin ferred
ad s
Ġal bum
ular ity
F B
S core
wa v
ĠIn it
ick y
Ġloc ator
ĠCurrent ly
Ġfrozen set
> .
'] ])
pro cs
Ġcmd s
)) ),
ĠT CP
{} :
ĠSy mbol
+ )
h g
j d
ĠM issing
s z
res ample
Iter ator
sla ve
ĠVAL UE
Ġg rpc
Ġne ur
} ;
Ġlo cked
Ġse rovar
RE QUIRED
UT C
Ġnetwork s
/ *
Ġv tk
Ġcomp s
we ighted
unct uation
Re pository
h p
st mts
Ġcont ro
Ġsec ure
ims how
sla sh
Lib rary
g ray
ĠN D
LO CAL
Ġtransform s
Ġdig it
g ather
ĠL et
log level
pto coccus
asyn cio
fab ric
se ud
)/ (
ancest ors
h old
pos ix
inv oice
aggreg ation
G ra
b ond
ur lopen
add Callback
ĠM ode
EV T
8 000
Ġn ice
Ġde tection
Ġb am
Ġw heel
Ġl r
mod name
r sa
r nd
s un
v tk
Ġeffect ive
B P
Ġm c
vis ibility
Ġm v
Ġcor rection
201 0
F amily
T imer
read only
lat in
Stre ptococcus
Ġ" &
cod ings
w ill
(' @
si mp
comb ined
åĽ ŀ
ĠP AR
pre ferred
Ġun set
firm ware
) *(
. {
E MAIL
it ivity
Ġ" \\
acce pted
e ye
h stack
Ġdis card
tile s
u a
Ġs v
il ls
token ize
vid ing
track ing
NUM BER
min us
Ġstop s
ĠLo op
tax on
O IN
P AGE
Ġn ic
co uld
ĠT IME
ĠA li
Ġre actor
Ġmod name
FIEL DS
Ġauthentic ated
{ "
ĠM ongo
Ġsign ing
Ġdraw ing
Ġ jo
Ġc ritical
um in
Ġlist ing
const s
RA W
åı ĸ
Ġre tain
ĠOperation Failed
Ġat tention
base dir
be led
ä¸ ª
C ir
W AR
Ġinter sect
En v
ĠJ ust
PY THON
ol l
Ġx i
Ġcontin uous
Ġfe e
ĠFla sk
direct ive
ik i
("/ ")
ĠS to
ĠO F
comp s
rep lica
OR IZ
- \
so lid
ins pe
atom ic
In teg
ts v
su ggest
Ġgener ating
Record s
Dist ribution
E MP
ĠR FC
Ġsm art
collect or
Ġschedule d
Ġresid ue
B us
SS H
release s
* ,
re cipient
Ġsc enario
AB ASE
" )))
per ly
P N
ĠC I
ĠF loat
Ġsub s
io us
hes is
f ed
p or
Ġma v
Ġclass name
cent ral
11 11
09 6
Ġspa cing
= .
D b
v ault
Ġsub classes
enum s
ĠAuth or
Ġasc ending
E valu
P ress
r w
t g
Ġg rp
gra ins
graph s
he ap
tr unk
Ġas cii
Ġexec uting
C ER
Ġbu ckets
reg isters
Ġtrunc ate
cal led
cid r
i map
ĠT ree
Ġme chanism
Ġ3 600
([ ^
Ġd pi
Ġtick s
inal ity
FA IL
ik a
Ġord ers
L ong
w ater
ch ast
ĠA LL
ann o
fla sk
inspe ction
li ers
ate ver
Ġpart icle
Act ivity
Ġc x
arg ins
th an
Ġ'% (
lan e
args ort
Ġun defined
CON F
Ġlib raries
multi part
Ġappe ars
Pro p
writ el
m iddle
ob acter
ĠHel per
vo x
ĠOver ride
Ġp ts
ree ment
Ġca mpaign
ĠCo unter
roll back
T M
ĠP ay
se cut
in cluded
Ġpo licies
RE MO
Ġsym bolic
Ġanaly ze
ĠGe o
Q ual
or ient
ĠF ailed
In f
Ġcode c
TI AL
expression s
L ike
Ġover all
Ġcor ner
fla sh
pro xies
Con sole
ST EM
SE C
clus ion
ĠE num
** (
. ],
h ar
Ġde serialize
Ġg id
Ġlo s
]) ):
(': ',
Ġsub type
regex p
('.') [
Ġcontro ls
c url
Ġout dir
du ce
sup p
tmp dir
ĠPre pare
Ġsimilar ity
C IM
N ORM
to uch
ry pt
Ax es
ä ¼
(' ~
vi rt
('/ ',
py plot
PROTO COL
ATTRI BU
t ics
w arm
pe ek
time series
ĠP op
Ġx x
ab i
_ ['
Ġh ardware
ON G
comp iled
Se e
B S
P UB
Ġg ui
Ġent ropy
Ġframe work
Ġth ird
ĠM AT
AN Y
Ġgroup by
Ġ201 5
Ġrel ations
k args
Run time
re connect
li ps
to ggle
ĠM ain
}) ".
ĠGraph QL
R N
b alancer
Ġsub parser
Message Type
Ġbro ken
rup ted
l legal
Ġs ing
alle li
extract or
Ġescape d
Ass ign
in coming
li min
ĠC lean
ĠW idget
ĠCo mple
Ġc i
te le
ĠT HE
St d
Ġcheck er
ob servations
SCRI PT
H y
a udit
ĠZ ero
d j
s lope
w c
Ġp ow
pa ired
ĠPar ser
Ġqu it
anti ate
I TY
code d
201 7
gramm ar
æĹ ¶
Ġt ell
Ġl v
ST O
Ġmatch er
Ġpol ynomial
C N
F RA
Ġn obj
Ġin vert
ĠB ut
AR GET
p ho
{ {
Ġs ib
con sistent
qu ential
EN ABLE
AC CESS
T RA
d rive
Di rect
Ed ge
ĠMAV Link
F ROM
P DU
o ser
le ave
Ġp asses
... '
" ')
C la
b ag
is ation
Ġ-------- -
man ent
Ġrespect ively
RE SPONSE
ob server
Ġ Keep
su bj
vertical Layout
ĠPAT H
Ġ' </
r h
tmp l
Ġdomain s
ĠCom ment
SETT INGS
d ater
lo cs
ate ly
pre process
pass wd
FILE S
Ġchrom osome
å ľ
Ġ um
Ġp seudo
Ġb tn
Ġw ater
x d
to logy
ĠU TF
Ġph age
Ġbox es
Ġoverrid den
__ ':
ĠD NS
ĠM erge
Ar ch
Ġinterpre ter
' <
) ].
A mount
p atches
Ġ è
if ted
St retch
c ron
z h
sub class
={} ".
END ING
Exec ute
flow s
dist s
Ġba seline
ĠBack ends
P s
m ic
Ġset ter
pp rint
Ġcond itional
H AND
ĠF etch
Ġass oc
Ġsc atter
r ng
ra per
token izer
represent ation
ver ified
ä» ¶
é ĩ
ĠA fter
Ġpre pend
MODE L
C lean
Ġf f
W rong
Fe atures
S pe
f utures
cor outine
BU ILD
f ar
ĠGener ator
sli der
A RE
to c
Ġal g
Ġtime d
Ġlog file
we bsocket
Ġchar ge
Or g
Ġlo west
å ¼
mple ments
stop s
schedule d
operand s
int en
Ġrender ing
ĠHe ader
RES ULT
ĠInst all
H z
S witch
f am
re view
measure ments
LANG UAGE
Ġa a
ĠS ET
ĠTh at
Ġtrans itions
ma cs
set Formatter
Ġan no
autiful Soup
Ġs it
Ġm t
om onas
:// %
wh ile
Pay load
Ġm illiseconds
OR S
Qu antity
Ġspa wn
? )
FA I
stat uses
dat um
S ome
] `
c x
un defined
ĠIn clude
Ġhelper s
> ")
B ro
M ar
Ġlo cally
Ġ[] ))
max size
do i
serv able
CF G
Ġol der
at least
Ġ{ %
Ġregex p
M aster
"" ,
Ġr t
al ready
Per form
button s
WRI TE
st ored
Ġc as
ra ined
(' ;
Ġcon sumed
bar s
Ġquot ed
R et
z ation
Ġstart up
AL IGN
comm unity
press ure
Ġconver ts
Connect ed
') ])
hex lify
Ġnumer ical
(" :")
Ġsy stems
spect rum
ist ant
Ġlat tice
Ġp itch
Ġspeci men
To o
Ġsym metric
Act iv
Ut il
Ġconfig urations
cor rection
ĠData base
- '
ĠCol lection
R ed
ĠJ ava
ĠPy Js
Ġindent ation
assert Equal
Ġpartic ipant
Ġpl ural
sign ing
Not Set
pol ygon
e ast
u ptools
ph y
Ġwe bsocket
Ġatom ic
Align ment
A p
A tom
Ġin ventory
list ing
pro v
mo val
ne ur
Ġopen ing
ick ness
Ġfail ures
Const ant
ram id
publish er
ba seline
Pol y
pie ces
ĠASC II
$ ",
S m
de livery
el f
Ġl bl
Ġal go
Ġint ensity
let ters
Ġcollect or
modifi er
BU FFER
Ġwa velength
velop ment
3 000
C KET
k t
to string
py ang
Trans fer
Ð¾ Ð
Ġde claration
Ġ' |
Ġw ire
16 8
ĠFile NotFoundError
Ġyear s
Ġdistribution s
Ġmodifi ers
A MP
] ;
Ġs lots
Ġfile type
ĠDi rectory
mot es
Fe ed
ĠBin ary
FLA G
Ġde legate
Ġ0 0
res ume
ĠF ound
Ġfull name
document s
}" '.
S te
s np
w f
Ġt ip
au gment
Ġ', '
Ġmark up
ĠApp lication
presen ce
Ġde t
az y
Pre dict
Ġactiv ate
N EL
{ :
da ily
clo sure
Ġtrans lated
Ġad j
decode d
Ġloc ated
prin cipal
? "
a wait
Ġt aking
iv ari
Ġwrit es
secut ive
p mag
Ġs am
medi um
Ġ xt
Ġe tag
ĠRe p
tain s
Ġne ar
Ġtoken ize
circ le
Comm it
) """,
d ings
ch ip
__ ']
Ġex e
ab out
termin es
mar sh
SI TION
CHAN GE
Ġf path
Ġw f
op code
post gres
U ri
Ġd u
Ġlen s
ĠIn ternal
Ġn om
Ġe fficient
In v
Ġvalid ators
TER M
Cur ve
Vis ible
M ON
i prot
Ġb ridge
Ġg round
sc enario
row se
frame work
notification s
j u
Ġ1 23
EN TER
Ġfa ces
man ual
bl k
EX P
vers ation
Ġinstanti ate
g aussian
Re dis
Ġz mq
] ._
st ype
Ġcon sistency
pro vided
Ġmodifi er
C lear
Ġs z
Ġv endor
Ġ\ '{
ne st
11 1
ens ive
---------------- ------------
Ġstd dev
ia e
Check s
Ġeas y
ipy thon
OF P
lo ut
Ġch i
imp licit
byte array
QL abel
poster ior
ĠN et
def erred
ens ities
Ġ"- "
Com bo
Fin ished
L a
n f
v t
fo oter
tra verse
trans lations
gener ation
App ly
ĠGener ates
Ġlon gest
Ġear ly
COMM AND
Ġcum ulative
æ ī
he at
Ġdef erred
Ġ" :"
Ġ_ (
ĠA ST
vide s
q c
al ter
AL LOW
var name
ps f
A IL
C DF
M a
re et
an onymous
Ġel t
Ġ[] :
ĠG O
Ġpo ster
RA Y
Ġlower case
pyang bind
b enchmark
Ġs af
bu gger
ĠSh ape
ĠIter ate
Ġpur poses
th at
ac cum
sub scriptions
Fore ignKey
L iteral
s os
Ġb id
Ġy label
sim ulation
ĠFe ature
FAI LED
F ill
Ġc rc
et y
mig ration
inter sect
Config Parser
basic Config
C Y
ĠA C
ĠD SM
{} '
default dict
with in
Ġhead ing
Ġbutton s
Re gex
ĠM etadata
roll ment
pl ural
Argument s
Mo difi
Sn apshot
ä ¿
get Attribute
Ġsign ificant
ĠComp onent
S ort
le ader
ke h
Ġchunk size
K ind
p assed
sp ike
pk l
mask s
mod s
C RI
Ġchain s
Ġblack list
A ut
t ier
ĠF ORM
Read ing
multip ly
F L
i ma
Ġm utation
la m
Ġper iodic
Config ured
ĠApp end
FIL TER
a pt
Ġn y
be m
dis covery
Ġsome times
trunc ate
Ġund ers
Ġ âĢ
ms gs
seq id
Ġimp act
Attribute Error
Ġpr inter
h ib
t an
Ġt bl
Ġs park
py pi
pi o
comp uted
Ġcolor map
xtick s
ver ity
re aded
Ġre m
cu da
STRU CT
Ġp v
fir med
7 00
Ġpro vision
gen us
])) ,
lid ity
Github Object
cod ers
Ġattach ments
ĠFla g
C ost
P ING
T ip
d types
con sume
Ġthis Obj
ĠIn t
SK IP
Ġcred s
c am
ro i
Ġe vidence
ke s
Ġj inja
Ġauth ors
fra gs
Ġjoin ed
- ',
D ump
ĠA zure
ĠS ite
ĠP os
ĠP ackage
ĠO pt
Ġgener ators
mis c
modifi ers
LOB AL
E l
(' ^
ĠD OT
Ġdist inct
gramm ing
æį ®
ĠD raw
Ġpa ckets
RE SET
Ġrep lic
Mon th
R en
on line
ĠB O
Gener ic
irm ware
v min
Ġm iddleware
ve locity
der ived
ffff ffff
Ġun cer
}. '.
Ġlet ters
ĠMan age
ĠDef ine
Ġdo i
Ġexp orted
Ġgra mmar
interpre ter
Ġres ample
25 0
fetch one
ĠEn gine
Ġtensor s
Ġcent ers
æ ł
se crets
ar se
per iodic
ĠRe mote
ĠB atch
AD DR
YANG DynClass
pet ition
Ġwhite list
' (
is null
mo ot
Ġfil t
Co okie
y p
Ġs ound
ĠAb stract
b ute
Ġdis crete
Ġph rase
Method s
Ġaccept able
ĠYield s
un ted
th en
lock s
PAT TERN
UB LE
Ġms gs
qual ified
201 4
i lo
Ġ utc
Ġcom bo
sym link
OB JECT
ĠConstruct or
shard s
) {
ab breviation
QU ERY
Rel ation
d pi
s wagger
__ ):
Ġ`` "
ĠW S
15 0
Ġfit ting
ĠUni que
Ġfore cast
Re q
Ġres ume
ĠL a
Ġdetermin es
Ġt l
il ation
pa ren
IN SERT
DE P
Ġtoken izer
produ ction
B its
G T
M any
al one
ex er
ĠG aussian
ĠQ A
pk gs
fail ures
inten ance
Ġm ixed
ul er
loc ate
ĠC he
Ġcor outine
post s
skip ped
rb ridge
END POINT
Ġbehavi our
D Y
ç Ľ
ĠR ange
exp lo
ä¸ Ń
MODU LE
Ġ ary
con sumed
ĠNull Argument
V A
h icle
p si
ĠG u
dist inct
f lu
ar b
Ġc ategorical
Ġby ref
num er
r ms
Ġor ient
ho use
Ġjson ify
Ġsupp ly
Ġblue print
Ġ== ========
Ġlog its
mime type
P lace
P ORTED
h ints
m ing
Ġe m
we ak
ĠCo unt
Child ren
V S
Ġpri mitive
Add ing
Ġconnect ing
gradi ents
; "
C trl
un signed
:] ))
) """
W atch
f wd
__ '
min s
Ġ' ='
ĠS um
Ġv box
Ġsepar ators
anis otropy
ch allenge
(' $
as semble
ĠF igure
Ġtext s
Ġpa ired
ĠR ow
ax on
ps d
ĠExt ra
A fter
B I
Con n
be an
ĠCon d
App end
Ġdesc end
gu ide
ivari ate
st ory
Ġc trl
ĠE valu
Ġint ended
PI O
LA ST
By Name
Vari ant
d ll
set ter
ho le
ĠG en
ay es
wit ches
] })
d ark
de compress
Ġto uch
ch mod
od ata
Ġg s
ĠL anguage
ĠH DF
context s
Sp in
one lla
mp l
Ġun signed
w ildcard
Ġc type
Ġn v
Ġin tent
li ms
ĠF OR
dir path
moot hed
Re place
AR G
ĠTran saction
RUN N
r g
Ġo pa
De v
Ġsc r
MA SK
ane ous
) [:
Ġpro of
B reak
ĠP ID
write Message
Ġshould n
('- ',
Ġtile s
Skip ping
capital ize
b m
b ash
c ube
ip ment
Transform er
Ġd m
Ġm ongo
url parse
[" _
Ġ} }
Ġm n
UN I
U TE
l just
Ġde que
Ġdis connect
Pro gram
En tries
Ġdat um
Select or
E K
P ick
ĠE nt
Ġ2 6
be am
(( (
De pth
monitor ing
è¿ Ķ
I ER
W in
c g
re actor
Ġf ac
Ġst ub
(' !
Ġco mes
Ġx label
tool bar
e mails
url encode
Ġrep orted
| |
ĠP e
sh adow
pre f
in dividual
Ġf lo
ĠP andas
red dit
Set up
dr um
Ġgra de
Cho ice
Ġled ger
P ipeline
h h
Ġf ld
Ġd ists
Ġnet loc
Const ants
log o
Ġle ader
ĠMo ve
" })
R ST
à ¸
ar win
pe p
Ġd aily
di es
file system
ĠP ipeline
ĠV is
led ger
Ġfind ing
desc r
:`~ .
Ġc ube
fo lio
ĠEx pression
Ġj id
Ġ... ]
Ġthere fore
Elements By
Dim ension
A U
Ġf out
Di ag
14 2
ĠDo main
Bind ing
) ()
F n
me mo
Ġ{} ),
ĠOPTION AL
ar ter
le e
Ġv c
Ġper f
struct ures
sn ap
è¿Ķ åĽŀ
Ġt pl
de cess
es h
Ġmo ved
Per cent
Ġaffect ed
å ¯
Ġla g
YANG Bool
Ġintern ally
C AP
Y DV
b z
d bs
t ray
Ġst roke
(' *
Ġse ek
:` \
Ġreal m
Uni form
" /
par sing
Ġmark down
depend s
ĠMay be
Q Q
Ġp x
ĠRe port
Se gments
Ġqueue s
Ġlat ent
Ġdetect or
D N
S cal
d os
x max
Ġc ity
ĠP open
Ġtw ice
MENT S
7 55
METH OD
w bem
mp p
Ġch anging
av ed
tag ged
Ġcir cle
D iv
U DE
V ec
Re po
ĠRe moves
12 5
SC A
ĠUpdate s
Ge o
L M
i fo
ĠU t
}' ".
h c
Ġc rit
Ġf ut
he ater
scri b
ON T
Key board
amp litude
rp m
analy ze
Ġconcat en
Top ic
F LO
11 5
B AD
RE L
char acters
CE PTION
Ġbecome s
or test
Ġst rain
An notation
ĠIN TO
Ġhow ever
ĠCol lect
Ġof ten
ĠC annot
Ġrep lica
H igh
m ate
pe s
gin es
Message Box
proto cols
SA MPLE
v env
Ġ' ):
pre ad
ĠR ule
RE Q
cum sum
Ġaio http
pe ptide
color bar
pad ded
NE W
WID TH
std dev
Ġps util
FUN CTION
chast ic
Ġm or
ĠLo okup
PRO JECT
Ġst im
Ġu b
Tag Name
, (
4 000
c j
f x
Ġm time
fo bj
comple ter
ĠIN PUT
Construct or
Ġa w
ag ers
Ġref lect
ad ir
il led
Ġnot ation
Ġh azard
col on
Ġcomp osite
De tail
Ġgo es
IP v
s quared
ch k
Ġserial ization
ĠMin imum
Ġde tailed
Stream Handler
= ("
Ġg aussian
). """
iter tools
fq dn
/ ')
st udy
ap is
Ġ== ================================
url lib
Ġinterpol ate
M is
Z ero
en ing
Ġh mac
Ġr type
py xb
a mazon
Ġres hape
ĠAdd ing
Ġplain text
ĠImp ro
Ġun supported
Ġpass phrase
Ġmanage ment
â ķ
Ġro bot
Ġradi ans
e mu
İ ¥
Ġhe ap
inter cept
Ġparser s
dis cover
ĠEn try
Ġe gg
mo lecule
ĠM etri
E qu
S ING
Ġu int
ĠS IG
Ġra d
serial ization
sv c
Ġcoe ffs
j vm
Ġ ì
in vert
Ġf ine
Ġ{} ))
Ġsub mitted
Ġflatten ed
Ġ ())
RE EN
ĠSt andard
Ġinterpre ted
t im
as ctime
Ġsub tract
ass oc
v pn
RE T
Update s
Y our
Ġre moves
Ġde cay
Ġde letion
ĠP a
pre ference
C l
x A
sp ans
Ġcol l
Ġqu bit
las hes
year s
Ġinstall ation
s is
get ElementsBy
Ġg uest
ĠE N
St andard
Ġ"% (
oriz on
alo gs
SCHE MA
C V
gra ds
occ up
H R
Ġc k
Ġre cogn
ĠRe set
ST DOUT
ĠCo uld
M icro
q r
t ight
th row
log out
Ch unk
Ġresp ond
BY TES
M ouse
r sp
y min
er atures
Ġf resh
vi cer
ĠS ingle
u lo
replace ment
Ch at
desc end
Dis patch
Ġ[- ]
Ġ{} '
lin ation
d ash
Ġpar a
Ġch ip
Ġ{' $
tensor s
Ġsnapshot s
Ġcon sume
ind x
cent ration
14 7
+ '.
ad v
ĠT otal
Ġpre fer
Ġpre pared
fe ats
Ġfunction ality
ĠLE FT
redirect s
Ġpublish er
æĺ ¯
R ot
g m
is q
Ġ% }
cho ose
Al gorithm
ca mpaign
** *
ans wers
ou ch
Ġvi m
month s
thresh olds
æ Ŀ
Ġ+ \
Ġth er
Ġco erce
ĠH y
ĠWh at
mar kets
< =
m ble
se cho
re ed
Ġde coding
ĠP RE
Ġman ual
Su bject
ony m
Ġt id
up stream
int ent
Ġret code
Ġast roid
Su ch
Ver tex
ĠDown load
_ {}'.
i us
p ls
op ing
Ġcomp uting
Ġversion changed
quot a
los ses
Ġr l
our s
('/ '):
>> >
S pect
un s
per sistent
arc sec
Ġde lim
ĠG PU
Ġ& &
ADD RESS
å ĩ
æ ŀ
Ġl m
Ġg iving
Ġvalid ity
ĠSign al
V ideo
t iming
Ġl vl
qu otes
ud p
P B
field names
Ġno inspection
Ġper ms
lan ation
Ġstack level
success ful
2 02
P TI
j wt
int ensity
Ġac l
W M
Ġd n
et ches
ĠS V
Ġ\ '%
MA G
Ġdispatch er
Custom er
Ġsuc ceed
E stim
T X
V ol
pa ckets
Ġany way
Ġ'- ':
Message s
IO Error
ense mble
SY STEM
Ġ orm
er ts
ass is
',' ')
Check ing
S G
t ur
Ġ( *
Ġg ather
ON LY
Key word
ĠAuth entication
ĠMult iple
ĠBytes IO
F N
Ġp late
ĠFor ce
Ġre cipients
po ols
ĠC re
PRO CESS
Ġnamed tuple
Ġd rive
file Name
bu st
Ġsp ot
Ġexp ansion
Ġph enotype
speci mens
avig ation
Ġsoap action
de lim
le et
qu bit
ME M
TT ON
201 6
Ġkw ds
icon s
Sup p
C lick
M ore
p ies
Ġ{ :.
Ġpa use
ST ATIC
Ġj ar
Ġca uses
gen otype
dist ro
Ġprin cipal
ise ct
Ġpy game
Could n
DA Y
v otes
Ġf riendly
mm utable
ĠEx pected
Ġke pt
de m
Ġp atches
ĠC lear
å Į
é Ĺ
lic ations
ĠCon v
radi o
[ @
Ġh d
path name
Ġor b
ĠP A
im izer
ĠN UM
Con verter
com ma
Request Msg
tool tip
COD ING
f riendly
en oid
it ors
te e
ĠM D
ĠV olume
Ġtest ed
M ac
Ġlist a
Se par
cent ric
ĠPro perty
sel ves
Ġk eras
De tect
Par ses
Ġinter action
pan e
ĠValid ation
Sc roll
' $
J OB
b rid
Ġd h
([ -
en ses
Ġtri ggers
38 4
SES SION
IGNORE CASE
st ers
Ġra y
Ġun ix
iss on
Ġ 99
ro bot
ut ors
Ġ( {}
ol ated
ĠA gent
Ġwh atever
sm art
> ".
Ġt rees
Ġf etched
Con tin
Ex periment
Pol ygon
A ctions
T ARGET
x data
format ting
Ġsalt env
R DF
S urface
V ert
p le
(' ''
po le
Ġ2 000
De ferred
Ġgener ates
ĠMe mory
contin uous
0 25
Ġver ified
åŃ Ĺ
Ġs mallest
as n
om aly
Ġre cognized
Ġ5 12
coe fficients
ĠCal culates
Ġvox el
c ategorical
le ton
Ġ""" )
(" __
ĠF low
ex cluded
ĠD ATA
Ġtr ust
d temp
Ã ¡
ĠS Q
Ġne ither
book s
Ġdiffe rences
ä¸ į
ĠOUT PUT
B IC
S trict
un expected
ĠD im
tr ust
Ġlo st
ight s
RE PL
Di ff
ĠSe curity
ffici ency
g uest
s ound
Ġcir cular
AME TER
Ġd L
ĠF uture
Ġass uming
Ġsn ap
Ġmultip lier
at ively
---- -+
ĠO perator
ong odb
S upported
Ġas sembly
ĠF ore
ir ing
DE NT
Class ifier
Ġ'{} '.
Exec utor
Ġrecur sion
p u
ã ĥ
Ġc aching
Ġh gnc
und les
NAME SPACE
Read s
freq s
Ġrel path
redu ced
ili ary
}- {
Ġdata center
ca pt
Ġconnect or
Al ready
wik ipedia
Ġposter ior
ut ers
un g
Ġm irror
ke eper
real m
ĠEn able
in a
Ġn apalm
ve cs
int ro
ĠN othing
over all
diag onal
Ġstride s
LY PH
6 000
st rain
Ġr val
Ġtran spose
so ap
ĠUnicode DecodeError
â ĸ
Ġre view
Ġpa inter
class path
soft max
6 55
r nn
w ide
ing u
D rop
S calar
Ġc ron
rep lay
Ġcontext s
Ġgen otype
P en
X R
de clared
ĠC A
RE ST
test ing
Ġtrans lations
Ġplot ted
ĠUn it
Ġeffect s
VAR I
J S
Ġa f
ĠD es
Count s
Ġauthor ized
Mo dified
po re
go al
Ġvis itor
getElementsBy TagName
d on
ur o
Ġcomp ose
ME T
Result Msg
ĠClo se
b az
d as
Ġst udy
valid ated
sub parser
ĠRead s
ĠBe autifulSoup
I DEN
S ent
v ote
Ġf t
Ġ' ['
__ ]
ĠP lugin
und o
Ġcomp ared
av en
Ġfast q
assign ments
F ACT
L ambda
b are
in structions
Ġp laces
10 4
sock opt
Ġcy cles
âĢ Ļ
treat ment
x f
par ty
qu ares
Ġen force
H ASH
or bit
co bian
sp end
Ġr ates
text ure
Out er
sol enoid
provision ing
FRA ME
! ".
Ġfra c
g ran
Ġh olds
Ġprefix ed
sm tp
perly Configured
P anel
ro sa
Ġv rf
Ġsub title
Ġcomplete ly
INTER N
ĠHttpResponse Redirect
G G
h l
ss ian
fe rer
C TED
ĠF AST
Ġ{} "
ĠG rid
Ġline style
Ġsub command
Ġconstruct ed
A K
D uplicate
ct r
Ġmain tain
Ġutil ity
d raft
t v
B F
la cing
ch aff
Ġbo ost
Ġpersist ent
Ġsmooth ing
/ ",
he mer
id ity
Re al
Ġpro viding
Ġnorm ally
' [
d yn
f atal
ph enotype
"] ):
wa velength
ĠElement Tree
modifi cation
l vl
w ner
Ġv oice
col l
File Path
Cal cul
_ ',
ate x
ic ast
cond itional
ado op
N aN
ĠL inux
scri bed
Me an
ATE D
ĠL ambda
ĠPro file
ĠOption Parser
C ar
f ds
Ġd up
ĠP r
In line
iter values
with draw
AL T
cl ust
Clo sed
Ġcon crete
ĠF ix
iv o
Ġread line
cor ded
Ġbuild s
æľ ī
Ġregard less
I SO
M ARY
T x
Ġst oring
comp osite
DE VICE
cmd line
Ġsyn chron
Dis k
Ġtrack ing
U i
v ect
Ġ" |
ĠT op
Ġh s
Ġas sessment
Ex pi
lib input
alle les
subject s
Ġpagin ation
Ġld ap
in tern
Ġo t
Ġb io
Ġ2 7
Ġtime series
Me asure
Ġrandom ly
Ġsym link
S ide
a es
r ink
ĠE mail
ĠW ord
Ġconvert ing
Uni que
b ench
h ance
l ng
Ġa udit
ĠA ut
Ġoff er
diff s
imp act
interpol ate
4 01
4 03
is finite
Ġcon venience
10 7
Ġvocab ulary
alm onella
Q T
---- --+
Ġph ot
Ġseq s
Hel lo
interpol ation
S hell
e of
y r
CO RE
Ġoptim al
re te
() +
ĠA RA
Ġal arm
xx xx
Ġpur pose
war ded
Called ProcessError
Ġh df
Ġse mant
Ġpe ptide
('_ ',
Ġau gment
+ )\
Ġb urn
Ġr ing
sy stems
Ġfind er
14 4
Ġbin ascii
Zip File
S heet
] ][
10 2
Main Window
10 5
Po inter
ĠLo ck
Ġcre ator
Initial izes
b ul
ag ue
Ġ"" ).
ATION S
ĠInter val
P lay
k ers
sp ice
Ġg al
pro venance
Ġloop s
Dyn am
Ġtick er
e vidence
ĠB U
ĠB ig
sub stitution
Ġcomm unic
le aves
DE SCRIPTION
Ġhash er
Ġxy z
() ],
Pro blem
Ġmy minion
Ġperform ing
Ġtz info
Ġdiv mod
Ġre ach
USER NAME
i ssion
r dd
t ml
ĠC luster
Ġargs pec
Ġpass wd
ĠSe q
Mon itor
H orizontal
de scriptions
ct ure
c ers
h z
Ġw d
spa rent
(* [
ĠSpeci al
get pid
ĠS cale
Ġpro ceed
und ant
Ġro l
Ġsp l
Timeout Error
S almonella
Ġ joint
min ator
sub command
** :
y ou
Ġf ault
Ġe mp
ap ses
Ġdis covery
Ġad vanced
Ġapply ing
Ġregex s
Ġdec ision
Con verts
sub stitute
Lo gging
Ġtitle s
PO S
Ġdistri buted
Ġplace d
havi or
e mb
j unction
Ġ serve
Ġst able
group dict
pw m
ĠSY MBOL
Ġse mi
out going
Ġpro be
ME DI
(", ")
j avascript
ro utine
ĠM UST
tra cer
rs vp
sph inx
G lyph
L F
o coccus
ĠT EXT
date d
HE M
sym bolic
Ġplay list
Sec ret
lips is
å ½
se mi
Ġre connect
bu y
EXT EN
Ġconflict s
relationship s
g ps
ģ ¯
Ġt iming
al so
di f
Ġth ink
ĠE stim
Ġpre cedence
Ġwork sheet
---------------- --------
('_ ')
( .
a head
Ġc riterion
co variance
by pass
sub title
Ġle ad
document ation
Work flow
Can vas
Mark er
Ġmedi um
B EM
F Y
L C
x large
Ġs urname
ig uous
Ġ2 04
Ġpre view
Ġsen ds
Request Exception
Ġmask s
Gener ating
b rain
l g
(' '.
ĠM AC
ĠL ib
expi ry
Ġsto ck
Ġflu id
at um
Ġw ish
Ġh ar
ĠName space
FILE NAME
Ġ'? '
a ma
j j
Ġ= \
ar ct
ĠS wagger
Ġpro t
ĠV irtual
Ġat tack
Ġsect or
F FIX
g ca
q p
Ġw all
Ġ( \
el ery
Type Id
Ġsp ans
wh m
Dist ance
Ġt qdm
Ġi a
Ġw cs
Ġr st
Ġen sures
comp utation
UN E
ĠPro gram
Ġpair wise
disc rete
effect ive
ĠStruct ure
S creen
Ġappro ach
scrib ers
k appa
Ġv ote
ST OR
Ġscal es
Ġgra ins
Ġdrop ped
Ġfo oter
k i
di cation
ĠT MessageType
Ġr an
kw ard
Sh ift
Ġd types
10 9
auth ority
queue d
ĠName Error
Ġcomb inations
Ph ase
Ġtar file
an o
Ġtyp ically
E q
b es
in ference
ch ore
line sep
Ġcolor bar
Ġstat istic
ĠParse Error
I MP
L at
Ġf utures
co erce
(' |
Ġh ot
Ġr p
check out
SE CON
ĠQ U
over la
ĠHTTP Error
Ġcent ral
ss aging
Ġm ysql
Ġw ants
pre set
ĠIn sert
cum ulative
ĠSH A
e lastic
al i
un supported
Ġm gr
ĠG lobal
Ġpol ling
Ġpeak s
ĠImpro perlyConfigured
T LS
ĠW ARNING
ĠH o
ĠH IER
List ener
SO L
Over ride
Ġartifact s
Ang le
c itation
it ed
Ġs vc
Ġg tk
ic ense
red ge
Ġal ive
==== ==
tt le
Ġeas ier
$ {
B r
R SA
S ta
g rouped
Ġdraw n
atter y
ĠBe cause
B T
O W
S can
at ern
tr uth
ĠC y
ag rant
amp ling
For ce
Ġpercent ile
Ġest ab
ut y
To ols
play ers
Ġgraph s
b last
x l
İ ·
ĠP ut
ĠR IGHT
Ġso lid
SE NT
Ġ"{}" '.
Ġapplic ations
GY PTI
GYPTI AN
F ACE
d ur
p rune
ĠP IL
ĠL D
ard own
(( -
off er
Ġge vent
Ġreason s
analy zer
f light
set Value
Ġkey board
ĠE GYPTIAN
AL SE
Ġtrip le
F unce
Ġ serv
al location
Ġw anted
di p
SI TE
OG LYPH
ĠOption ally
Ġsing ular
ĠHIER OGLYPH
Funce ble
C d
E LE
Ġs un
'] ('
par a
op ener
ĠThe y
Ġtra j
env ectors
RO P
contro ls
se x
in side
fo ot
Ġdir ty
'} }),
D J
h box
Ġcon current
ta ken
age s
ac le
Ġcur ves
De coder
Ġ"_ "
~~~~ ~~~~
lidity Parser
Ġin clusive
Ġst udent
ĠS ection
Ġun changed
ĠU I
gra b
ĠPar ses
Ġcluster ing
Ġ[]) .
ĠCommand Error
Success fully
ĠSc ript
V ED
i vers
get size
Ġst retch
Ġcon sensus
ĠP ers
log ged
12 2
DO MAIN
BU TTON
Ġt cp
Ġr at
Ex pect
CE S
." ))
Ġexpi ry
Pe er
Ġsoft ware
Ġb on
Re st
Ġreg isters
fra gments
tab lename
plan es
soft ware
æĪ Ĳ
Q Application
Ġc g
Ġhas hed
rep l
13 9
User s
Ġconver s
Ġtermin ated
embed ded
den om
Ġgp u
ĠContro l
ĠND Array
Q Icon
Ġp n
Ġd ynam
O pts
f v
Ġcon secutive
field name
tra jectory
Ġgroup ing
find iter
ĠRa w
Ġfn match
Ġconver gence
BE GIN
Pub lish
a io
Ġde leting
ĠN x
AD ATA
Ġcalcul ating
, *
a bove
l w
r ator
st aff
rep orter
ili es
ri e
pro f
ĠL imit
Ġdf s
e b
s anitize
co pt
rep lication
Ser vices
Ġ'{} .
Function s
Ġrect angle
Ġear lier
Ġo dd
un wrap
Ġh unt
ord inal
Ġreg ression
Ġover written
Ġrep l
Ġreplace ments
mar ize
operator s
Ġkm ip
: (
Ġs ay
be ats
Request s
Ġ201 8
Ġam ong
F ree
g os
w v
as p
Ġpro viders
ĠP DB
Ġprint s
Ġj dict
Ġassoci ation
Ġsm tp
me tri
Ġp du
Ġin finite
Ġb t
di vide
ĠA vailable
ph p
ĠNO QA
G LOBAL
=' {
face t
QU AL
TIFI CATE
P ut
b ile
u da
10 8
do es
Ġlimit ed
Ġoc currence
ĠBase Exception
ĠVALUE S
) ".
Re cs
ex us
config urations
pop left
Ġproto buf
Stat istics
Ġde cl
Ġdi ffer
Ġint f
lit tle
mat ic
Ġ4 5
Ġtra cer
rand n
Ġaltern ate
Ġd ense
'] ],
Ġh op
to bacter
Ġfile Name
py lint
Ġ'_ ')
EX EC
v box
Ġd um
`` ).
split ter
Ġsearch ing
az imuth
C U
H I
00 5
([ \
Pri mary
Ġaz osid
Ġfrag ments
ĠARA BIC
L ife
n as
il low
Ġpro pagate
Con tact
ĠMe as
('- ')
ker as
Tri gger
A g
d L
æ ģ¯
time line
fe c
ĠB EL
Ġdb us
Qt Widgets
Ġmeas ured
similar ity
a con
o le
re rs
(" *
Ġexclude s
front end
n os
u cli
se verity
it o
back off
Ġ3 3
Ġdirect ed
arg min
(" !
ĠS ame
cle ot
ĠEn ter
ĠAss ign
s x
Ð »
vi ations
Ġen dian
{} </
Ġ} ),
Instance s
ĠId entifier
m ux
o ked
ar ator
Ġc art
as y
Ġcon struction
Ġnew er
DE V
Data Type
ens is
ĠPol y
WH ITE
Ġ`{} `
" )),
M ARK
T ASK
Ġn aming
Ġo mit
Con sumer
av atar
Ġshow s
spe ction
ĠHE AD
O ther
s rs
Ġin ds
Ġv oid
Ġk appa
Ġq ry
ĠFile s
WIN DO
L vl
S UM
Ġc raw
he ar
Ġpro cedure
IF ORM
Exp and
* '
de scriptors
Ġd bs
Ġtr uth
Ġsimp li
detect or
B ig
j k
l us
de posit
Ġi gnoring
Ġd ashboard
(' `
Ġres ol
comp arison
ĠUse ful
ĠAt tributes
IST S
ĠMan ager
Writ ing
L R
_ ')
e ither
g auge
n id
st rength
Ġm tf
il lis
Ġor th
Ġte ch
ab br
cor o
Ali as
- {
Ġ' ^
Ġindex er
==== =
comm its
Ġsim ulated
Ġvirtual env
Ġband s
Ġtrunc ated
å °
Ġb n
Ġmin imal
Ġcal ib
normal ization
67 89
ĠTrace back
] ==
g ates
p wd
ĠT e
Ġme ter
Ġpro x
ĠV ari
ax y
PRO PER
sym metry
horizontal Layout
? ')
_ ]
Ġc ance
Ġp aper
ig mp
Ġexp lo
DI CT
Ġseq id
en k
fo x
ĠV PC
01 0
off line
imp orted
Cat alog
L im
g te
ur ses
Ġin complete
Ġ' "'
Ġto po
for um
bs olute
loop s
Ġbuff ers
Ġsla sh
m ixed
Ġp ure
Ġcon sist
pr j
Res olver
Col s
enter Outer
lon gest
Char Field
enterOuter Alt
A verage
B V
ce ptions
ĠF ast
ĠG UI
db name
trans formed
gen cy
Ġcomm unity
Ġmonth s
Ver ify
Ġsever ity
upy ter
M IP
st udent
edit able
Specifi cation
Ġthresh olds
r find
Ġco in
Ġ` _
pub lication
ĠSet tings
fit ness
201 3
Ġenviron ments
u ing
ĠS I
ĠH ist
DE L
Ġ4 2
(** {
alloc ate
Ġpot entially
ĠC ar
ĠSe cond
DI T
Ġredu ction
2 24
ist ent
Ġpath name
Ġpy lab
12 9
float ing
CON TEXT
Ġcoe f
Ass ignment
di strict
Ġv x
ho re
Ġid le
api key
ATI CAL
lst m
D H
c ats
is class
Me di
Ġsign atures
cogn ition
ony ms
Ġur wid
HEM ATICAL
u gh
Ġ ancestor
Ġt ier
Ġurl encode
close st
Ġoper ating
Ġalloc ated
ĠMAT HEMATICAL
' /
G ING
Ġe item
set sockopt
mo vie
ĠDe tect
pher ical
k n
Ġw eld
type d
ĠC ore
Ġcomm its
EX CEPTION
gp g
segment ation
Ġinv oice
Ġbuilt in
rgb a
Ġflux es
ORIZ ON
_ \
Ġin vocation
ad jacency
'] }),
Ġg ray
Ġsub plot
pos itional
Ġtag ged
na if
ĠCh ar
: /
B IT
cl f
Ġbackend s
Ġans wers
Y ear
con versation
to po
ST Y
Ġ4 01
Ġtrack s
G ml
a way
ce an
request er
AUT O
stand ing
Ġdebu gger
sib ling
st h
Ġf obj
ur st
() ._
new lines
Ġport al
ĠGener ic
integ ration
contact s
t len
Ġf m
Ġp rune
ine tobacter
ĠW here
Ġstream ing
del item
Ac inetobacter
Ġ201 7
M R
Ġst em
__ ('
Ġh p
), )
Pro j
EN TRY
Ġplace ment
NORM AL
T ake
y max
ä ¹
ot onic
Ġco pies
ub y
Ġdi rections
unt u
ĠIn teg
Ġextra ction
Ġput s
Ġconfirm ation
; '
h am
Ġla m
Ġ3 5
Ġz lib
$ (
] ':
i ator
Ġp wd
Ġs vg
con sensus
ĠS tack
ĠG ot
Ġenum eration
Resource s
w eld
} (
¦ Ĥ
ĠS W
ex on
ĠD ynam
Ġtra verse
Ġmo vie
author ize
Ġfo ot
S ensor
ĠN V
Ġk s
item getter
be low
Ġper mutation
Par sing
err msg
Ġalt itude
M F
Ġr u
Ġpro pag
mo id
Ġextract or
Bind s
b at
Ġ journal
00 8
ĠM IN
ject ories
Ġinter cept
Ġimp l
sql alchemy
n py
v max
RE SH
le ading
con ns
ver gence
Ġh ue
temp ted
ome tric
ik o
Ġepoch s
Ġtun nel
" ^
+ (
ub ble
ĠF ull
ĠR ender
sub dir
def er
Ġlos ses
T B
en velope
Ġm ention
ĠC allback
min i
iter ate
Ġover flow
Ġ6 55
Ġassign ments
Allow ed
ut ral
Ġ""" .
ĠT urn
Ġ{} .'.
ST AMP
temp oral
Ġfla vor
Ġwidth s
Ġgo al
Client Error
Ġcap abilities
R G
f ort
x mpp
re cipients
Ġf b
Ġf old
Ġm arginal
pro blems
stri ctions
Ġdis cover
mk dtemp
trip le
k k
w rong
pt ype
sc all
SE CTION
sign atures
Ġpoint ing
full path
micro second
Wh en
U tf
] _
f resh
m cs
Ch art
aff ine
jac ent
st ations
() })
aa a
Ġprodu ction
L i
M Y
d ue
p ivot
de mo
ub ic
Ġbreak s
ar ith
la mb
th ree
ĠN B
mig rate
F ault
per mutation
ĠS A
ĠC RE
Ġprint ing
fil ing
net ic
Lo ss
ĠTrans fer
/ {}".
} [
Ġ` .
Ġen semble
trans it
effect s
R Y
m ro
ĠT ab
(" .",
Ġas n
Ġdi vide
sa y
lit let
Con tract
cor ing
fore cast
DI ST
built ins
t witter
ĠS park
Ġout going
([ ],
SE ARCH
direct ed
cla ims
sto res
rat ios
ĠEnt ity
B AR
User name
Ġthrow n
N ON
P D
Ġp sd
Ġscal ars
tool kit
repos itories
E mbed
H A
te ctions
ĠA p
ĠC a
Ġv ary
sc anner
LA l
=_ ('
OFF SET
P ack
e y
Ġs co
um idity
con currency
ĠC UNE
ow el
pre fetch
Le g
Initial ises
Push Button
İ· åıĸ
ĠCUNE IFORM
h unt
vr rp
RU LE
! \
O ID
x FFFF
z o
Ġac cessed
igh th
]] ]
proto buf
Ġgradi ents
Ġqual ified
ĠPass word
P ID
Ġs wagger
ĠS ec
unc er
pol ar
OP ER
Ġfit ted
Ġaz imuth
LAl chemy
D uration
c and
Ġg aps
()) ]
trans lator
ĠConfig Parser
ĠReg ion
IST ORY
FLO AT
) '.
Q E
_ ))
s co
fi sh
Ġhe artbeat
und s
Ġpre ference
ĠW arning
lib raries
Ġj wt
av ailability
Ġloc ate
ĠId ent
WA IT
contig uous
CONT RO
Ġimpro ve
or table
ĠT LS
ĠLo gger
Ġseparate ly
ĠRO OT
ç ¬
Ġy y
ok ing
ast ropy
fore ver
sort ing
sn r
Ġsubject s
Ġqual ifier
Ġt ls
Ġpre process
ĠComp utes
Ġanaly ses
Select ed
Ġdl g
7 000
t ie
de an
Ġg row
Ġdump s
Wait ing
0 32
i ser
å Ĩ
ER O
tra ces
Ġle aves
sum ers
Speci fy
ĠInitial izes
Ġinsert ion
feed back
Ġconv olution
confirm ation
U D
Ġo sp
Ġh olding
Or d
Ġmig rate
Ġpriv ile
Ġmodification s
DAT ABASE
iel ded
Ġst mts
ĠP RI
In voc
mit ives
ĠEx it
gre ssion
ĠWh ich
Ġdecor ate
associ ation
ĠP mag
Ġal location
Ġtri angle
Ġaccess ible
6 01
x a
pa st
Ġz ones
of s
part ner
est ed
Ġvis ibility
Ġapproxim ate
persist ence
2 04
A m
Ġc and
Ġpre ce
cho sen
members hip
co lored
Ġh w
select ors
bro ad
Ġag ents
Ġcoe ff
å ¾
Ġ2 9
Ġcol lapse
hand shake
ne monic
Ġtra ces
cor ner
ĠSt at
Help Formatter
Rad io
/ :
H EL
] .__
re index
Ġm pl
ad vanced
ĠA ES
ĠM ac
ĠH ash
TE GER
build s
Ġconnect ivity
cla im
artifact s
+ ",
m oney
Ġc sr
Ġde livery
graph ics
Ġhy d
cnt l
k in
n rows
Ġr g
ds n
Ġroot s
Ġpk gs
Ġforce d
Line Edit
ĠAs set
Dec orator
ĠLine ar
DIRECT ORY
ucli dean
Ġp ic
ret ty
US H
card s
web hook
Ġcla im
Ne ed
Ġaz ure
_ ()
Ġin i
'] })
Ġtext ure
Ġval u
equal s
S ending
c ash
Ġtype d
ĠN umpy
Ġblock size
('= ')
e ven
in cluding
Ġ' >
Ġfor k
um i
pro x
:] ):
PO INTER
Ren derer
enk ins
+ "\
F inal
U sed
Ġ' )'
Re moving
=' ?',
In clude
"] ],
ĠCo ord
spe ech
pur ge
ĠGit Hub
replic as
C LE
` ."""
re z
ime d
Ġr sa
pa ste
Ġsub dir
11 9
Bo ard
Ġschema s
Ġri sk
M ATCH
n w
Ġv r
ph as
tra ding
ĠAt tempt
? '
d og
h ue
l te
sh p
err s
io loop
PE D
Ġassoci ate
Ġsql alchemy
Ġlate x
Require ment
STOR AGE
de clare
ct ree
Ġn umb
lo yment
un able
Ġwe ather
Ġ[] }
ĠAr t
ĠSh ort
Ġbuilt ins
Pay ment
? ",
ã ģ
re achable
al n
pe ers
ĠC ase
om ation
loc us
Ġcalcul ations
Ġrelease s
ele ms
Ġcontrib ution
p Next
de que
Ġm l
() [:
Ġexce eded
Ġal ter
Ġ$ {
Ġfeed back
Ġi ps
Ġe mails
Ġto ks
Ġ1 27
=" {}"
ne tes
ne cessary
Un recognized
FO UND
uber netes
s izer
s andbox
Ġd ash
Ġpre f
Ġrep lication
writeField End
writeField Begin
M X
Ġc txt
Ġf tp
Ġf irmware
Ġ' ('
ĠJ OIN
Ġgraph ic
Ġrespect ive
nost ic
- \\
¦ ģ
Ġst anza
AR RAY
Ġpop ulated
termin ator
Ġperform s
CHAN NEL
Invoc ationError
> /
n ullable
æ Ķ
Ġco lored
Ġdi vision
Ġback off
seed s
W I
c pp
h al
x ls
Ġf ft
Ġp rt
Ġx r
man ence
]+ )
* )
] [:
} $
de tach
Ġi e
Ġs lic
are as
free ze
big query
QUE UE
("" ,
C ENTER
c raw
t te
Ġn cols
Ġsegment ation
screen shot
ĠSalt Cloud
ĠSup port
ĠTer min
b as
d scp
de termine
Ġ: ],
mat rices
ĠIn stead
do ck
Ġport ion
Di rection
13 5
Dec lar
è¡ Į
E TH
am i
pre dicates
Ġle ase
AR M
Ġfore ground
Ġsol ar
Pix map
de part
Ġb rain
=" \
IN D
Ġfunction al
Ġ'{ :
gre ater
Ġdimension al
Ad ded
('/') [-
ĠMag Rec
I SS
] **
f ld
k le
Ġnew lines
RE N
A w
h mm
q name
de tection
Ġ' ..
Ġ{} }
ĠR DF
Ġpos ix
Ġad v
Ġstat uses
adapt ers
Ġser vicer
n es
n args
æ Ń
open flow
Ġexp lanation
ele gram
Ġm type
Ġm iss
line width
ĠH O
Ġab spath
Ġgra ce
Up dating
Bg NV
atern ion
N I
b ill
h gnc
p seudo
er ry
Ġb are
)) ])
sub tract
inter mediate
no me
Sy m
}\ '
Ġequal s
ber os
Ġstage s
= ()):
Z X
d na
Ġsub scribe
ll ing
EN O
x sd
er ated
Ġsub domain
inter action
Ġvar name
Task s
Ġcipher text
ĠRo le
Ġ é
(" =
ĠF ail
Ġcomp act
Ġsplit ted
exce l
drop na
System Exit
Ref resh
GRA M
Cy cle
3 60
C AN
ĠT R
Ġv k
Ġch allenge
De lay
Sub scription
Default s
Dest ination
a de
s ockets
de mand
Ġs pread
data source
ĠS cope
us hed
ĠM ar
Ġsee m
G u
on tology
fi ci
ma chines
Ġg r
Ġpro tected
mo m
ĠB ro
ĠPar am
Sub net
Ġpost s
rer ror
assert ion
Ġut ter
ĠCON FIG
Ġmot or
W ave
f A
key board
ĠC SS
py c
ĠDe termines
Try ing
re comm
it ations
Ġd z
ul ename
disp lace
ĠPro duct
Ġstop ping
PAT CH
Ġoverla pping
R outer
i ated
p ressed
in cr
Ġf cntl
Ġst ra
set Current
ded ent
Ġop ener
chunk size
Ġoc currences
COM MENT
æŀ ľ
b log
ĠL ast
ĠB ound
Ġent ered
13 4
pen alty
Ext ra
mot if
distribution s
Ġbra cket
arb age
Ġcomp utes
Co mb
Ġav ailability
Ġinherit ed
ĠNum Py
a ware
Ġdiff s
Ġfinal ize
Mark up
b ow
Ġre build
Ġb rightness
ĠA D
Ġfunc s
Ġannot ated
eig en
I ES
ver ification
Ġl and
Ġch k
Ġhas n
pop up
-+-+-+-+-+-+-+-+ -+-+-+-+-+-+-+-+
æĸĩ ä»¶
d um
Ġb ag
par m
Ġv env
Ġcomp osition
EN CODING
ĠInter face
åĲ į
ORIZON TAL
E F
Ġ âĶ
Ġp res
Ġof def
TRAN S
nat ural
G C
b anner
o grams
ren dered
ĠS calar
Ġpath lib
ener gies
Ex ternal
... ]
Ġinter actions
TI ES
disk s
Ġalle les
CUR RENT
L ight
Ġre member
ĠM IME
MO D
COL UM
Ġmk dir
ĠVER SION
part icle
ĠAn alysis
bound aries
åı ¯
V ars
n av
re actions
Ġp ivot
ra gment
Ġpro bs
Ġan imation
ĠRe quires
color map
Ġwrit able
OS Error
ĠHand ler
Ġ Err
Ġ' ~
tra iling
Request ed
Ġadjust ed
Ġsuc ceeded
oct et
S ys
w ap
ra ck
ri p
Ġdi ameter
mb l
10 3
iss ub
Ġinfo s
æĪ ·
9 00
P latform
S li
ot ing
data s
str ong
ls db
success ors
Ġexpect ation
^{ -
BIN ARY
Named TemporaryFile
p st
ł ģ
in active
Ġn rows
Ġs phinx
Auth entic
Ġwa ys
[ ]
Ġp si
Ġs anit
pre pared
Ġsp here
fla vor
ĠPy Funceble
Al pha
Update d
ĠPo ol
ĠMy SQL
= """
C ent
G ame
op h
cur ves
Ġsuper class
Ġac quire
AC TIVE
IL L
chrom osome
K ernel
se gs
Ġl ng
---- ---+
In dent
Ac ce
gu ard
Ġrelationship s
s lack
s weep
Ġs anity
ĠV ar
limit ers
Collect or
E AR
a h
j p
u k
Re ason
join ed
Ġpe ople
delay ed
ĠLoad s
ev t
F ast
Y ield
} ).
Ġw rapping
get text
ri val
Ġh box
Ġ% %
Ġle m
Ġsu bj
local ize
PRE SS
B lob
P otential
R DL
u oa
ĠT wo
Ġpre set
ĠR etrieves
Ġurl join
PE G
exp ansion
RA M
ĠTime stamp
ffic ult
Public Key
up ling
ĠS Frame
ĠS trip
Ġ`` .
ST M
stream ing
appro x
: {}'.
F MT
Ġs np
"" .
ĠN X
Ġexp ressed
fin es
Ġps f
calcul ated
ĠS TR
CH O
= <
_ *
ur k
ap ache
sp read
ĠA UT
ex periments
Ġv ault
ca ff
Ġsign er
sym metric
chedul ing
Ġprodu ces
Binary Protocol
S Z
Ġs x
pro pagate
=' *',
ĠD ump
we ather
ĠAn g
Ġdir path
ĠOR DER
B ank
N s
Ġy lim
bu dget
Ġmax len
Map per
pred s
produ cer
Ġface t
F lat
un e
Ġr ating
== "
Ġ/ *
DE FIN
cent roid
Ġrece iving
Ġcorrect ed
database s
Ġequal ity
Ġmulti part
xx x
Tool Tip
CRI TICAL
= \"
b ib
n k
y our
00 4
ĠC L
ĠP ower
"] =
np ack
ne um
Ġtra ffic
ident ities
:] ]
esca ped
ĠReg istry
fire wall
Ġsear ched
F requency
Ġd ont
Ġm en
=' <
su fficient
Ġdot ted
pn l
So ft
ĠWS GI
Ġconvers ation
/ _
A ggreg
Ġ" '"
ĠD ay
Ġcol lision
AC H
dat al
Ġloc us
ĠUp load
tlen e
W ITH
ne utron
Se cond
LO CATION
ĠConfig ure
Ġtrain er
ĠContent Type
Jo in
/ \
Ġre write
ĠS upported
Ġcontin uation
:// '
Ġsingle ton
bound ing
Check er
Word s
Cap acity
scr atch
Cir cuit
STO RE
i q
n umb
Ġs anitize
Ġr f
ph on
Ġconfig parser
map hore
11 6
expr s
36 00
F un
Ġre named
iz ard
Ġlo t
ok u
ab f
Ġz f
:// {
Ġannot ate
cod on
W R
Ġe ver
Ġde clarations
and i
Ġpub key
REGI STR
I ssue
Ġd raft
ĠT r
00 2
ĠA tom
sh ader
Ġdist ro
PO SITION
ĠArgument Parser
nick name
c riterion
u ck
w args
} })
Ġcheck out
do f
File Handler
sv d
Ġplatform s
Ġmot if
bon ds
ä¿ ¡
S lice
è ´
st ra
fo pen
ĠE very
)] ))
Ġsplit ting
201 2
Ġcert ificates
ĠPo ssible
! ',
f lex
k ern
y ond
Ġc url
he res
time step
Ġpart ner
Ġerr msg
single ton
subnet s
plain text
CR Y
è¡ ¨
? ")
G ene
b rightness
d g
o ids
Ġ' +'
un lock
set Window
Ġl t
im mediate
Ġbreak point
f ps
h u
n ight
z fill
in y
Ġ' ))
Ġb last
col lision
Ġcol on
Ġprogress bar
æķ° æį®
altern ative
' >
, [
] _.
il ence
ĠU nsupported
Ġca ught
Ġinst itute
Ġ'/ ')
break point
watch er
x m
Ġst amp
is abs
op acity
loss ary
stage s
mig rations
âĶĢâĶĢ âĶĢâĶĢ
RDL Parser
q m
and roid
Ġcon trast
ile stone
=' +',
vide os
Ġli quid
Ġlisten ers
phan um
. -
æ Į
Ġc rash
Ġs coring
Ġm b
Ġpro d
comp any
ĠUn ix
Ġcounter s
CL UDE
abb ix
Ġto ggle
Ġen velope
Ġrep lay
conver ted
B ranch
Q P
ĠV AR
ĠL C
ĠR ed
ĠExec ution
Dest roy
} |
st ash
Ġt abs
ST ACK
ĠH igh
ste md
TR UE
enum erate
ĠExt ension
(': ')[
Ġmot ion
ITE M
ĠLay er
j peg
Ġ Keys
set Attribute
Ġra ising
In dices
tra il
Group Name
omatic ally
cr umb
Ġconcat enate
Ã ³
ĠA sync
ĠL i
Ġcor r
Ġbyte code
pan els
Comple te
Conf lict
Ġguarante ed
E ffect
q ry
} %
Ġde crypted
di ence
Ġ'' ',
thro at
e levation
t umor
er c
Ġi b
Ġd uplicated
Ġv id
lu ence
Ġk b
AL LED
sy co
Ġissue d
ĠPo licy
TC C
contract s
Ġapproxim ation
Combo Box
A v
x en
ç łģ
Ġre moval
Ġm f
la beled
Ġ( ('
ri o
vi p
Ġ{} .".
for ced
org an
Ġestim ation
TA IN
L ow
p aper
re me
Ġcon cept
mat mul
IG H
ene ss
lon s
ĠAl tern
Down loading
R etrieves
T U
x fer
Ġp ng
li e
pro m
pro cal
add Item
log ic
vis itor
Ġidx s
Loc ations
Ġdescri ptions
Termin al
! ",
M ER
P layer
d ra
å ¹
in crease
ate way
ype redge
Ġse crets
Ġat ol
Ġfield name
Ġtra cker
Str ategy
Ġcmd line
US B
cb c
math bf
}{ \
syn chronous
Ġ201 4
Ġre stricted
Ġde serialized
ĠS DK
Ġget pass
ĠM at
IN I
string utils
block chain
ĠPar ams
Ġindic ated
mut ually
Ġretrie ving
Ġmar sh
contig s
åħ ¥
Ġo sc
un register
ment ion
ci procal
ĠIn fo
Ġrun as
Ġmat ter
Ġuni versal
Ġph on
tick labels
dh cp
g ender
k u
ã Ĥ
Ġde lt
() [-
ĠC ER
ĠM ore
ĠH as
Ġ[{ "
* ')
h mac
re use
Ġ1 99
ĠS ync
Ġon line
py wbem
Ġpre p
Ġtrans it
Ġlib rosa
Ste ps
P ref
T D
Ġ (),
di scri
own ers
LOG IN
car tesian
VALUE S
Ġinstanti ated
P ipe
R atio
T a
in ode
Ġf av
Ġb ars
ul ating
di vision
is y
Ġex periments
ĠW H
ID S
Ġpy mongo
Pre view
super cell
Ġarch itecture
ĠDec orator
h m
Ġd v
mp s
Ġ3 6
Ġac cur
AC KET
pass phrase
11 8
UR ATION
driver s
Vert ical
) },
F ALSE
Ã £
in terest
Ġp ct
__ ",
diffe rent
RET URN
4 32
h param
or um
ĠS m
ĠD rop
DI FI
Ġ'/ ':
ater ial
Format Error
Command s
ĠAli gn
g allery
Ġw it
Ġw ent
ĠP osition
Element Tree
Trans ition
CS V
Ġacce ler
CI I
cancel led
U MP
Ġin creasing
te ch
'] ].
Ġg pg
bu ses
Ġtime step
Rule s
Arch ive
M s
R D
re tention
or ph
Ġs bp
ĠN E
ca o
ĠCo mb
Ġtrain able
REMO TE
f onts
de termin
Ġp name
read ers
cs m
Ġmin im
Se conds
Ġman ip
]| [
CONNE CT
L ER
P DF
i mplementation
r ss
Ġ< %
Ġ" `
[' <
Ġl xml
per c
im ate
ER ENCE
max len
... ",
Ġ"{} .
VI EW
Ġe pi
DO T
) ``.
Ġr y
che m
time steps
Ġsh lex
Ġwas n
ATI VE
ä¸ ĭ
Ġbl k
xim al
Ġrdf lib
interpre t
recur se
* ",
F LOW
J obs
at tack
ĠS tyle
sh ifts
lic enses
tra js
from Utf
Ġtri ed
ĠQu antity
ĠBy te
visit ed
SIG INT
evalu ation
Over lay
Ġcancel led
pex pect
Ġuncer tainty
st s
Ġe th
col lapse
=" /
An chor
sha res
ĠRE AD
Ġau g
_' +
Attach ment
Ġre act
tr s
Ġoptim ized
Ass oci
' \\
s coped
od o
ec c
lat er
ĠRun s
Ġvari ation
extract ed
Ġmembers hip
enari os
éĹ ´
u u
art icles
ST D
reg ression
Ġgener ally
255 19
ĠSo ft
ĠResult s
MET ADATA
arct an
Ġs light
Ġst icky
Ġpro posal
('. //
SU FFIX
Ġcid r
ĠPub lic
Ġrepos itories
syco pg
P atch
ar ches
Ġc itation
Ġ( ((
=' ''
Ġ` (
Ġref ers
Ġcomple tions
Ġspect ral
ĠFin ally
f ri
i B
n od
in ception
ĠS ER
ran e
reg round
01 7
Ġsym metry
Ġmonitor ing
Ġmicro seconds
TIFI ER
) [:,
9 000
M IS
O VER
å ¸
Ġto ok
ĠR oute
ĠH z
Ġ[" -
Const s
Cal culates
ĠSalt InvocationError
GEN ER
H ex
': [
ĠO rigin
ab ly
Ġreq s
Bad Request
N L
me ters
con sistency
all close
Ġal gorithms
ĠR A
Ġweb hook
Server Error
Ġsimp lify
ĠCO M
! ='
T s
ar ded
tri ps
Ġsub tree
Ã£ o
3 64
S ql
ĠI NT
Ġkey ed
Ġstruct ured
('. /
ĠAl ways
PARAM S
osa ic
Ġdeci de
Ġ lim
Ġb ul
form set
Ġsub scriber
ĠSQ LAlchemy
tlene ck
u fact
er ing
Ġi mt
Ġin tr
Ġg d
strip ped
writ able
Ġinterpol ated
Ġquot a
ĠPri vate
Ġb ump
tr usted
ĠL iteral
ĠL azy
([ ('
has attr
Dis able
ĠBo x
LD AP
Ġenter prise
b irth
Ġa min
li ver
key file
Ġchange log
CH UNK
mac ros
Sample s
T ick
a jax
in er
Ġn f
ĠF AIL
ĠN ext
ans i
Ġpri ces
Ġdatabase s
dev null
ĠOn ce
some thing
!!!! !!!!
) ^
N Fe
y ticks
Ġ[ {}]
ĠD ynamic
ĠSim ilar
Short cut
H int
u ds
Ġse cs
ĠE L
new s
12 6
Ġfin ite
Ġpol ygons
Ġaggreg ated
bra cket
ĠAuthor ization
st rerror
Ġi c
Ġ' `
ver ifier
ant ic
Get ting
SO CKET
Go ogle
desk top
N F
V K
f ers
---- --
ĠD AG
Ġread only
12 4
Ġad jacency
radi ent
ĠName d
cd n
CODE S
ĠCF G
c amel
å Ģ
Ġs moothed
ra ses
is at
Ġsh ifted
Ġz order
ne ar
conver ters
Symbol s
pur pose
Ġnat ural
ENABLE D
' `
d arwin
Ġ ç
cre ating
fn match
ĠMe dia
ĠNormal ize
Ġsatis fy
VARI ABLE
P seud
S ig
w or
an chors
Ġ""" !
open id
ome tries
ĠPro xy
prot otype
Sh k
åı Ĥ
virtual env
typ ename
Gate way
åį ķ
L ists
tri ed
Ġz s
Per m
grade book
diag ram
break s
Ġeas ily
3 16
st ars
um ann
und ers
ler t
environ ments
Ġpol ar
CP U
Ġsilent ly
p im
Ġi py
Ġg ender
Ġsy llable
Path s
fill na
Ġund o
Ġquad ratic
åľ ¨
A udio
m peg
Ġde clare
li gh
am ble
ĠF ilename
ĠPer forms
Ġlc dict
Ġaff ine
F ocus
M aker
S Q
z illa
on ame
de bugger
Ġ" )"
ĠL ike
Ġoff line
CH ED
car ded
C tx
K B
V BoxLayout
¾ ç
te ams
Ġr up
Ġv cs
pre serve
oc or
ĠR SA
Ġcor o
Loc ator
ship ping
gno res
Ġpartic les
Ġele ms
p res
x ref
ĠA ir
), ))
Ġtra ined
Ġrep orter
the docs
Ġ'# '
d ri
m illis
Ġp bar
Ġd rag
(' &
key space
ĠF ill
Ġ` '
Ġte le
no va
block size
Ġclo sure
PAR AMETER
Ġpur ge
Ġ' ).
ri sk
ap se
ab ric
Ġinteg ral
compat ibility
,, ,,
V ATE
r na
à ¯
ur a
ĠS UB
]) /
Ġun available
Ġare as
Ġsh adow
Ġmax val
rep s
Ġj ac
PO SE
2 25
g file
Ġde scriptors
() -
ĠV LAN
rect angle
FO RE
ĠDE LETE
Ġhy pot
aff inity
ĠIter ator
sensor s
A gg
o ol
x e
In ference
()) ):
ĠDe st
Ġ(' %
######## ####
AS CII
Ġli g
attrib s
pet itions
dead line
R aster
o logy
ph en
ph ys
min ions
ĠEx pect
ron s
ass ume
13 8
gap ic
M G
w ell
Ġst rength
Ġdata source
Ġ`` _
TI T
ateg or
'} ),
Pers on
Separ ator
ĠMeas Rec
Ġre corded
lo st
ch ant
now ait
Ġnetwork x
cluster ing
ĠHe at
Ġexceed s
S igma
ro pping
kw d
ĠE S
Ġne utron
64 00
Ġwork dir
ĠPro perties
acter ium
Ġplace holders
ĠConfiguration Error
Bl ue
. ))
B TC
n able
t urb
w g
en ium
de e
un zip
te ins
tri als
Ġassert ion
+' /
Ġocc ured
" ``
' ')
L exer
Ġ urn
Ġas semble
ĠP ress
10 6
Ġche mical
' (?
re write
en queue
Ġs coped
Ġw sgi
Ġma chines
Ġfield names
Ġ\ "%
stop ping
sys log
================ ========
mut ex
Filter s
spin Box
LAB LE
Ġocc up
O k
on oi
st anza
Ġt ur
un quote
Ġpro portion
read thedocs
Ġmin imize
LI P
xml ns
ffect ed
Ġsim ulate
exclude s
$ '
D NS
b fd
set state
Ġh l
ĠA BC
ĠS n
und ance
ĠB l
ste mp
Ġsc anner
CO OK
('{} :
SUP PORTED
P i
Ġf lex
Ġproject ed
Meta Block
Ġband width
hemer al
G IT
Ġf ed
ĠA void
ME TRI
="" )
ĠThere fore
Ġur lopen
ĠTag s
G uest
he ses
ad m
np z
ĠCon tin
Ġblock chain
For ward
CATE D
ĠEnd point
e thernet
ar o
an c
Ġp list
ot ed
), (
ĠS K
mm er
ĠM P
so li
Ġ'- ',
API Error
Token s
Ph ysical
ĠCO MM
lica Parser
Dispatch er
. ]
F P
Ġde part
ot s
th ough
fo reground
Co lour
ĠCon tract
Ġmo ves
salt env
G PS
a q
m usic
} ):
Ġv t
ĠP UR
ĠG P
Ġso on
Ġfetch ing
dec ision
å¯ ¹
> {}</
C ert
M ongo
Ġre call
temp orary
Ġ4 8
Ġclass path
trans formation
Ġfit ness
Ġart icles
Ġproto cols
gu ild
b urn
re covery
Ġn orth
ĠA CL
of fi
Qu ant
IF T
Ġseed s
ĠWidget s
g mt
k p
r just
Ġo m
par sity
Ġerr s
AP PS
HEADER S
partic les
XY Z
Ġ################################# ################################
C ross
_ '):
d K
Ġi mplements
me tic
Ġbe h
ca ch
Ġat tempting
vert ise
open ed
No ise
Dis position
sur f
Depend ency
ufact ure
R edu
pre pend
Ġwe bsite
son gs
iter keys
Ġtran sp
ose Version
CER T
g if
at tached
Ġs weep
lo ci
Ġ'' ):
sub tree
Ġ-------- --------
13 0
Ġderiv atives
Supp lied
Ġs ockets
Ġe ff
format ters
ĠU SER
St ates
Ġdisk s
sli de
Ġreject ed
Ġide a
ĠEl se
D ROP
J K
c data
t ilt
Ġf uzzy
Ġa i
ro de
ve al
Ġsh ut
De leted
glyph s
MAP PING
ĠCON F
Ġlisten ing
C rypto
al act
__ ).
sp i
group ing
Ġ'* ':
Ġpred s
re motes
on iae
Ġs ho
get members
ch isq
ĠS AS
tri ggers
lif etime
Ġset uptools
ĠM B
ll ers
Ġbyte order
Ġdesc ending
NotFound Exception
v k
v fs
x z
± »
in ated
Ġt re
ed y
ĠS yn
Ġme ters
In correct
In strument
RE SOURCE
Ġmax iter
cy an
Ġmult iline
pub sub
Act or
ĠAc cept
?? ?
La unch
umann ii
g aps
al ic
sp line
Ġg old
size Policy
ĠB oth
lat ency
Test s
sr v
Ġba umannii
Dynam ic
P ag
Re moved
ab ling
run k
loc ities
14 8
Ġdiag ram
Ġmultip ly
Ġst acked
Ġh g
pre ferences
ĠH A
AR GS
File Type
build ing
Ġdown stream
Ġactiv ated
INTER VAL
regular izer
Ġpagin ator
deriv ative
EMP TY
ĠCI RC
P lan
b lo
l un
v z
Ġ que
set Checked
Ġ[] ),
'. "
ĠJ s
ĠComp are
ĠEX ISTS
: '):
P lain
c lic
d V
sh o
ĠE V
ho ver
ĠMongo DB
neum oniae
b v
de rers
li ation
set Icon
ĠB L
view port
cache s
[:, :,
Ġshow ing
Ġpub lication
ĠDi rect
ĠZ ip
micro soft
sat is
ä¸Ģ ä¸ª
Ġweak ref
w al
} ({
Ġl max
Ġk o
pri ces
trans lated
ĠRE QUIRED
ĠSign ature
p ure
Ġin form
as afe
Ġg uid
ph ases
ANG O
EXTEN SION
W O
Ġ ancestors
ĠA TCC
ĠS ci
pa used
Ġ[' --
For Width
RUNN ING
W ER
k ube
EN TI
Ġab sent
mount s
RAN GE
Declar ation
> :
n tp
o ken
æ ³
Ġo dl
Ġb w
ul ls
ap y
ap ing
ĠC AS
Ġauth ority
ĠId entity
Ġrs lt
UST OM
Extract or
Height ForWidth
å® ļ
ĠFAST A
B ATCH
O ri
c en
in clusive
re lay
Ġ- (
Ġsh ortest
Data Array
oth ers
du ced
istr ator
gre y
Ġexit ing
YY Y
ĠWork flow
Ġoverrid ing
Ġpen alty
ĠDep end
Ġsib ling
STY LE
C lasses
Ġb ench
as sth
Ġstr ong
ĠF ITS
Ro les
Ġdatatype s
2 10
S CO
u um
re levant
ro oms
ver sible
ic a
ĠP K
Ġun packed
we red
ĠIn formation
DE SC
De code
def ines
the tic
spe ak
Dis abled
Ġfreq s
ĠConnection Error
partic ipants
('" ',
CLO SE
ATTRIBU TE
Pseud omonas
) ][
and ra
Ġx lim
Ġla mb
host ing
De leting
File System
Path Spec
Ġsolution s
Pix el
n grams
s ch
z ier
in ches
Ġi on
he t
Ġw c
xt ures
Ġco mplement
=' #
Ġlog level
ateg ies
Ġab i
Ġdirect ives
Ġhead s
Ġdelay ed
Ab ort
I llegal
"" )
Ġ3 4
CO UN
Ġ~ /.
ĠAR ROW
WA RE
ĠDate Time
= ':
co o
commit ted
ĠBu cket
alloc ated
Ġfront end
Ġdenom inator
A IN
p ca
on sor
ct s
ĠT F
key stone
Ġ[ ("
Ġg h
ĠF lat
Ġnode list
Ġ} ]
... ',
Ġmin us
Pro t
Ġtemp oral
Object Type
alleli sm
; ")
S yntax
li day
'] [-
ĠRe cognition
da e
Ġapi key
Sh ared
enter prise
comb inations
MI SS
uest ion
I AL
S pan
e os
i ot
i log
n z
p sa
Ġt ex
ĠT or
ĠA PP
01 5
ĠDe letes
present ation
KE D
ven io
Gener ates
Ġmoment um
m ongodb
Ġt im
Ġg ates
Ġkey file
ip h
ĠL IG
serial izable
normal s
LOG GING
Ġaccording ly
Ġfire wall
Ġ""" \
data center
ĠS UP
De termine
33 3
Ġsk learn
67 8
Ġanaly zer
Ġcar tesian
Ġfraction al
Ġi am
Ġreturn code
ĠA B
pro filer
bu gs
Ġtext wrap
Me m
Desc ri
________ ________
ĠNV ML
! )
D M
g is
h aps
Ġb gp
is in
Ġh aven
Ġ1 000000
Ġby pass
{} -
tra des
lat s
gin x
specifi er
Ġgu ide
Ġn id
di go
00 9
Ġpro posed
ME N
Ġsy mpy
ret val
radi ance
IP V
Content Type
anis ation
Ġpmag plotlib
pagin ation
MULTI LINE
3 15
U G
Ġp type
Ġcon c
Ġl an
ĠW CS
cache dir
ĠJ WT
02 9
Ġ'- ')
BO SE
ĠHand les
ĠMetri c
c name
f ts
é Ļ
Ġe levation
'] )))
Ġident ifies
QU O
follow ing
C n
C amp
m illiseconds
p key
re wards
Ġ[ ['
ĠG ra
check box
Me mbers
mon er
orig ins
Coord inate
nost ics
Ġoverla ps
H unt
U Int
st ab
Ġre li
par ms
key val
log dir
sub domain
gra ding
Ġq t
Ġhash able
tab ular
Ġang ular
TIME STAMP
Ġsav es
åĪ Ĺ
Ġepi log
+ ".
O wner
Ġ' ),
', ',
ĠEx port
Ġqueue d
Ġcla ims
ĠDim ension
ĠSaltCloud SystemExit
ce x
Ġ' )[
un ities
Ġme ant
Lookup Session
discri minator
C AT
p laces
Ġs pherical
Ġw ide
ĠI AM
Ġpy tz
cap ability
Ġ'* .
embed dings
Ġmut ations
Ġsur vey
WOR DS
delt as
A E
D ig
co var
Ġm alformed
Ġan si
ĠE qu
ll dp
ĠIn dicates
==== ===
Ġtmp dir
ĠCall s
Cre ation
Ġcons umption
\ ":
ur istic
oc currence
Ġhttp lib
Ġnon zero
Tree Node
Da emon
B and
d q
py ramid
Ġmin i
Ġmin ions
keep alive
Ġ". ".
ĠSN MP
n h
Ġme s
over view
ĠMe asure
Index Error
Ġserial izers
Ġown ed
Char acter
YDV QQ
A Y
_ ='
Ġ à
Ġ arn
Ġc am
)) **
Ġ[ <
ĠC ertificate
AL Y
Object ive
27 3
Ġsent inel
ĠCh ain
ĠDist ribution
Ġlif etime
M er
S elf
_ {}_
p format
x or
Ġf atal
=' .',
Ġan onymous
Ġun specified
sub classes
Ġsu fficient
Ġallow ing
direct ives
cla uses
Number Of
Ġcent ered
micro seconds
U C
Y AML
o DB
è ¦ģ
ro unded
ĠC LA
ĠO p
Ġsh all
Ġpart y
Ġsp line
serial izers
las ma
Ġmark s
Sh are
An not
ĠIN DEX
Micro soft
re ach
Ġs atellite
ate l
ch ie
ed ger
lob ber
Ġ4 03
32 7
Ġfind s
Ġdownload ing
Ġalloc ate
Br ush
S OR
Ġc rs
Ġre covery
Ġco vered
class ified
Ġpre dicates
Ġsup posed
}, {
Ġad vance
Ġri ch
ĠEvalu ate
er ied
Ġs caff
Ġde mo
ma de
Ġ: ])
ĠA F
base string
Class Name
Col ors
Ġ"{} ".
åı ĳ
buff ered
pat ched
Ġslight ly
C li
st acked
Ġre lay
Ġre cover
Ġp run
ĠR ad
sub scriber
Ġdis connected
Ġ'. ')
Ġav atar
Change s
Page d
%% %%
Comm on
er m
le cular
Ġin direct
Ġs as
get argspec
Ġg f
Ġv p
ext ents
01 23
sign er
11 3
Ġexist ence
03 5
Event Data
coe fs
Do cker
calcul ation
D id
ul ates
to s
13 88
anno unce
H S
T MP
g ss
Ġbe yond
Ġpa ren
Ġ'' }
Ġper mitted
Ġper manent
Ġwork around
termin ated
ND Array
syn chron
Ġamb iguous
Ġresidual s
A ES
g old
m arginal
t as
Ġ ul
ol ate
ĠP attern
Ġ** {
Ġsub list
ĠEx periment
Id ent
Lo aded
rec ision
Ġpe ers
Ġdat al
BO X
ĠConst ant
ĠUP DATE
k nowledge
o ssible
t ap
or arily
Ġin active
Ġb anner
mp i
Ġ` [
ind ptr
gg led
tp lot
local time
bit map
Ġsn ippet
Ġreport ing
FE ATURE
ĠLookup Error
b Sizer
Ġre lax
Ġde veloper
Ġw iki
00 3
of proto
man agers
11 7
Lo gs
Ġkw s
Connection s
oto pe
PA Y
ĠFind s
ĠST ATE
Ġsli de
contrib ution
Ġmer ging
ĠPUR POSE
2 20
F inder
__ "):
Ġg ps
Ġr q
our ier
Ġk not
Ġwhen ever
11 4
HE D
ĠArgument Error
Ġknow ledge
- ')
B D
H tml
g am
i ation
de clarations
ro ps
ĠT itle
Ġg w
Ġpar ses
Des ign
ALLOW ED
ufacture r
N ER
S RC
ĠS ends
us ually
log ies
min imize
01 6
ai a
connect ivity
Get Value
FO LD
Ġgu ild
C OR
M W
} ={
ro ma
Ġb locked
el come
Re ferences
Ġimport ing
return ed
Ġq os
mal e
gp us
Ġhappen ed
Ġpersist ence
ĠMulti Index
BY TE
Ġsnmp Engine
D on
er ase
Ġex its
mo ments
ĠL ong
ĠR ate
Ġdis count
ĠDe fines
top level
ĠAn aly
At tempt
Ġus able
âķ Ĳ
Ġp neumoniae
Ġm asses
Ġh r
(" ~
Ġas ked
ĠL I
ĠL INE
Str ings
Ġcopy ing
Ġmod s
rece ipt
Ġsat uration
Ġ19 2
appro xim
A zure
F lux
d sa
Ł ¥
Ġre construct
file type
Ġv y
Ġ-------- ----------------
Ġad jacent
play book
dis count
correct ed
Ġtool tip
Sp atial
Ġdx py
........ ........
ĠCER TIFICATE
G amma
O Auth
è ·
at on
Ġ< -
Ġs quared
as hed
ĠD NA
pos ite
Ġmax size
LE ASE
02 8
Ġdb name
15 9
Ġserial izable
math rm
Ġorg an
3 65
F igure
F ONT
I m
S afe
m ine
p ants
sel l
Ġre actions
Ġr b
pro posal
ĠS pe
=" #
og onal
AG ENT
Store ID
('.') [-
sol ar
integ rate
1234 5
EXP AND
N P
re run
li a
file Path
Ġen rich
om it
ans ible
Ġtra il
si ent
CE PT
ĠPro gress
Ġ[" --
Pre pare
Match er
YY YY
PACK AGE
Manage ment
c rt
x id
Ġ# ################
Ġle ts
01 8
0000 000
PRO FILE
SIG TERM
Ph one
CLA S
Ġpat ient
ĠAx es
O O
Ġ( .
Ġ1 20
ĠRe lease
Ġun lock
ĠH ISTORY
ud rate
scal er
comple tions
Ġcould n
200 4
Ġener gies
$ ')
b alan
Ñ ĥ
bu mp
ĠQ gs
Ġcalcul ates
decor ators
SY MBOL
Te X
ĠEOF Error
ĠCRE ATE
> `.
V i
h ort
ro ids
Ġe sc
Ġd j
con firmed
count ries
stri pe
ME NU
He alth
Ġdesc r
Ġopa city
p unctuation
x n
Ġfor get
up on
)) *
ĠP L
cur dir
pk s
combo box
A re
L ab
con current
Ġl y
ĠS pec
art ists
Ġon set
ref er
sy ms
02 7
Ġwrap s
Ġ7 5
ense mbl
distri buted
Ġown ers
DIS ABLE
Ġstand ardi
E OF
H ierarchy
g row
Ġ ]:
(' //
set Layout
ĠC ard
add er
Ġma gs
Ġx l
25 4
Ġkeep dims
byte code
Ġradi i
Ġcod ing
, _
F req
G UI
X Proj
g auss
Ġf am
Ġp ex
el m
ĠC C
ic reate
mo ji
Ġrank s
}}, ),
Ġbra ckets
km ip
Ġeigen values
. ):
st ress
ue l
Ġm utable
(' (
Ġ: -
Ġan chors
pa ger
cs rf
01 2
01 9
Ġ"" ))
gen o
round ing
ĠAl ready
ĠAd just
e lasticsearch
Ġe ast
li est
(' )
app lied
ip a
Ġat las
su ch
train able
Ġaccess ing
Link s
ĠAt tach
Ġaltern atives
xtick labels
REGI ON
XProj Parser
C ut
a ver
r q
or ange
un ched
mp ot
ri b
ĠP lace
append Child
In struction
ĠO ffset
Ġsub string
Ġdis carded
ns wer
Ġsplit ter
Ġcod on
Expi red
M atches
P LAY
S aving
] ()
a ys
e ol
e type
p lat
cur se
ĠIn tern
Ġ5 9
Ġprocess ors
Ġ... )
13 7
AB C
Code s
Ġunder stand
super user
lig ible
vox el
1 64
f uzzy
re strict
ro gate
') ],
Ġh ints
ĠL V
Ġcomp any
Ġbase dir
Ġpy plot
Ġinter rupt
coe fficient
redu ction
ierarch ical
Ġadjust ment
Ġdead line
vx lan
Ġva ex
ĠWrit es
L V
L inux
S pi
u ptime
pe ople
Ġ( ...)
ig ab
ĠP NG
items ize
ĠAr ch
mi os
AD MIN
Ġconst s
ĠTime Series
Ġtab lename
sheet s
ĠST AT
ĠClient Error
Ġcar ry
hd rs
Ġunders core
L ONG
P ot
R ank
T Z
] [:,
n ii
s ms
or row
ĠP H
ang ent
RO LE
Ġtr usted
Ġlookup s
ber g
break points
INTERN AL
U AL
t here
(" `
Ġun wrap
Ġtra cked
15 7
ha usted
ĠPub lish
Pick le
B undle
b one
Ġw av
() ["
is co
ĠT elegram
Ġv o
ĠP UT
ĠV CF
const rained
mod ulus
Admin Session
isat ty
n am
n lp
in dependent
ar a
con crete
to bytes
Ġ_ :
ĠS parse
Ġy ielded
]) *
Ġch unked
ĠCon tains
Ġbig query
qq q
ĠRo ot
suc ceed
REGISTR Y
) ]:
V k
m w
n els
li fi
Ġm cs
Ġto c
di rections
Ġr tn
ĠRe try
Ġinter act
44 3
MEDI A
h dfs
v b
ar ms
is Checked
(" \\
ĠP acket
red raw
]) ])
sen ger
Ġsub stitute
db g
Me ter
24 7
sn ippet
pid file
Ġlat ter
Run s
ĠBo vy
ĠRecognition Exception
H ome
c gi
g v
mit s
Pro duce
Ġclass ify
Ġ6 00
TH E
Ġsuccess ors
Ġrece ipt
Ġkeep ing
At tempting
ĠTra ck
Activ ation
O bs
ç º
ro te
Ġde tach
ĠT yp
vi sed
ĠP EM
=' _
ĠB OLD
32 5
contro llers
report Error
As sets
ĠAS N
Art ifact
) |
g tk
Ñ ı
st ick
Ġi gnores
Ġc df
Ġc amel
Ġ* .
Ġ_ )
ise ase
ist ance
ĠP SD
Ġch erry
ĠL at
Ġsh orter
temp file
SE ND
Ġrep lacing
DI TION
rol led
activ ities
Ġestim ates
Ġcla uses
ĠDO UBLE
ĠWrit ten
m st
er gy
Ġd yn
ag ency
cc um
Ġpost gres
Ġ7 0
Web Socket
ĠFe ed
Z IP
g lobs
l ings
Ġw id
name server
Ġg arbage
ĠF requency
bin ned
14 5
Comp at
INTER FACE
att name
Q Widget
_ {}".
s Type
Ġa e
Ġde velopment
get state
con cept
[' $
ĠC R
os ity
of p
Un defined
serv o
ĠRes olve
DB Session
Be arer
Ġscr atch
C SS
] ``
ul ner
sen ce
ĠCon sole
ĠY our
Ġvisual ization
ĠLay out
taxon omy
) `.
E ither
Q Action
g rpc
v able
Ġn av
Ġd ask
Ġst ars
par ql
Ġcon duct
ĠF ire
32 0
Ġver s
Ġtri angles
ET A
ï¼ ļ
ĠStart ing
Ġspi ke
G REEN
V y
a decimal
n gram
Ġp ressed
() '
ĠM utable
ĠM icro
ĠL P
Ġte ams
pop en
(* (
ĠSe gment
PRO P
HTTP S
Ġsuffix es
(', ')]
vl c
atex it
M at
O per
o sc
Ġf ri
Ġde limited
ult aneous
Ġpro v
Ġpre served
gra des
Ġca iro
Ġpart ially
He ad
Ġ201 9
Ġspecification s
Vis itor
WAR DS
: {}
Q H
g at
Ġn w
di ameter
str y
art ment
ĠF E
Ġdi e
ĠP ush
sc m
ĠR ect
ĠR ight
ĠG PIO
Ġsub str
Ġarg parser
tx id
Inter pol
Argument Error
Sc ene
ĠTrans ition
Ġidentify ing
k ms
ur t
ĠS ocket
ĠP I
dot ted
pol ygons
inst ant
Bo ot
Ġdecimal s
WA Y
ĠMark ov
conc ern
CONTRO L
Ġhyd py
' ``,
C redential
la ci
us able
out ube
ĠP E
Ġnew s
Ġpe ek
00000000 00000000
adjust ment
NET WORK
ĠCre ating
HEL P
p asses
re ts
Ġc elery
Ġp lug
Ġs izer
ag ged
Ġhand shake
Ġsp rite
Ġq qqq
ĠJ S
exit Rule
enter Rule
Ġcy l
Ġtool bar
Spa cer
M ig
T ile
in dic
in sensitive
sel ess
Ġf names
Ġbe g
Re LU
ĠC UR
Ġv type
Con version
ĠU S
dis connected
grid s
Bo ok
Ġdir names
ĠDate time
B oth
M ot
b illing
z ing
le ap
Ġre servation
Ġp yn
our se
pa int
ag o
ĠQ MessageBox
Ġhost ing
fetch er
-------------------------------- --------------------------------
Ġaccept ance
ĠWork er
9999 9999
moment um
ĠPay load
F ace
M ass
S parse
b ert
Ġc name
Ġd ark
ĠS cal
ĠP R
ĠM V
ob ar
Response Error
ĠRequest s
Ġprevent s
ĠAllow s
D er
U SI
} \\
Ð º
å ī
(" $
Ġdist ingu
sl c
suffix es
Sign als
PL U
Ġwind ll
Ġsubstitution s
c wl
). "
"> %
Ġ^ =
postgres ql
Ġsaf ely
Cd lib
- "
c ance
l z
v network
st reet
ad b
Ġu fo
ĠC ategory
ĠP ER
ref lect
Ġany more
Ġrep laces
Ġ", "
Ġside s
Ġdot s
Ġtrim med
* :
g pio
ç ±»
re act
Ġs ue
Ġ" ;
ĠT c
as hes
Ġex on
ig ar
out line
ag en
IN IT
Ġac quisition
DE LI
Ġpy h
struct ured
copy right
Ġident ities
17 7
Ġtermin ation
M AR
` '
ur y
ĠC ir
ĠF it
Ġdi vided
url join
read me
vari ation
Ġcard s
ambig uous
Div ision
ro g
ad vance
ri se
am qp
ĠA mount
ic ket
Ġk l
Ġca used
Ġhost ed
Comp iler
TR M
IM IT
Ġcap ital
/' +
aris ons
Ġcost s
+ ")
b rowse
z i
è Ģ
get root
file size
Ġx array
Ġspecifi er
PI X
Se quential
stack s
Ġrelease d
Ġroll back
mor ph
Ġcapt ured
ske w
f ine
Ġp th
ct or
li x
Ġme et
Pro gramming
cost s
Ġcent roid
è® ¤
] ?
b locked
e fficient
li days
ot a
AT T
uni q
16 9
tran sp
let ions
ĠState ment
Ġbuff ered
Ġred undant
ch assis
con da
Ġbe at
Ġon nx
In c
ĠEx change
inst itute
Ġ(" %
emp t
Image s
READ ME
ayes ian
e quivalent
re ls
re visions
Ġde letes
Ġb z
Ġpro tect
md b
Ġav ail
=[ ])
Ġ? ,
Ġconcaten ated
I ON
Ġn lp
ent a
Ġra ce
size of
hand ling
'' ',
cos ity
Ġblob xfer
Ġmig rations
Ġusu al
Ġrecomm end
ĠWrap per
INST ANCE
E p
G U
t ips
v n
me ster
Ġa go
Ġde compress
Ġw t
path sep
Ġdi visor
Ġkey ring
Ġsub key
Ġj c
pri m
02 0
14 0
Component s
H G
W K
W HERE
v ity
ar ial
') }
ĠF ake
ject or
Ġj a
check ing
Ġ8 5
Ġrece ives
priv ile
Ġoper ate
Enter ococcus
Ġâ İ
Ġcle ared
( {},
A udit
re stricted
Ġt v
Ġf k
Ġd sn
sp ider
ĠS olution
Ġch ance
Res p
change log
train er
Ġ'. ':
radi i
cd lib
estim ated
Ph oto
flux es
asc ending
ĠDist ance
Random State
REPL Y
IDEN TIFIER
: >
M ath
P ull
T or
Y es
w i
re h
ĠS phinx
Ġne cess
has hed
down loaded
reference d
mk time
ĠPre fix
e id
li pt
ch ans
Ġg lobs
Ġme ss
sc lient
ĠR ot
host ed
ĠDe bug
AC ES
Up per
Spec Rec
Build ing
ĠCO MP
Ġattrib s
PUB LIC
s al
y cle
Ġin cre
Ġth in
Ġpro venance
Ġres cale
=' '
read crumb
ĠRe pository
ĠB ot
pc ap
nb r
F R
G aussian
R ATE
S aved
Z a
x iv
x ffffffff
¡ ç
Ġt ty
Ġf ps
Ġin verted
ap ted
vi es
ĠF FT
ĠN u
Ġtime line
ĠB ind
err it
av ail
find text
Info s
:% (
TO OL
EX IST
By Id
Ġfast binary
prob a
Ġsubnet s
health y
Ġ"* "
recur sion
2 64
T ap
l lo
p name
re mainder
le sky
Ġp val
Ġde s
vi al
ĠU Int
St ar
OR IG
fit ted
200 1
aut os
pm n
ĠLe g
( {}
6 37
D ONE
K K
k id
Ð ¼
Ġe cc
Ġb as
ST ER
Ġop rnd
ĠTh us
12 1
ĠPro bab
ĠMe an
Ġpe m
Py Cdlib
Table Name
inv ite
ĠBo ol
semb l
Ġdynamic ally
PLU GIN
O ct
l lab
x FC
Ġw rt
sp c
out side
ĠRe quire
sy llable
ĠX Y
Ġfull path
23 5
IF Y
ĠEd ge
Mar ket
N a
it ution
qu ake
ĠA P
ĠS C
time tuple
red o
Ġy i
url encoded
Ġpy cdlib
PE M
Ġdb g
mult iline
sq s
lab or
Input s
ĠAc cepts
ĠRece ived
Ġflo or
Ġlem ma
+ )',
; ')
f ut
y thon
re call
Ġr w
ĠS amp
Ġwe ird
ket ch
trans mit
child Nodes
Ġ'. ',
LO T
ident ify
mon otonic
Time s
FF T
Ġflow s
ä» ¥
Ġhdu list
Vol tage
F ragment
Ð ²
ra ce
Ġ" ="
Ġel lip
ari a
Ġsub count
PO L
requ ent
]+ )\
Doc Parser
SA ME
learn er
Ord ers
u is
en force
Ġre con
ĠS witch
ip ping
im gs
XX X
ALI AS
ĠAx is
Z I
[ {
k dims
Re moves
ĠI ssue
om er
start Time
Ġ`` <
Ġapp let
ĠNot ification
ift i
PAR T
JSON Encoder
ĠInput s
/ ?
C AR
G tk
N Y
b la
f ns
æ İ¥
Ġ# %
Ġh ence
Ġan t
ĠD IS
node list
sub st
gra ce
md l
label size
Ġpy pi
è¯ ·
Ġroll ing
(".") [
ĠBl ue
b rand
v ary
Ġi ms
Ġa id
th in
Ġlo gg
ĠI llegal
Ġcomp aring
[: :
lower case
Ġqu eried
Ġph y
ĠGener al
Ġpick led
Ġedit able
Ġpan e
contin uation
who is
silent ly
Ġpycdlib exception
A GER
M esh
V als
co mplement
Ġ" </
ers ions
Ġext ends
Ġca ches
Cur rency
Ġalign ments
ĠDO M
WINDO W
cach ing
. ])
in ot
Ġp ep
Ġd os
ch unked
ĠS pace
ag ain
ab la
Ġext ents
Ġquery string
:// ',
ass istant
Speci fied
clip board
Modifi er
n ml
sp anning
ĠA BO
ĠI C
") ;
Ġro i
istr ations
Text ure
åı ·
Ġequ ations
ANCE L
Ġcons ists
L ower
R NA
S ens
g ff
h ang
l xc
s ls
in serted
Ġb ri
one t
Ġw arm
am in
am il
sp her
str id
ext s
sen ding
ĠB utton
Ġdist utils
hash lib
MA V
enum eration
ĠCho ose
decess ors
f to
Ġ' !
la re
di e
Ġl un
Ġr dd
fo ur
'. ")
ĠB ar
Pro c
Up grade
inc ident
pagin ator
Ġvox els
F ront
H idden
d ut
h ull
} ').
Ġp key
Ġif o
__ _
ĠS ol
valid ity
Ġun install
cy thon
open ssl
Ġ6 5
access ible
24 0
ĠIN FO
Tra ining
ĠInitial ise
sol r
ĠLe vel
Ġsear ches
ç¬ ¦
f out
in come
he els
Ġg rep
ĠD X
Ġout line
right s
function al
ĠDis able
geo json
ĠAd ded
åĪ Ĩ
Ġoperand s
conflict s
Ġaccur ate
3 14
M ID
t ilde
w anted
è ½
Ġ Ã
Ġf x
ro red
ĠW in
Ġdo copt
ĠH AS
ĠEx pr
Ġtrans lator
du ction
imp orter
NO TE
Ġtransform ations
201 1
Ad just
Ġ': '.
"> </
B acillus
a ffected
f all
st al
st retch
en ode
he m
Ġe type
(" |
ĠS Array
Data Source
Ġpri me
}. ".
Ġtyp ename
who le
Ġcommunic ation
P F
c ds
de limited
ap du
Ġ> ,
In crement
mi b
En codeError
=% (
Ġdecor ators
Ġcp us
Be fore
Ġcap s
Ġround ing
Ġappropriate ly
perform ance
ĠCond ition
} &
Ġin compatible
Ġs lack
Ġh ouse
ĠA rc
ub es
Ġx p
ĠB ody
ĠW BEM
wa iter
01 4
"]) .
produ ce
3333 3333
REC ORD
snp s
4 096
W L
v ms
un ame
Ġm it
vi val
ĠM L
cre th
Ġsc raper
Ġuni q
LI GHT
analy ses
acce ler
) (*
at o
Ġc data
am ber
Error Code
amp ion
Ġ9 5
ene fit
war der
WE B
âĸ Ī
h id
o lete
Ġm r
and oc
ĠT I
Ġ1 50
file list
ĠG C
Ġbu y
call ing
sum maries
En code
DO M
thread ing
('. '):
Ext ended
ĠSh Ex
distri bute
Ġmut ually
resid ues
Ġinherit ance
Bound s
repe ats
E poch
J ava
L in
T REE
me chanism
Ġd ri
(' </
sp ent
Ġ% -
ren ew
add Layout
Ġan ts
Ġpo le
SE EK
ĠCon sider
Res ize
Ġselect ors
Text Cursor
accept ance
orth and
prin table
Ġske w
RG BA
s ftp
Ġd ual
)) /
ex ports
Ġv z
ĠU rl
cent re
ear ly
Ġsuccess or
ĠOr g
Ġexpect ing
associ ated
*\ *
Ġstand alone
> [
A ff
O DS
S lot
ol ations
ic mp
Ġlin enum
Ġimp orter
TEXT URE
Vis ual
reject ed
fam ilies
marsh al
q d
Ġt g
Ġi mag
Ġk ern
IN AL
FI RST
gen s
Ġlib s
80 80
Ġast ropy
VI RON
ffe rent
ĠLib rary
SECON DS
D ot
E scape
P ur
c spf
ser s
Ġ* (
ĠC ell
Ġv el
gra in
qual name
Ġtri ck
03 9
Ġwatch er
ss p
Ġfor ces
con centration
ime s
ci a
py tz
Ġpre fetch
spa rency
be g
net s
Ġsys log
now led
ĠPro vide
ĠUn able
('_ '):
FT P
Ġturn ed
mis match
Ġol dest
Ġcherry py
k de
u ations
v in
get Name
get mtime
Ġfile Out
ĠU SE
inter rupt
Ġtra ding
face color
plot ting
Ġiter ating
Ġsome one
Ġgu ard
**************** ****************
H ORIZONTAL
M ail
i y
en ed
Ġc core
Ġde composition
Ġd set
(" '%
ĠS MT
py mongo
Ġk args
AN K
sk u
fact s
lem ma
Ġcap ability
Ġtor rent
live red
ĠPh ase
Dim ensions
ĠPAT TERN
Ġtreat ment
O mega
R FC
T urn
V e
n oc
Ġd k
ol ded
Ġl ats
to ms
Ġu v
Ġun recognized
we bsite
sing ular
Ġ-------- ----
14 9
round s
conv olution
Ġna ive
residual s
: [
S tage
Ã §
Ġde mand
la sh
Ġg ff
ĠC DF
ht m
Ġdis covered
Ġpy x
alt itude
Ġsupport ing
week s
sur vey
CONNE CTION
writeMessage End
writeMessage Begin
ENO ENT
S AS
ľ Ģ
ent ation
set timeout
ĠF O
IN S
cs i
Ġapp ending
DE C
Ġper mutations
ob serve
zip file
Ġpartic ipants
PA REN
Predict ed
T mp
V C
re build
Ġe limin
ent ric
te ardown
app lications
ĠM od
Ġro ugh
index ing
lin ed
Res olution
sent inel
roll ing
stat istic
ĠOr dered
Ġcontact s
represent ative
ĠABO VE
B alancer
f us
x C
me ch
an imation
(' =',
Ġl iter
app name
Ġsub scriptions
** -
Ġtra versal
su ally
copy file
([' -
Ġnick name
Ġbon ds
Ġamin o
FOLD ER
S aml
s low
ad os
'] )),
ap or
ĠP EP
Ġen ded
own ed
sub scribers
bot s
ĠLo gin
Ġedit ed
vocab ulary
Batch Norm
Ġsuggest ed
Cancel led
rity Error
' *
F a
G M
W allet
d urations
i mm
Ġn gram
Ġm ib
(' +
(" ^
vi ct
Ġout s
iv ar
ill er
Ġpre processing
Ġk p
Ġcom ing
CON TAIN
Le arn
Reg istration
Ġcred it
ATTRIBU TES
' (\
B alance
e lection
é ¡
st dev
Ġt ap
ol y
Ġr ms
time d
Ġal most
ĠM ost
Ġsub graph
Ġact s
As sessment
Ġmac ros
Ġexperiment al
Ġlst m
tun ing
Sup port
Ġshortcut s
Ġrespon sible
assth rough
E nsure
d z
Ġl g
ĠC AN
ĠEx ternal
Ġbu dget
pass ive
play ing
24 9
Ġthem selves
Box Sizer
PRE CATED
writel ines
) ["
G OR
V ib
la gs
ĠD AT
Ġj av
db us
Ġyield ing
fit ting
ĠName s
Mo dify
Ne ighb
Ġscreen shot
åĪ °
ĠComm on
åĩ º
ĠSec ret
i oc
w r
at ten
key name
Ġder ive
Ġpredict or
trip les
INST ALLED
Has Field
vest ig
Z ONE
n cols
Ġt ube
Ġp layers
[' -
sp rite
Ġdata path
mm at
sen try
ac quisition
ec ycle
St arted
Ġac quired
']) ):
]] ))
ze ug
CK ER
Part ic
LATE D
('# '):
Ġfav or
Ġi mmutable
ss a
Ġdef s
as dict
to ml
to ks
Ġr n
vent ions
Ġlog out
rection al
88 59
lux es
Ext ensions
ĠMake s
Def ine
tor rent
ĠTemp erature
Ġsens itive
Ap pro
Mis match
ĠDynam oDB
Ġsanit ized
o res
v T
w m
le y
Ġg y
qu ivo
Ġr pm
ĠO k
ST AR
Ġsuper cell
Ġlocal host
14 6
Ġrest ored
her its
Reg istered
.* ?
adjust ed
ĠTer m
Diag ram
g ro
Ġin come
Ġde crease
ed its
Ġof fi
ĠD b
ress or
sk i
pen ded
}} ),
ĠAl gorithm
aggreg ates
>> >>
ĠDO WN
Ġ({}) ".
ĠOPTION S
D ensity
I V
a id
li ant
app id
line Edit
PI C
16 7
Ġ... }
post process
Ġgra ds
Ġvide os
Ġbig ger
capt cha
D Q
I gnoring
O ld
U MENT
h an
ut ations
() ")
th ird
per mutations
Ġro unded
tra ction
De legate
Ġover view
conf s
No Such
ĠBase d
Ġden ied
B est
M iddleware
[ ['
c ors
st a
ĠP ick
temp eratures
Ġenv s
20 3
extra ction
ĠLo oseVersion
extract all
backup s
trunc ated
Opt imizer
tele gram
MISS ING
C ls
b ys
é ¢
en di
ob servers
Ġph ases
66 6
ĠZ one
card inality
Per missions
car rier
çĶ¨ æĪ·
UNI CODE
¦Ĥ æŀľ
Sli der
atel lit
de tailed
me ssaging
Ġre boot
Ġa chie
co urses
Ġ} [
av y
Di Graph
record er
ĠSt ats
US R
Bu ff
depth s
ä¸ Ĭ
Ġtensor flow
ili zation
Ġneighb our
glob alt
Ġdetermin istic
ĠBack end
met al
Ġexponent ial
ko ji
pul se
3 32
I A
k zeug
p ragma
t if
se ri
Ġn i
id ata
ma j
Ġtran sparent
15 8
mut ate
catalog ue
Ġface color
ĠInst antiate
Ca pture
tim ers
Ġdelt as
2 32
h line
v agrant
al Error
one d
Ġcon form
Ġlo ci
op p
ĠM sg
ĠG amma
be havior
Ġup sert
face book
Ġimplement ations
estim ators
SM TP
Ġfree ze
HAND LE
Ġnom inal
: {}".
b ang
d set
f names
Ġex cluding
ĠA v
ĠC l
Ġfile size
Ġdate util
lt k
Ġcolor ize
down loads
Ġnormal s
Normal ize
Ġonto logy
% .
C amera
` _
m andatory
y stems
è §
Ġw p
Ġcon vex
per s
pro tection
ĠS yntax
ĠE NA
ca iro
Ġsh rink
'} :
indent ation
Ġslice d
cel ery
Specifi c
/ -
U DP
h b
p lex
â Ĥ
urn ament
ot t
)) ).
set ToolTip
Re gression
ĠC RC
Ġv otes
ĠD C
Ġun iv
fe rent
ĠR DD
cord ance
Ġread me
20 8
ĠPer iod
Ġlock s
Ġcir c
SY NC
quant ile
Ġfall s
ĠJo in
Qual ity
TRA IN
phanum eric
W ARN
i ment
Ġe a
fig ures
Ġse x
sv n
cn f
Ġve hicle
sam tools
G F
b k
h ive
k not
y x
» ĺ
Ġs hel
Ġb ib
ĠS tri
Ġpre ferences
act ors
ĠB io
Pro of
Ġfa e
CO MPLE
Comp are
Ġnu cleot
Ġutter ance
d path
g tf
Ġf ive
Ġu df
ĠF ree
ĠG PS
Ġtarget ed
Ġstep size
Ġsensor s
person al
SIGN AL
ĠVAL ID
ambig u
ĠAssume s
nas a
i rectional
Ġ )),
Ġg ues
sc aff
ĠE ng
Ġla beled
lic er
sub mitted
Ġj u
Res id
ĠQ ual
\\ \
ĠUn expected
45 6789
Ġdimension ality
Ġdetermin ing
00000000 0000
sla ves
DEP TH
R AD
v line
de ck
id y
ĠA T
ist ical
Ġro bust
RE PO
ID R
13 6
Request Error
progress bar
DATE TIME
ĠSu ccess
PROPER TY
åĢ ¼
H W
S ame
o sh
st y
al ts
Ġd P
vi o
ow els
mo bile
ĠU DP
ĠG rab
tra p
cl r
AB I
vers arial
SUP PRESS
- $(
Y EAR
en codings
Ġa es
Ġa ware
di ce
up dater
py der
De vices
search sorted
Ġquant iles
ĠUN IX
warm up
FACT ORY
l um
p ids
Ġ Î
ĠS chedule
ĠF UN
Ġpro grams
cur ie
ĠU SB
Ġus b
Ġbig dl
Ġstrict ly
digit al
Ġinstrument s
adapt ive
) %
@ %
M argins
b ak
g ar
h or
p lays
re late
Ġs rs
Ġb isect
th ickness
Ġof proto
od ate
(" :
os ing
tra its
Ġ4 1
Ġnum s
Ġcomple ter
Ġpost fix
Ġbind s
Protocol Entity
named tuple
Ġprin table
SD L
Ġsur f
Ġpat ched
ctrl pts
ĠDOT S
/ *.
> ``
G D
b ids
Ġin gest
Ġe fficiency
id a
Ġst ype
ub i
add str
sa ref
arch itecture
DE S
Ġtemp dir
qual ifiers
over rid
ĠSt atic
termin ation
Ġiterable s
æĹ ¥
»ĺ è®¤
I gnore
S ol
in dep
er ator
Ġs outh
Ġo d
as numpy
Ġh dfs
ĠDe precated
En ergy
speci fy
80 9
cert ificates
bus iness
ĠConstruct s
æĹ¶ éĹ´
intern et
" ;
T un
½ ®
Ġde co
end ers
ime zone
pro tect
Re verse
fo s
ci e
Ġkey space
read Message
LE X
connect ing
Ġentry point
Path Helper
Ġhex adecimal
ĠPart ition
Spe ed
å¼ ı
Ġperf ect
Vib rio
s hel
re lax
ar cs
Ġre vert
Ġb v
Ġw alker
Ġh c
Ġh m
arn ings
err ing
Ġreason able
Ġcatalog ue
Ġrgb a
ĠEnvironment Error
saref luxes
ch rome
Ġex posed
Ġr data
Ġpro f
Ġx ref
pa che
ag reement
ĠB AM
face ts
rank s
Ġ"% .
zone file
WS GI
Ġupper case
multiple x
E A
P V
S cheduler
` -
n bytes
Ã ¤
å İ
Ġi python
co arse
ĠT s
Ġex pose
ĠS can
sa f
25 7
access or
24 8
loop back
ven ue
Al tern
analy tics
multip licity
Pr inter
Ġide al
tweet s
ĠLD AP
A ge
b undles
h ms
Ġfor warded
In d
In voice
Ġ3 9
St ation
AN TS
ĠTO KEN
Event Type
sv m
Ġimp lies
sym links
Ġsym metri
Ġregular ization
L ON
Q PushButton
lo ver
Ġto wer
', )
is ite
que t
ĠM S
St im
Res olve
struct s
Ġcl ust
03 4
Ġrepresent ative
Ġsa ys
44 0
dat adir
oo keeper
Meta Data
ox m
Writ es
Relation ship
atellit es
globalt t
J ar
O AUTH
e li
j et
Ġf oc
Ġd ur
file Store
Ġr tol
us al
ĠF inal
Ġfile list
mo logy
ĠRe gex
En cryption
Ġchange set
sig moid
23 4
upper case
Ġappro x
ĠSy m
Ġtar ball
omy ces
decess or
IMP ORT
Ġ( '.
sp s
Ġel lipse
et ic
Ġtime steps
ĠU sually
Ġuser data
Ġcustom ize
place holders
Ġ201 0
ĠCal cul
As sert
Ġinteg rate
mk stemp
sas l
Ġconsist ing
W a
b ika
in validate
Ġp sycopg
Ġr fc
AN ALY
Ġca ref
Ġattr name
Ġph ys
Ġcla zz
IST ER
Sm art
X N
z k
de b
Ġb illing
ra mp
Ġw b
Ġst ations
Ġdata s
ĠU ID
ach er
ĠCon f
AC L
ĠY YYY
DO UBLE
separ ate
vl ans
Ġ"' %
('\\ ',
ELE MENT
setWindow Title
Ġnecess arily
] },
d cm
r partition
Ã °
å ·
on set
ra iden
ĠB reak
Ġpo ss
Ġqu ite
Ġkeep s
Ġsym links
cod ename
trim med
äº ¤
rab bit
' ^\
J Link
f rm
l f
v f
in secure
ra pe
() `.
[' @
00 7
=' %(
ls b
Ġsh ot
Ġinit iate
ped ance
AC COUNT
TH READ
YANG PathHelper
Ġxpath helper
ĠRET URN
Spect rum
' ;
s ized
s lashes
al gorithms
pe ar
mp rec
ĠC PE
Ġch ord
op c
for ces
To Char
Set Value
cb io
ze ta
tt led
Pri ority
Ġprodu cer
bi os
episode s
Hy per
Ġanno unce
A rc
F ULL
M AT
M IC
g ly
m z
s ns
de letion
Ġre achable
Ġth rows
Ġth ickness
out ing
ĠC T
Ġ** *
om l
In spect
Con cat
Ġsub system
rt c
Read Only
utor ial
orth o
ĠVis ual
Ġrat ios
Lim its
åī į
V R
i mplemented
j am
k pc
at las
ut s
un less
di mage
ma gn
ĠT imer
ĠRe store
sens itivity
anis ms
Ġtrip les
ĠPY THON
Ġwave form
COMP LETE
Ġmi xture
Ġslic ing
ä¿¡ æģ¯
V ID
f olds
o bo
p run
{ %
re cs
Ġi oc
Ġa head
Ġm ir
""" )
up loaded
Ġg a
ĠA TT
Ġen rollment
ĠG B
select ions
ures ystems
appro val
Security Group
uncer tainty
COOK IE
uresystems lib
h ighest
l max
o sp
s it
Ã Ń
Ġt ie
en rich
Ġp ract
name list
Ġres ized
add on
ĠE XT
ac s
ĠIn crement
Ġbase integer
Ġtran sient
rc Params
Ġtra jectories
IL LE
Ġexit ed
)** (
(". /
Ġeig envectors
utter ance
O ps
h adoop
s ar
in ferred
en gines
ro des
Ġe zz
ss m
set Style
ĠP ipe
ĠD er
ĠD elta
mo other
Ġsum maries
TH RESH
wit ness
Check Box
Ġmost ly
COLOR S
BL ACK
Ġwildcard s
Acce ler
d rain
m h
la ined
tr c
Ġas m
Ġme ch
Ġkey stone
RE TRY
ĠDe code
dot s
Ġip address
month ly
Ph i
Ġspect ra
Dep loyment
('" ')
Cho ose
Ġguarante e
N ative
s lit
Ġn g
() )),
key ring
sp ring
all er
po ssibly
ĠC at
read String
Ġen gines
ĠRe po
AN S
Co untry
ud ents
LO C
Ġmon key
CA ST
ĠOne Login
ske leton
Ġbelong ing
ä¼ ļ
ĠManage d
Keyboard Markup
) +'
D f
Ġp unctuation
Ġe i
el ts
data Type
ĠI gnored
tri angle
ĠD river
Ġon error
ĠM ask
Ġun quote
return ing
04 7
multi processing
Ġdeploy ed
pat ient
obacter ium
Ġ655 35
strid ium
e mission
f whm
ur andom
Ġn bytes
Ġin consistent
(" @
Ġx c
lif t
Ġpre defined
lu gs
group Box
ast imezone
File Dialog
TH ER
Sub mit
EL L
Sh adow
PRO XY
ĠTH IS
Ġsit uation
ĠPa rent
2 99
f get
or acle
pe ts
ĠT EMP
Ġl int
Ġ{ \
ĠI R
red shift
Ġan im
pre fs
Ġ** _
read Struct
sub graph
trans ient
Log ical
Ġfra ctions
Su ffix
Ġdescri bes
åĲ İ
ament o
c w
ç §
Ġre lat
li k
ri cal
th ings
Ġcon currency
Ġg allery
ĠA bsolute
art z
ĠE q
ĠG ame
Co verage
Ġmo ments
14 3
VER TICAL
game s
MI ME
Ġclone d
FUN C
755 4
D rag
P ad
Ñ ĭ
an tage
fi c
id is
ra f
ĠV i
Ġ\ *\*
so id
auth n
Ġform set
03 8
Ġauthor ize
Comple ted
Ġheat map
ĠProtocol Error
ĠOP EN
fort un
Ġstra ight
xen on
R ARY
al erts
Ġg rand
ĠA ggreg
In ten
object info
xml node
Request Handler
Th er
SO LU
ĠBu ffer
Ġfore ver
Ġcontract s
LIC ATION
instrument s
2 15
C USTOM
E PS
I q
O c
X D
j e
k q
Ġs name
Ġy ellow
Ġpa ger
Ġen codings
load txt
fe red
Ġrequest ing
ĠR ES
ĠIn dicator
Ġj vm
Ġtran scripts
Ġ[' ']
cli m
dic ated
af fi
height s
18 4
VER BOSE
ĠField Type
Ġcer ts
ĠPh one
developer s
ĠNotFound Error
ĠJson Response
Expect ing
Ġsimpli fied
K MIP
S ender
T wo
m ad
s ched
v R
in vocation
Ġf onts
Ġre tention
Ġ' }'
la w
con ut
__ `
Ġh id
ĠS AM
Ġcomp osed
Ġax s
AN DS
sum ing
Ġ4 096
au li
For bidden
sage maker
semb ler
Ġweek s
Sup er
Ġpul se
ĠSMT P
P adding
d P
e be
f uzz
m ute
v ac
an im
Ġpro mp
mo ver
). \
ard s
Ġsub module
contain ing
Ġ"" ),
the se
sn ake
spect ra
activ ations
experiment al
Ġhyper parameters
Gra de
> )
Ġc ame
Ġs ns
file paths
ĠP ull
Ġch oo
Ġ2 50
Ġsub path
RE DIS
host port
ins ic
Ġ6 3
03 7
Module s
Ġmultip lied
mc client
Integer Field
AI LABLE
Spin Box
PB XProjParser
Ġsemant ic
é Ķ
in ite
al ib
Ġs lower
ul se
ĠP ack
sc oring
"] }
mt x
Ġsp ider
ns m
TT L
]] ):
Ġ'_ '.
34 5
ĠWh ile
Ġappro val
utc fromtimestamp
SD K
smooth ing
ĠTri gger
Ġ'@ '
SPE C
ĠSV G
Expand ing
B rowser
L n
] *(
n ice
s no
an chore
to oth
Ġv l
line style
Ġmin s
Ġdel attr
Iter ate
We ek
Part s
Ġord inal
ĠTrans late
probab ilities
SIGN ATURE
ales ce
SPE CI
ĠRel ative
âķĲ âķĲ
I VE
^ ^
e Life
de tected
le a
Ġp ore
Ġr nn
config file
ĠB LOCK
:` <
28 8
ĠProcess or
ĠCON ST
Ġaux iliary
Ġaw kward
ĠNUM BER
setCurrent Index
C lip
j pl
s lab
al ing
value d
ĠT w
Ġl f
Ġ3 8
([ ^\
cor por
FA ST
pol ler
IO Loop
(', '):
vox els
. ),
_ ),
b tc
l xml
n orth
re tain
or ters
Ġc bar
it ored
Ġde limiters
Ġd q
ri s
is ns
sc raper
pre t
si a
optim al
Ġleg al
Ġembed dings
integ rity
Te am
INI TIAL
f at
y a
in ted
Ġs dk
pt p
im ized
ĠR UN
ĠB B
{} /
Ġbreak points
02 3
Ġdiff ers
disp osition
Ġ9 6
ĠST ART
tor nado
Ġmot ifs
ĠAd min
Syn apses
Ġpw m
Private Key
- ~
H older
R ename
g lossary
r ust
y data
ĥ ½
st rom
fi es
un subscribe
Ġ1 01
ĠF older
=' --
der ive
AL OG
sign up
Ġtest case
Time Series
Ġab ility
=( ',',
24 6
Ġrot ated
ĠReg ular
Ġmicro second
altern ate
Ġsatis fied
" <
ro c
Ġs lab
Ġo vs
ing ress
Ġ( ~
Ġpar ms
ĠL ists
rep lies
ĠCon s
bit rate
Ġedge color
Ġkw d
Ġinject ion
Ġtweet s
ĠWH ITE
A u
A dapt
M N
S igned
æ ¶
in direct
in bound
Ġt runk
Ġif f
li ef
Ġb d
Ġst ale
ĠA re
Ġkey pair
ir p
Ġ[] ]
Ġ'/ ',
Invalid Argument
View er
edit ed
AA AA
through put
SING LE
! '.
m os
s aml
x ffff
Ġd end
ĠT rain
ĠF ixed
ms b
ĠD ensity
Ġpa ste
ĠM I
Ġun register
ari o
Ex ceeded
Ġj j
Ġlin ux
Ġass umption
na ive
ient e
tensor flow
Ġredirect s
REE K
DOC TEST
descend ants
. '),
2 27
S alt
t ical
st uff
and b
ig raph
ĠM enu
Ġlog o
Key Id
pert ure
step size
LO OP
Bo ost
RA P
ĠHTTP S
Ġ201 2
ĠBo ot
Ġmodify ing
Ġes sent
Cor rect
outcome s
METH ODS
ĠSTAT US
$ \
= /
L icense
t cex
at ts
or ry
ct xt
Ġ' >'
Ġb m
ĠF ollow
Ġwh ence
ĠW idth
Ġne got
Ġapp name
']) ]
Ġpos it
16 5
Ġter mios
AS C
Comp utes
Ġgrid s
Ġbit map
ĠQu ant
TA IL
Ġ"' {
Match ing
fr r
FAIL URE
Ġcas cade
ilo ver
Calcul ating
' -
C ast
F ig
u ched
re boot
ar able
Ġd isease
ĠI Machine
ĠC ancel
Ġdi p
LE CTION
... '.
Ar r
tran scripts
Ġtri ps
Ġfig ures
success or
BO O
Cal endar
dp si
Ġer ase
Internal Error
Ġrecogn ize
P ending
T OT
t il
w alker
re servation
re striction
di ffer
ĠA verage
ĠA NT
Ġse d
=" .
IN TEGER
wa ke
ĠIn line
Un authorized
go als
Ġind x
dev ops
22 2
Call s
ĠInvalid Argument
)+ "
h orizon
è °
Ġde tections
is Valid
set Maximum
Ġx data
ĠL IMIT
current Index
ĠMe mber
17 9
Ġgra in
mas ses
ĠLe ft
iri cal
ĠVari ant
W W
ĠE MP
Ġhe ld
Ġtype def
Ġal n
ac cel
Ġsub fields
Ġj itter
pr t
Pre v
ĠRE F
Ed ges
Clo sing
quival ence
dry run
Ġ({}) '.
MEM ORY
fici ency
G PU
ad y
ch ord
Ġst ory
ĠP ag
Ġpo ols
sy stemd
Ġcor ners
style sheet
hy d
Ġcy thon
clus ions
ĠUnicode EncodeError
éĢ ī
Ġcontour s
simp lify
MAG IC
Measure ment
ĠErr Code
laci an
\ ",
p val
t cod
x E
Ġp ushed
is her
init ely
op ub
arch ived
gra ded
stri ke
feren cing
ud ge
Lo ok
bar code
Ġps z
Ġcent re
Ġear th
Ob server
TIT LE
L ater
b h
n side
u f
Ġn od
Ġb f
Ġb irth
pro vides
rom ise
pre order
Ġun zip
ĠB ASE
Ġtemp eratures
SE Q
}} }
Mode ls
Ġbar code
Rect angle
zh mcclient
tan h
C ANCEL
F ire
T ex
ä ¾
Ġc cd
Ġin de
Ġ" ?
is Enabled
__ )),
Ġx m
ĠE lastic
start time
Ġext s
Ġspecifi cally
not ice
Ġ... ")
speci e
Ġpop up
Map s
Ġaut om
syn onyms
Sc anner
ĠHe aders
predict or
unic orn
ĠSo lidityParser
æĸ °
ĠMark down
: \\
A vg
H K
ro ck
lo p
Ġ( _,
ap lo
Ġpro filer
fa bs
pre cedence
ST EP
work sheet
lib c
LE AN
Ġnet CDF
02 6
PO P
total s
spect ral
Command Error
Variable s
integ ral
Ġwa iter
ĠWeb Socket
centric ity
MIS SION
è· ¯
s anit
Ġs andbox
Ġde leg
lo ggers
ul ted
ĠA udio
pro ws
Re ject
Ġv v
lock file
net mask
Ġ5 000
Ġinst ant
ob acillus
15 2
Table s
ĠError s
Ġfew er
ĠComm it
ç» ĵ
ĠFail ure
A lert
st aging
ĠT EST
pro pag
ne o
sy scall
The me
Qu it
termin als
Inter active
TR ACT
OP T
Ġconver ters
Ġgeo json
Ġquant ile
repe ated
D WORD
S ur
] [:-
m nt
Ġ unt
an alog
Ġw i
__ ("
read Field
Ġ) [
ac ct
Ġparam iko
sign ificant
iss calar
04 9
peri ence
Ġob servable
SH ORT
SH IFT
Ġspe ech
Ġcontrol led
Fla sk
ital ic
Ġweek day
ĠAct iv
Ġtrial s
, :,
/ >
d ual
x range
get Id
par ing
to ggled
pa res
). ')
sub missions
Ġle ap
Ġcount ing
Ġexp ensive
])) .
Ġlib xml
Ġpayload s
Pre vious
DS A
tar ball
Ġresid ues
ĠAct ivity
Ġinterest ed
ĠAN SI
C ron
F W
F ix
b an
x pr
Ġf ul
Ġf rm
he red
Ġp or
res ol
ip yn
ĠRe direct
ĠRe cursively
ĠM esh
inter act
Ġevent ually
TI FY
Ġcl c
Ġcl f
dt c
Ġbuf size
Exec uting
XX XX
Sto pping
Scal ing
U V
f und
Ġ" >
ĠT RI
int r
data path
ff mpeg
sen se
ll ation
func name
32 6
Ġrep lies
Ġnet mask
Ġtop level
Ġdown loads
pen g
Tra in
Tra de
Def ined
Ġtab ular
Ġå Ī
("' ",
Ġprece ding
; ',
b right
s ip
in gest
ri g
ĠB us
OR ITY
Ġ4 4
the mes
17 8
sim ulate
mot ifs
hour ly
ĠSup er
ĠAct ive
dynam ics
P recision
y o
arg o
Ġr bridge
ĠS D
ĠF act
ex ons
tra sh
Ġj avascript
Ġpy test
16 6
DI FF
13 1
EX IT
Ġdifferent ly
Ġ? ???
Connect or
MON TH
- (
2 048
S k
d rift
e i
m ixin
st ale
Ġin ode
Ġb log
di se
Ġcon versions
ĠC ap
Ġnew est
port folio
RE DIRECT
be cause
parse String
not her
Ġver ifier
like ly
exec uted
33 0
18 5
He li
Pre dicate
edit ing
Source s
aut omatic
zen desk
åĲ ¦
ä½ ¿
issub set
Ġosc ill
E FF
b attery
y ticklabels
Ġf re
is lice
Ġg am
ĠA MQ
ER T
Ġk er
Ġne gate
inter actions
ste am
Ġ. /
Ġsha res
tg bot
Ġwit ness
indic ators
b ls
s outh
è İ·åıĸ
Ġt type
Ġre draw
Ġo q
Ġ# .
Ġst y
py x
ir c
class method
Ġ3 7
Ġcomp uter
Ġper c
pol ling
Ġdocument ed
17 4
Ġ'{} _
Ġretry ing
Ġ'< %
Ġbegin s
>` _.
Mag ic
nex us
ipyn b
H P
L AT
T XT
V ectors
g oto
v ni
æ Ģ
Ġ questions
Ġre visions
Ġde precation
Ġb alancer
Ġ( ):
ol t
ĠS lack
Ġse m
Ġun necessary
fe es
ĠG REEK
root dir
bro kers
Ġ"" ""
={ !
Lay ers
aut oc
taint ies
unders core
Z oom
u las
Ġs ch
ad get
() ')
ub ar
Ġra dio
Ġv host
Ġout liers
min imal
var args
Ġpy dev
24 5
ĠRun ning
mesh grid
ĠPO INTER
CLAS SES
ar th
un install
Ġw v
ĠS trict
che str
ĠC MD
ĠD uplicate
ster day
Ġrepresent ations
Ġsim ultaneous
ĠComp ile
imer a
200 9
Ġtx id
Ġche ss
Ġrank ing
ĠAt tr
Ġbus iness
thro ttle
altern atives
uli an
ĠExp licit
ĠRel ation
' ``.
A O
B G
N M
k al
Ġi ma
li ces
un ge
con trast
set Horizontal
sp ines
Ġ`` __
Ġsh ifts
Ġcheck plot
Ġdis c
bro ken
util ities
17 2
ĠAllow ed
Imp l
éĩ ı
* "
3 11
C ti
` """
` ")
x si
te ms
ĠA st
Ġhe llo
]] ),
Ġim gs
Ġcommit ted
Function Type
Pri v
zen ith
aggreg ated
b lobs
p lug
Ð ´
ar xiv
Ġc tr
Ġr nd
Ġpar ame
Ġk illed
Ġpo res
split ted
stri des
var names
annot ated
Ġtotal s
17 5
Ġfail ing
44 67
Ġ{}) '.
Ġmime types
('[ %
meas ures
dynam odb
ĠTIME S
substitution s
ĠAir flow
D NA
N rm
R P
re vert
ce e
Ġs ms
Ġ' "%
type def
Ġex am
ĠC HE
ĠP assed
lif e
oc entric
ĠO B
ĠIn voke
US D
Ġfq dn
('; ')
Ġestab lished
ĠAp pro
; ;
F ac
P DB
c dot
} ^{
re voke
an ame
ut ines
od oc
ĠF ont
ic er
node Name
query string
work s
Ġcomp arisons
ay stack
Ġ(' -
build ers
Ch anger
44 07
Ġradi al
security Handler
Ġenable s
Application Exception
Ġturn s
Ġtun ing
Rad ius
Cla im
CHO I
ĠTyp ically
creth ash
VIRON MENT
" [
2 11
N umbers
h umidity
Ġd amp
set Minimum
Ġl ons
Ġh er
ĠM Q
01 1
mt u
TER MIN
Comp osite
UP LOAD
drop ped
ĠDis patch
Inst alled
under line
xls x
2 14
G radient
W orld
m ir
p lease
re w
sel y
li de
Ġst ash
bo unded
im t
sor table
err back
print f
Ġfunc name
15 4
ĠK afka
ĠPro vider
66 7
Comp ound
Read y
Ġ201 1
Ġcut out
Ġbl ur
Back up
OB J
Ġcard inality
decimal s
REF ERENCE
e vals
en i
di com
Ġu dp
et ter
ĠF ourier
col name
ĠV ideo
sa ving
... ".
child s
Ġright s
sn iff
pair wise
Ġsn r
Call ing
Ġdepth s
Pool ing
Over lap
Ġmeas ures
nowled ged
ToChar P
A DED
H DU
P od
k df
n ans
Ġre raise
Ġre tried
', ))
set uptools
sp am
pro portion
ĠC S
Ġkey name
RE P
clo uds
Ġweight ing
Ġaccess or
auto commit
Ġhist ograms
Ġzone file
ĠObject Id
Option Error
stand ardi
Ġshard s
Ġmarkers ize
PRI VATE
Spa cing
D ropout
L ive
h oc
k d
): \
__ ")
ĠT S
Ġv pn
sa ct
ĠW eld
tra it
ab bit
([ _
ĠEx cel
Ex change
Ġgen omic
38 6
ĠUser s
Ġevalu ates
forward ing
Track ing
Ġ### #
ĠME SSAGE
ĠRef resh
æī Ģ
ĠTermin al
A h
J WT
S hould
X i
l q
u ge
v ature
Ġ` __
ĠV k
join path
string ToCharP
max val
RE LEASE
msg id
Ġcommand line
Ġmo unted
Ġcom mas
Ġour selves
ĠUser name
Ġindividual s
Menu Item
neg ot
Cap abilities
Ġnest ing
Direct ive
D ense
c rl
h dl
re presen
Ġn axis
Ġe lastic
is olated
ĠT a
Ġg i
ĠS hell
Ġv b
Ġwith draw
sh ifted
Ġen g
Ġpre trained
tra cing
Ġcomp arator
ste st
flow Error
Ġselect s
release d
Start s
Num eric
Ġsli der
åŃ ĺ
Manage d
Samp ler
Division Error
K W
Ġb undles
Ġ( <
ĠB RA
color ize
Ġwork unit
33 7
Ġbin ned
transform ers
37 09
QU ENCE
Gener al
lex icon
ym metric
ssib ilities
BACK END
ĠSum mary
amazon aws
SCO PE
ĠFUN CTION
2 23
K it
N R
X M
c z
c spice
s mt
Ġ atexit
get pass
ve hicle
ub las
im ization
ĠN ested
ĠB GP
Ġ[' %
Ġ5 3
'' ')
ell ar
Qu ad
Ġunit test
nb sp
align ments
ĠMo dify
decor ated
Ġentire ly
nom inal
B ITS
l ut
in j
st an
Ġd ra
is k
rom an
ĠP retty
ĠB AR
16 15
mon itors
Ġcl ar
UN IX
Not ify
light s
MO VE
feed s
("" .
expect ation
CHAR S
suc ceeded
/ ")
R s
R pc
S ky
p ly
en rollment
ce pted
Ġb unch
up d
set SizePolicy
end a
qu iring
ĠC D
IN F
Ġsh allow
use c
ĠSe par
Ġab bre
ĠNo Such
Ġmut ate
equ ation
DOT ALL
ĠEMP TY
S ince
h ips
n avigation
Ġc ad
el lipse
ma intenance
as ible
ĠI MP
ĠP B
ĠL ab
Ġobject info
not ifier
Ġq p
Ġport folio
Ġinitial izing
20 5
Ġconver ged
rece ivers
SA FE
ĠGe ometry
TAG S
ĠApi Error
phot os
shortcut s
writel n
ĠComple x
Ġsib lings
overla pping
Ġko ji
E Q
P NG
p ins
Ġs queeze
Ġs witches
Ġfor um
as i
sp ended
ĠC atch
ĠD ID
ĠG RO
Ġ] ))
04 5
18 8
Ġsee also
77 7
ĠCommand Line
ï¼ Ī
calc size
æĸ ¹
ĠJo urnal
G H
M V
o h
') ;
sp ira
Ġh ull
qu ash
ĠI ts
out bound
min max
pi cture
for get
Ġ(' ',
Ġinit ially
ĠPro to
ĠEn code
ĠComp ound
ĠUni mplemented
ï¼ ī
bus y
analy zed
Option Group
ĠTensor Flow
Trace back
Pop up
Ġimplicit ly
Ġadapt ers
> /<
D st
d pid
in ction
Ġf uzz
Ġp q
ĠT ho
Ġlo ggers
pro vide
Ġat ten
ĠR T
Ġtemp orarily
link age
." ),
Reg ular
curren cies
Dep loy
Bit map
compound s
ĠSu bject
Ġinterpret ation
æł ĩ
overla ps
åĪĹ è¡¨
? ,
L act
n aming
v type
ra ms
Ġ""" ,
ex if
ĠD ummy
Ġ{} ):
class ify
class ifiers
Ġadd on
sub system
Ġpy g
cat ter
Ġsn ake
Ġpad x
ĠNO DE
Dir s
ĠBuild s
âĢ Ŀ
ĠCustom er
åıĤ æķ°
QUO TE
ĠAMQ P
x D
y scale
Ġre ly
Ġe b
Ġd urations
', ),
es sel
Re store
ref ine
Ġquery ing
Ġtw isted
('% (
hy p
gy ro
Graph ics
ĠSh ared
Ġedit ing
Ġsw arm
Ġquant ities
cipher text
ĠSerial ize
Ġcontig uous
Ġopa que
ä½¿ çĶ¨
E val
Q Color
_ .__
a max
m V
re o
Ġt tk
al ice
an omaly
Ġp al
Ġnot ice
sp er
ĠS ent
Ġma intenance
oc currences
ca ught
load ers
wa res
Ġexp lain
OG LE
Ġfact s
cm c
CA DE
ĠOpen SSL
Ġsoft max
CONST ANT
Ġdescend ant
readMessage End
6 23
I ss
S id
k afka
it u
id om
get list
(' ['
xt ime
ĠD ot
In dicator
Ġun compressed
Ġext rap
15 5
Ġ"{ :
(', ',
Ġmis c
Ġqual ifiers
Ġartist credit
ĠPol ygon
cas cade
ĠDest ination
D RI
in cl
in verted
Ġin validate
ad ict
is a
set ta
ĠM PI
Ġsh p
ĠQ Label
PRO G
So lidityParser
Ġfi xture
Da ys
( .+
0 55
O perand
c ms
f leet
v host
Ġi mm
an other
Ġre factor
Ġd store
Ġb ill
set Visible
pro grams
]) +
iter rows
ĠAdd ition
EL LIP
cut out
rand range
fc n
simple filter
Hist ogram
Fetch ing
Some thing
0 64
3 01
3 05
F lu
G y
N IF
j b
un parse
Ġm osaic
th readed
Ġcon ns
ta gger
In voke
[" __
ĠU DF
ab sent
sum s
ĠTO P
Ġsum med
Ġsum marize
Ġag reement
ĠDE SC
Trans lation
Ro om
Ġweb driver
conv olve
Build s
Ġsat rec
decor ate
Comple tion
ĠSkip ping
ĠDes ign
prom ise
Ġdistingu ish
ĠBRA ILLE
D ing
H dr
S i
g Q
v card
de co
Ġin secure
Ġb iases
Ġm q
Ġm pi
mp o
""" .
Ġan alog
Ġdate fmt
current ly
open ing
UN IT
18 7
Speci al
Ġalign ak
ĠField s
STATE S
GRO UND
Http Response
Ġcontig s
()+ [
Medi um
K NOWN
b is
t qdm
Ġf coe
Ġfor bidden
il lo
data file
ĠF actor
ĠP i
ĠG ive
Ġsu cc
action point
Ġlib spice
ĠCol ors
kernel s
optim ization
accept able
Ġinv ite
fl ds
ĠTran sport
ĠVariable s
ĠNum eric
ĠContro ller
Evalu ation
Ġprot otype
D RA
L azy
L edger
M es
d B
de al
Ġh h
qu eness
Re view
ĠP DU
Ġk k
Ġtra cing
32 9
Ġmake dirs
byte order
cm er
("- ",
separ ation
Part itions
equal ity
ĠFla gs
spac er
Ġsens itivity
Ġestab lish
DJ ANGO
B RO
C red
M ed
è Ĥ
Ġre create
Ġe mitted
Ġ+ --------
Ġg si
Ġor phan
Ġpa ging
). ")
=" {}
user info
max s
Ġtoken ized
25 2
Ġmemory view
Range s
Ġok ay
interpol ated
fficult y
Ã³ n
Ġclar ipy
) //
> ]
p att
x stp
å ŀ
al a
Ġre motes
um l
Ġco er
Ġse qu
sh lex
pa c
py lab
ĠL ow
nd x
Ġpy cbc
De livery
EN SE
copy tree
stream er
meta class
Ġstream er
33 9
Ġpipe s
em ma
tun nels
LIB RARY
ĠPop ulate
Ġnv ml
ĠENA BLE
M ut
b isect
n th
de viation
Ġre aders
it idis
)) ;
Ġ_ ):
ĠS lice
], '
Ġhe uristic
Ġpre condition
ĠL ower
replace ments
Ġ5 5
ib atch
mon o
Index es
vm ware
Ġpi cture
Ġwor st
ĠTop ic
) [:-
G reen
P tr
b ility
c raft
l x
n def
is upper
ĠE lasticsearch
ĠL icense
ĠG ithub
ĠG ateway
string ify
struct or
number Of
Di gest
Ġplot ter
Ġopt parse
29 8
Query Set
Ġio loop
Ġarch ives
ĠProcess ing
bra ce
å½ ķ
w ant
Ġan sible
sc f
ill ary
from file
Pro bab
Pro mpt
Ġpri mitives
ĠCheck ing
chain ed
80 8
respon d
('/ ')[
Ġcallable s
Ġcp d
Ġsuggest ions
sampler ate
æł ¼
ĠLIG ATURE
N B
Ġe f
Ġ' ]'
Ġd g
Ġm usic
get hostname
set Vertical
Ġg reat
ĠD id
json rpc
Con firm
ĠU cs
ann e
ĠW atch
File Entry
local es
02 00
CT RL
Comp ile
BO OL
Ġspa cer
bre w
Ġdeal ing
Bot tom
åº Ķ
U LE
z f
Ġre voke
]) **
ĠD IG
ost a
pol ynomial
Ġart ists
platform s
Ġmultip lication
enc il
æľ Ł
Ġneighbor hood
ĠPos itional
ĠBig Query
ĠDAT ABASE
2 68
it r
it ative
Ġn ex
co ffset
Ġto ur
)) }
Ġco arse
Ġla unched
sa ver
ĠG ene
object id
not hing
do or
change set
cor ners
}) '
16 3
ĠAPI Error
Comp osition
SP LAY
200 8
Ġkernel s
Sec s
Ra ises
ĠMon itor
Estim ator
Sta mp
Ġposix path
-~ -~
( ...)
^ -
` ),
m oc
s se
Ġ serving
Ġc ds
Ġp ids
arg count
Ġst ay
is link
'] +
ĠA DD
Ġme sg
Ġra mp
os i
ĠN orm
max iter
Ġ/ >
Ex ceptions
:// "
git lab
ven ient
Ġsepar ation
install ation
Su ite
+' _
PL ACE
ĠAss oci
ĠWork s
BL UE
uro pe
ĠBL ACK
D LE
H IGH
V Box
x FE
Ġin cl
Ġ' }
ĠT RAN
Ġcon firmed
Ġ{ (
ĠA h
Ġdata Type
Ġme d
Ġat ype
Ġno va
so red
of def
datetime s
15 6
Event Loop
19 8
Ġho mo
è¿ ĩ
ĠSerial izer
åŃĹ ç¬¦
ĠComb ine
sno oping
åŀ ĭ
> ':
ç Ĳ
Ġt urb
ar range
Ġre strictions
ss andra
co bacter
get boolean
ren cies
Ġat tn
ER IC
ĠR edu
pos als
plot ter
post fix
:] ),
network x
Ġtw itter
60 8
ĠTo ol
Ġus r
ĠApp lies
Ġcomplex ity
Ġsto chastic
Rel ated
ĠOrigin al
_ ('
g ist
s ids
in fra
ge vent
Ġ* \
ith metic
Ġfile paths
und ancy
py psa
ĠO NE
32 4
Ġ... ')
ĠData Array
sig s
Ġ"/ ".
ĠUser Warning
Ext raction
Block s
aggreg ations
FORMAT S
Ġnumer ator
Analy zer
655 35
fortun ately
g un
t re
å §
in cipal
at ile
Ġs lc
Ġe lasticsearch
is close
is hes
[' %
sp ic
Ġg v
Ġse ash
ind u
ĠD WORD
lic ated
ĠU npack
RE PORT
so cial
ĠDe leting
pk cs
Ġconstruct ing
Ġweb browser
Ġinteg rated
Ġorg anism
SY S
Ġwa its
Ġconflict ing
Ġrepe ats
asyn chronous
GR ID
nes ses
3 04
C ached
E mit
co ind
arg name
set Font
res cale
bo keh
IN DENT
pos ures
lib ri
no se
Ġ5 6
Ġvar type
Ġselect ing
18 6
fast access
area area
ĠInvalid Parameter
scheme s
DIR S
Ġsecurity Handler
Ġactiv ities
CB C
ĠTimeout Error
Runtime Error
Ġdescend ants
SCA PE
xFFFF FFFF
* ):
y t
Ñ Į
è ¾
Ġ í
Ġa pt
ap h
ub untu
sub module
ec dsa
Ġ{" $
ĠCon cat
SI C
Ġsome where
Ġmeta class
Ġhash ing
50 8
ĠIN ST
Ġupload ing
BO OK
sect ors
Ġadmin istrator
ĠStart s
Ġinstanti ation
OPTION AL
associ ations
ĠAb ort
lick r
Ġtaxon omy
M aterial
æ ¬
Ġc rypt
Ġre new
Ġe e
Ġg db
ĠS te
Ġv iz
Ġfile Path
bo ss
ho mo
version ed
Ġop posite
Ġso cial
Ġtra it
do ctest
Ġsy ms
iss pace
Ġcount ries
Ġab breviation
Trans late
ĠMessage s
Channel s
ä» £
Ra ise
ĠTransform er
4 09
: #
H C
V m
h aving
o q
u ity
le le
con sumers
ip amento
nd o
De precated
32 8
TI C
Un handled
AC C
ten s
cc d
ĠLo ader
Ġstri pe
Ġbuffer ing
war p
Ġinject ed
SIGN ED
MAN AGER
Ġprovision ing
ĠAut omatically
æ¶ Ī
W ARD
me mb
an u
Ġf reed
ot ic
Ġw al
__ ())
ĠP latform
ĠP hi
Ġexce ss
Ġpa int
ĠB i
debug plot
Ġpy tgbot
su spend
ĠQ R
project ed
CO VER
hash able
17 0
User Name
KEY WORD
TR ACE
Ġneur on
ä¼ ł
ĠOperator s
B M
M ay
Ġ Ñģ
Ġf v
fi xture
co pied
Ġm im
__ "
Ġl ane
tr n
pa id
col lation
DE ST
vis py
Config Error
Ġhour ly
ĠBe fore
conver gence
Ġrdf value
Ġpersist ed
å¤ §
CAS RN
Take s
è° ĥ
ĠGRO UP
3 13
F s
P at
P AN
S ty
l lier
ro uters
fi fo
un escape
Ġis file
ble s
Ġg g
00 6
tri g
ĠRe al
ump tions
var type
SI MPLE
Ġdatetime s
access ion
Ġ'\ '
Ġ'{ '
Ġ7 2
Ġsa ver
spe ll
ĠCall ing
ĠCON T
Ġaff inity
nv ml
hib it
TRANS ACTION
ĠPress ure
Ġbeh ind
ĠDepend ency
dise ase
D AC
Ġe ol
Ġe lection
ra i
Ġh is
ĠP lay
ff f
Se quences
SI BLE
20 7
Check sum
=_ ("
ĠExt ended
ĠFilter s
Ab out
Ġretain ed
- {}'.
Ġh orizon
ĠA rea
Ġ`` [
write String
ak a
CO PY
Ġvar args
18 9
At trib
gp d
Initial izing
ĠInter pol
Ġclip ped
IZ ED
pagin ate
iel la
SCA LE
% ',
æ ±
Ġ )))
Ġ è¿ĶåĽŀ
en es
Ġf al
Ġf wd
ĠC rypto
Ġ2 048
Ġat tempted
ann ess
Ġq r
Ġindic ators
sim ulator
Load s
ĠEvent s
ATOR S
Ġvisual ize
Ġske leton
Ġdum ped
igab ite
4467 4407
44674407 3709
W F
in n
Ġc licked
Ġre wards
Ġde sk
': {'
to wer
ĠC trl
error Code
ag s
DE LE
Ġselect ions
ens us
33 4
bl ur
Ġglob ally
Ġarch ived
REG ISTER
ĠDef inition
inherit ed
contour s
Ġparagraph s
Percent age
hance d
ole ans
ĠâĶ Ĥ
Ġâİ ¢
J OIN
V H
Z ERO
n ary
Ġt umor
Ġc ry
Ġre cs
Ġ< !
Ġin sensitive
Ġst ress
is play
con vention
Ġcon centration
key chain
Ġ== ================
Ġpro tection
ĠD ialog
=" <
ĠR AM
sub titles
ĠTh er
rt m
Ġcl r
ĠGet ting
mod ulename
AND ARD
Rece iver
ĠSpecifi c
Conv olution
446744073709 55
G l
] "]
c ad
u uids
Ġis dir
'] [:,
(" (
Ġr ss
ĠI tems
base url
ON ENT
Ġtra des
pr s
)] ),
Ġpri m
PO LL
ĠRa ised
tab Widget
Ġkind s
FORM ATION
spin box
ĠPrint s
RAN CH
frozen set
Scroll Bar
Pref erred
D jango
T EN
f u
Ġre nd
lo se
ad am
is c
qu ants
qu arter
ĠC md
ow l
ĠP c
ĠP otential
mm ing
ip pets
py dev
In dication
AN GE
Ġmsg id
Ġ{' _
ps util
Ġsp anning
test case
Ġover writing
loc ated
Ġab orted
Ġgen o
ĠAPI s
")) .
wit ched
any array
([' --
hy pot
Ac counts
Ġdriver s
Ġdig ital
ĠDesc riptor
æ³ ķ
B RE
H Q
P l
â ľ
re cogn
Ġre gs
Ġre order
Ġde signed
col names
ĠM USI
Ġ5 2
Ġab br
PO OL
mult icast
ĠPre vent
Ġknow s
ĠAR N
Comple ter
) =
N othing
P ENDING
R h
d uplicated
g rep
Ġs quares
ate st
Ġ# '
Ġg n
ĠA u
ĠS ID
ĠC ross
ĠM achine
Ġsize of
Ġdoc strings
test ed
Le arning
sigma s
ä» ·
Ġred shift
Ġil legal
Ġjc vi
S PI
S olver
S DR
\ _
â Ī
Ġst aff
is olation
key points
Ġg andi
que s
ĠE ffect
read List
ca b
Ġk n
Ġ`` /
da mp
Ch ars
TER S
'} }
download er
Ġdrop let
ĠDis crete
Ġpan els
Project ion
COMM IT
Ho isted
Ġmail box
Samp ling
Mac ro
H ot
M alformed
Ġs os
Ġde dent
Ġm z
Ġh al
Ġy p
Ġout File
py test
ĠM C
DE LAY
table Name
Ġ4 7
def n
cent ered
comm ission
stamp s
CE L
RA S
display ed
Pre diction
wave form
Ġthro at
Ġunders cores
åĮ ħ
W ill
g mn
p fp
s atellite
Ġd ax
Ġ# ~
str al
ex tern
ĠM X
Ġpre processor
Ġformat ters
ert ia
Ġ'% .
Ġref ine
He at
App let
SH OW
spe aker
kind s
vs witch
mq p
Contents Margins
ĠExp and
Ġ'; '
ZX J
2 12
j upyter
or onoi
st icker
Ġe mb
ent ific
ra c
op i
Ġsub st
RE AL
Ġinter rupted
Ġq name
du ces
extend s
Ġzip ped
EX PI
AS N
any cast
Ġanaly zed
Connect ing
Ġquot ing
({}) '.
inherit ance
Origin al
STRUCT URE
ĠChar acter
3 19
A st
K ER
M j
P IN
P USH
W CS
n io
} ^
å ¿
Ġe id
Ġde posit
la cer
res ized
Re vision
Ġfrom list
Ġ3 65
Ġexist ed
Ġdb t
cp d
mag enta
SP ACES
88 8
Status Code
]+ )',
Ġ201 3
ĠSystem RDLParser
ĠLO CAL
Ġtur icreate
ĠANT s
igabite thernet
( ~
+ (\
3 55
6 39
R ound
S cores
` \
b enefit
} }{
Ġ 9999
Ġ Erp
in asafe
re main
Ġ" ):
ri cs
as anyarray
sp ir
ĠP C
ĠO ld
ĠR ename
Ġnumber Of
AL PH
Ġad joint
ĠSe lection
UL AR
Widget Item
auto complete
ĠTemp orary
Ġface ts
Require ments
Ori entation
CONTAIN ER
= ')
G W
P du
V OL
¤ º
Ġt alk
Ġin serts
ke x
Ġas array
ĠS aves
ci f
Ġy axis
ĠG T
SE P
ĠCon tact
Ġ(' \
UN ITS
Ġap parent
Index ed
Ġimplement ing
Ġtyp ical
AF TER
tin y
ĠLO AD
Ġbr ush
ĠZero DivisionError
2 28
G ORY
J ust
j itter
n ac
n itude
un hexlify
() (
ch own
up sert
ĠT T
ist ries
Ġv en
ĠN L
pi cker
tp u
ich r
Ġ[' .
Se ed
wait ers
ear th
ific ance
Ġbyte string
cut s
Pre sent
Ġpad y
expect ations
Import Error
appro ved
UST ER
Attr s
äº İ
calib rated
Ġdbs Exception
ĠAltern atively
44674407370955 1615
3 02
; ",
G V
G ATE
M ount
M pls
U cs
r k
Ġt n
al ong
le ms
Ġin cr
Ġfor med
ul um
Ġst reet
Ġpro filing
ĠD F
ĠM AR
Ġpre pended
ore l
by e
Ġlog arith
64 4
Time d
DI M
Ġgraph ics
17 6
Client Session
Ġpers onal
tun e
URI TY
Ġvisual izer
lar gest
Ġaccum ulator
ĠPyJs Hoisted
denom inator
uby te
0123 456789
C au
t u
Ġre vocation
Ġp rs
Ġs ched
Ġ" ("
'] *
Ġl inter
---- ---
[" --
sub scribed
open stack
25 9
Ġtri e
23 0
ĠUpdate d
Ġpresen ted
ja cobian
Ġclip board
ĠNaN s
PRI MARY
pic ard
ĠSTR ING
Ġliter als
Heli cobacter
ĠMUSI CAL
A MPLE
c rash
f info
m us
x array
y in
re ma
Ġs ongs
Ġl u
ĠI I
app y
tra vis
Ġz en
run as
prefix ed
Ġident ification
Ġimp lied
ĠIN SERT
prob es
Ġforward s
genes is
priv key
Ġinterest ing
éĢ ģ
DIFI ER
ABI LI
K HR
M i
r ts
s quares
Ġd na
get frame
key pair
Ġl sb
Ġh older
ĠS ql
ĠS ensor
ĠF raction
Ġv d
ĠP V
ĠRe st
ĠV ert
base path
Ġconfig urable
Ġsub stit
tra versal
Ġne utral
Ġcolor ama
Ġcopy right
EL S
Qu ote
Ġmon o
Ġge ometries
ĠDE C
37 5
UM B
QU ARE
Tra cker
Ġ"' ")
Pool Executor
Bro adcast
Ġther mal
ĠPA SS
Ġhar monic
Ġhypot hesis
aro on
) [::-
2 65
k f
z lib
in ge
Ġp lat
Ġn dims
Ġs ids
ing o
ad joint
el b
Ġof p
ĠT AG
ĠT witter
out liers
Ġres ampling
Ġk dims
{} {}
RE CTION
send all
entry point
=( -
Ġob serv
OP S
(', '.
internal s
Mult ip
Ġcod ename
explo rer
Ġgrade book
4 05
Ġt ango
le ague
Ġ" ))
Ġex tern
Ġan chore
attr getter
ĠR C
ml st
Ġover head
du cer
pk i
Ġsum s
tmp file
ific ado
Ġextract ing
norm s
na ils
AM S
Ġregex es
ĠPre dict
chr one
READ Y
æľ ¬
Ġ---------------------------------------- ----------------------------
Strict Eq
Ġsemant ics
ĠAddition ally
" >'
& &
C licked
M argin
Q MessageBox
å Ŀ
ç «
è ±
Ġp seud
Ġin et
Ġa ffi
Ġd ll
__ ":
Ġ+ ----------------
to dict
time period
Ġup dater
To Many
SI X
66 9
ĠCan vas
Wh at
Ðµ Ð½
ĠPay ment
B US
F lush
H MAC
Q C
d ask
e lif
f etched
p list
s ue
s dist
re member
Ġre late
id p
Ġth rift
jo bject
Ġout path
Ġsub folder
Ġbu gs
for tran
Ġac ct
Ġver ts
inst antiate
ik ipedia
Ġorigin ally
Ġhy dro
coun ted
BIN D
ĠCOL OR
heat map
ĠPos itive
ĠUt ility
DEFIN ED
Redu ce
. ).
R etrie
W ind
b x
p ora
at an
Ġf und
ce ph
ma sters
ver ses
Ġh yperedge
py rogram
ari ff
ron ic
lat ing
ax ies
find All
04 0
hed ral
27 7
Base d
)- >
Ali ve
Err back
ľĢ è¦ģ
E DIT
G IS
I AM
R B
_ ",
n ational
u fo
Ġi map
Ġn xt
') "
ap ers
Ġelse where
ĠS creen
Ġj d
Ġhelp ful
cert file
skip ping
Ġdistri bute
ĠNode s
sem antic
Ġplan es
docker file
Ġur is
ĠPri mary
xF D
ĠOverride s
isEnabled For
* [
A nswer
O ffer
Q Rect
n bins
} `.
Ġs olved
ĠT M
ment ions
Ġse rie
=' -
Ġen sembl
De tected
match ers
Ġhelp s
fla v
String Field
rule set
Ġconf usion
ced ures
mar ked
collect ed
ĠLa TeX
Equ ipment
bul let
COLUM NS
Plain Text
F o
G ear
U d
U ME
c sc
e uclidean
o z
in stead
Ġs lashes
set ContentsMargins
Ġu gly
Re served
Ġal phas
ĠRe verse
ĠN a
lu on
Ġac id
Ġcor rupted
Form ats
Ġrc Params
Multi Index
Ġbook mark
TL V
ĠGu ide
H OLD
R i
r ls
t ren
y c
Ġ ][
co ok
list ed
add Child
oc cur
ran sport
sub string
Ġmin val
su ites
Ġqu arter
scal ars
Ġexec utes
Ġar p
03 6
Ġcli pping
Ġheight s
pipe s
]+ ',
Rep orter
ĠFAIL URE
THRESH OLD
T AB
v owel
at im
Ġf min
ri ed
'] [:
ĠS PI
ĠD ATE
Ġk afka
ĠR s
db c
Ġtrans mit
33 6
Ġtmp file
insert ion
ĠRuntime Warning
Ġfill ing
Ġve locities
TRI ES
Ġscaff old
I BA
b kg
Ġre ciprocal
Ġa db
Ġb acterium
par ation
Ġu ptime
node id
ĠW rong
Type Name
Me ch
uni prot
Ġ'- '.
Ġbin ning
fra ctions
PATH S
Ġho le
Ġcontroll ers
ĠST D
Pos itions
("_ ",
POINT S
ĠEd itor
Progress Bar
ĠComple te
CRY PT
ĠCat alog
Q uestion
S cheme
Z W
h sv
m utable
n bits
y d
æ Ł¥
il x
el net
Ġco bra
ĠC li
ĠD A
ĠM W
sen ts
Ġsub sets
Ġcomp ilation
De g
io di
Ġneed le
18 446744073709551615
HE IGHT
Ġ$ (
Ġredirect ed
Cre ator
ĠSQL ite
101 6
provision ed
Ġmav util
Ma jor
ĠBU ILD
m nemonic
t one
Ġ ë
Ġp ika
Ġin dep
() \
Ġto wards
Ġx axis
Ġsub missions
md s
EN GIN
Ġref erred
ĠIO Loop
Const raints
BB BB
çĽ ®
Am erica
ĠEng lish
I AS
M r
b ps
æ İ
ç İ
Ġf ib
Ġs dist
Ġde viations
Ġ: ].
ĠI G
ĠS PE
ci Ã³n
Ġy data
attr name
ĠM ass
ab orn
** .
si bl
RO LL
xy gen
LI T
Ġar m
DI C
Ġthrough put
IM UM
Ġslug ify
Wh ile
Static Text
Ġprom ise
Ġsaf ety
COLUM N
C RC
D ST
S quare
k ron
Ã ¶
re views
or i
Ġi aa
Ġin divid
Ġd rift
ma f
ĠT BinaryProtocol
ĠD H
Ġal one
Ġsh aring
RE QUI
ax vline
tag name
uni verse
33 8
Ġmeta bol
Method Type
ç» Ħ
depart ure
gat k
5 37
p ump
Ġa se
Ġs rv
Ġ# /
Ġ" ..
Ġ1 00000
Ġg m
ĠP UB
Ġan omaly
Ġ{} ;
log like
Ġsub dirs
ob serv
ĠPy PI
VER IFY
Ġns map
Ġwin reg
Test Case
Ġscheme s
("/ ",
suggest ions
Ġreplic ate
B N
L ost
h v
n axis
o vs
at ility
de cls
ge bra
Ġ" ?"
ren derers
ci ble
pre cip
Ġsub plots
DE TAIL
Ġjson schema
ton ian
tab ulate
Ġeffect ively
wind ll
conj u
Press Event
servo ir
Ġpyx el
P c
h ls
m argins
p fs
w file
ar rival
__ ._
Ġl al
Ġl sp
sp onsor
ĠI MAGE
ĠS ky
Ġpro cs
ĠP lots
Ġget opt
ĠO ID
IN K
IN CLUDE
ann on
mat gen
ĠJ a
Class ification
99 5
Ġvi p
Ġlink areaarea
ng l
27 0
30 8
report ing
Process Id
45 6
compress or
ĠSO AP
$ "
2 19
B SD
} ],
Â °
Ġp cap
un read
() "
val or
di um
ub it
Ġse gs
us hes
Ġdi com
im c
Ġmsg pack
ĠCon venience
Ġerr back
23 9
!! !
(""" \
Ġgran ted
occup ancy
Ġran ked
ĠCLA SS
sibl ings
H AS
K D
N EXT
b ld
c isco
i val
p q
Ġa gency
Ġex hausted
pro mote
ĠS U
fo c
ĠM ail
"] +
ĠR V
qui libri
temp s
ste in
ĠDe ferred
TI TY
Ġ5 1
Ġcmd args
char ges
coord inator
Ġrule set
bind s
Ġindent ed
cla imed
Ġhist orical
install er
ĠQuery Set
STAT S
è¿ Ľ
Ġcrop ped
Place holder
SAMPLE S
Ġcaref ul
P LE
R DD
m data
n ts
r data
re order
Ġp config
Ġde comp
Ġl sm
sh aring
Ġx id
Ġen s
=" %(
ĠR S
sg Parser
De precationWarning
Ġclass ifiers
En crypted
Ġsc anning
Ġsen try
posit ives
imp ro
Ġunique ly
.* )
short name
Mo ck
SN MP
Ġsampler ate
Org anization
Ġreplic as
147 48
2 29
I TER
M U
R at
T BinaryProtocol
g mtime
s mi
è ĩ
Ġt an
me l
Ġn bins
pe l
Ġ# ####
Ġ+ ------------
age Maker
Ġg at
ms h
Ġun handled
Con tain
ac ion
Ġpo se
Ġ>> =
Ġimport ance
Ġ4 9
Ġcal lee
Ġany where
float s
iss a
rt l
ob servable
DI SPLAY
Sh ader
draw ing
Gener ated
Ġdraw s
lev ance
need le
Ġear liest
ĠAUT H
conju gate
F G
V ersions
t max
de crease
Ġdef ect
ch ase
Ġh or
qu ark
ĠS pan
oc s
ĠN EW
ĠM aster
ĠW a
ref und
filter ing
ĠFor ward
Ġafter wards
ĠNote book
Ġlat ency
Ġ"_ ")
ĠLog ical
åĬ ¡
Ġgran ularity
supp lied
Ġ'| '.
A W
B ORDER
G ain
] `.
h la
é »ĺè®¤
Ġex if
to bj
ĠS S
ĠP atch
fa vor
ind ers
ĠM IB
ĠB its
Ġdo ck
Ġcheck points
ID X
fer mi
Ġsk i
initial ization
IO S
writ ers
exist ent
tl v
("/ "):
EXT RA
circ ular
================================ ================================
Plugin s
ĠVer tex
ĠSome times
Ġmeaning ful
wavelength s
Ġmention ed
setStyle Sheet
2 69
B ias
H DF
I CON
Q VBoxLayout
r ature
å ±
æ ¯
on nx
Ġn th
Ġn col
Ġn br
od ps
ĠS igma
add Row
Ġch a
pre release
Ġsub commands
Ġtimeout s
Ġap du
Ġ9 1
ru it
Ġevalu ating
uff led
comb ination
Ġsec uresystemslib
Ġbasic ally
åĪ Ļ
ji ra
associ ate
ĠMult ip
Ġquick ly
Art icle
Ġintro duced
ocor relation
ĠDIS ABLE
âĸĪ âĸĪ
ĠCHE CK
/ '):
0 65
H INE
á »
Ġc ats
Ġf u
Ġn grams
Ġs ilence
ch en
ri st
Ġel m
Ġlo cs
Ġra m
add Errback
ĠW IN
Ġinput ed
Par allel
En semble
pol arity
EL LOW
Line Items
ĠValid ator
Temp erature
SCRI BE
equ iv
ĠHy per
Ġresol ving
) ^{
B ed
L B
N ested
Q Frame
S olution
se ter
re search
Ġy aw
ener ate
Ġrun nable
check points
:// '):
ĠDe v
fact ories
graph ql
CON FI
cho ol
27 8
(- (
Dis crete
Ġmag netic
USE D
+" /
Usage Error
Ġgreen let
Descri be
è± ¡
D GRAM
j r
n ginx
Ġc ategor
ĠI V
ĠI mplements
ĠC LO
ĠC ritical
ĠP s
ci m
Ġ` "
sh op
op atch
Ġk d
pect ive
De letes
Ġclass ical
33 5
mod al
PO CH
mal ink
VI RT
Ġ{}) ".
ĠBE LOW
Ġè İ·åıĸ
Contin ue
Ġprox ied
ĠCUR RENT
Ġposit ives
2 67
L c
R X
_ ")
u pt
Ĵ Į
Ġn z
Ġex ports
Ġ== =
Ġdata file
Ġpa used
ĠM ON
doc name
}) \
14 48
ob ium
ĠZ IP
aut ore
balance d
Vis ibility
ĠSup press
../ ../
Medi ator
ĠSUP PORTED
abbit MQ
orel se
B a
N x
d ont
k ick
æ ¡
Ġ' //
Ġv ms
Ġma j
bo b
lin ter
Ġle aving
ĠTh rows
np m
su cc
ns map
20 6
19 5
(', '))
optim ized
MB IN
Ġ"+ "
Ġinc ident
chart s
Spe cs
SECON D
displace ment
lipt ic
COMPLE TED
J UMP
Ï Ģ
å ĳ
re map
at m
Ġc ash
is function
set Name
Ġh ive
Ġor acle
Ġco var
Ġco inc
ĠC K
add ons
ĠV RF
ĠL ED
son ant
Ġint ensities
lin enum
ST RI
sy mpy
av oid
TT OM
Ġback ing
99 8
\\ \\
ĠLo gging
Ġimp ossible
Ġpol ler
Ġbot tleneck
Ġaut os
aw kward
Port s
Ġ'# ':
integ ers
scroll Area
Cho ices
Ġsuggest ion
ALI ZE
Fit ting
ĠOb tain
ĠHo ok
ĠShEx DocParser
w rapping
re ached
Ġn ib
Ġb k
un safe
ect ions
ĠD ouble
Ġset t
Ġal though
Ġnew node
ĠG reen
Ġsub titles
write Struct
Ġle fto
Ġcls name
ĠCon version
link ing
25 8
ED GE
ĠCh ild
distri b
unic ation
ĠTra ining
Ġcos ine
cha pter
ĠFormat ted
quad ratic
ä½ ľ
ÑĢ Ð°
ligh ted
ĠMeasure ment
K le
O Frame
Q R
T V
n sp
Ġi tr
Ġa perture
Ġw r
ad vertise
__ }
th r
Ġg one
ĠC Y
text wrap
ls m
01 3
sum marize
block Signals
Ar row
Add resses
20 9
pipe lines
AG G
listen ing
Wh ich
BL ANK
Ġtun e
Ġsect ors
"/ >
BV V
Ġprivile ges
D at
F ollow
O C
` "
f ct
Ġ ].
on to
or able
he art
Ġa q
Ġs io
is method
set Color
') \
Ġco unted
Ġr dtype
ĠS anity
work unit
Ġnon local
src dir
34 8
Ġ"{} :
sock name
Ġplay book
Pair s
descend ant
Acceler ated
( ...
M IL
N v
t type
Ġf info
Ġ" *.
el la
Ġlo oked
ort ion
ĠS k
Ġy r
Ġfile handle
Ġal erts
ĠW OR
Ġmo bile
Ġ5 8
Ġexp orter
99 7
ĠAn not
Ġgen us
Ġcomple tes
Ġvari ational
80 5
Ġextract s
Line Item
layout s
dl c
Initial izer
evalu ations
ĠÐ ¿
Ġocc u
Stre pt
SETT ING
occup ied
Ġdesk top
= ?
d ap
n pts
w arc
ç Ń
re defined
at ers
Ġc w
Ġc val
Ġs al
li ze
Ġb lobs
Ġ" ).
op rnd
read th
ab a
ME MB
Un der
Hand les
initial izers
mount point
cla zz
Ġcut s
flatten ed
Ne gative
Tool Button
Ġpointer s
CREATE D
ĠMag IC
Ġintern et
abb rev
Evalu ate
+ ]
A bsolute
M ol
c ion
re voc
Ġt one
Ġt cod
Ġc lobber
Ġe ager
ol w
ĠA m
et ing
ĠE quivalent
ĠE QUAL
Ġle ak
... \
14 09
Not Supported
66 8
Ġ'{} /
Inter faces
Page s
evalu ated
Ut ility
Ġboto core
TERN AL
ĠCho ice
ĠCOMM AND
TOT AL
A SS
a ches
b al
e asy
z es
Ġm us
ĠT E
ap id
Ġ* [
fo obar
ĠE P
low est
Ġun matched
Ġk nn
fix es
LE T
Ġsc m
tro py
make file
Ġconst rained
28 5
Token izer
multi color
mis sed
Ġinf inity
ffe rence
Tr ust
ĠAli as
ĠPr inter
ki G
b ic
c nn
Ù ħ
re con
Ġre mot
Ġp mid
Ġn pts
Ġb ubble
Ġm ixin
(' ..
set Tab
am t
Ġg ss
url safe
pre amble
Ġhe art
Ġcol names
IN EL
Ġ`` {
Ġz i
']) [
Ġ4 09
ten ess
04 4
Ġar range
Stream s
tw isted
aggreg ator
Ġaverage d
ti po
("{} :
mn ist
iline ar
calib rations
Ġchromosome s
ĠMetri cs
2 16
b file
m ilestone
u dies
| %
¥ ¨
ype t
Ġg ym
ĠD ir
om al
ĠW ORD
Ġ! !
Ġno isy
Ġj e
ME S
ID M
Ġsk u
SER IAL
digest s
Ġrecent ly
Ġcs rf
regular ization
ĠUp per
eng lish
Ġoutcome s
M u
M ib
M dl
a ud
s ic
u cs
u func
y z
Ġh over
(" :",
ĠP air
ĠP auli
ĠE ner
tra cked
ĠH ex
ĠQ Widget
Ġ8 6400
34 7
hy brid
Def initions
predict ive
6666 6666
ĠConst raint
gal axy
swap axes
pho ebe
G N
I so
b cc
j enkins
p il
s ales
v dims
x o
} ?
in ary
Ġt ill
Ġc rl
Ġ# !
Ġth readed
Ġco vers
kw only
ĠE LE
ĠN ONE
ĠL IST
Key boardInterrupt
Un classified
Ġsc enarios
Ġclo ser
Ġtri angular
speci ally
19 70
Ġmod ulus
pool ing
SC AN
ĠComp osite
cf m
IS HED
Sp line
('# ')
resolver s
Ġincrement al
Exists Error
ĠMode licaParser
Ġpic ked
Ġprun ed
fus c
Cancelled Error
F raction
S ink
S izes
d end
d sp
f ord
g db
re li
Ġn tp
Ġb ail
ad ic
get Data
il ly
Ġcon soli
ext rap
tri angles
Ġal tered
Ġrequest er
ĠO ct
ĠR R
St ub
mi um
Ġwork book
ĠType s
Ġform er
Ġ8 4
cho oser
27 5
Ġtransform ers
csv file
35 7
ĠObject DoesNotExist
mq tt
Ġcar rier
Rel ative
Ġcolour s
Ġresample d
ĠFact ory
A ck
E m
M id
k x
n apalm
è ĥ½
re veal
Ġs age
Ġo do
Ġb orders
Ġm ind
Ġ( =
Ġse quential
Ġra re
ĠF ace
ĠD ag
ĠN AT
ĠM et
ĠW orld
Ġsub scribers
if rame
Ġcomp licated
Ġne ural
ĠPar allel
Ġpassword s
gre SQL
Array s
Ġstri ke
*( \
Function Def
ĠBo keh
bra ckets
eig envectors
recipe s
Ġdisp lays
Ã§ Ã£o
D s
F ake
] =='
g cs
h ack
n best
s now
re strictions
Ġt pe
Ġt angent
Ġc one
Ġre versible
Ġp open
id ge
Ġ" ^
is otope
par allelism
file info
ĠM ATCH
ER E
create Element
64 9
ĠAn notation
qual s
Return ed
IP Address
URL S
(? :\
Ġcsv file
Work s
green let
follow ers
ĠExtract s
Schedule d
ĠAN Y
Ġmix ing
ĠFORM AT
Detect or
recomm ended
offi ce
Lact obacillus
ELLIP SIS
çĲ Ĩ
TBinaryProtocol Accelerated
C r
J PEG
M z
_ ["
f re
h kiG
l atable
m map
n me
n samples
n pix
æ ĭ
an i
ame s
ri ched
ath ers
ĠS pect
ĠF IL
bu gging
Ġout f
ĠRe moving
`` ):
ĠG alact
ther mo
Ġper turb
ne igh
25 3
Add itional
Ġrece ivers
ha ust
Ġarc py
Ġstation ary
Ġce il
ĠSto res
Ġgal axy
kq hkiG
+ ':
D atum
x r
Ġb qm
() *
'] ]['
ig en
Ġres istance
ci de
ĠM ot
In dividual
Ġnew path
AT ER
Ġpass ive
ĠIn strument
exp orted
book mark
Ġassoci ations
sd ss
ĠSh ift
Ġpagin ate
Mod al
paragraph s
paren s
contiguous array
ĠMutable Mapping
' _
B i
P lus
\ -
m jd
n ical
y outube
st m
ĠT C
Ġg z
po res
ĠS HO
Ġal phanumeric
ĠM any
Ġ\ *
AN NOT
Ġdis placement
hash er
Ġar quivo
ker beros
ĠValid ates
SET S
td c
ev pn
Configuration Error
hyper visor
(.* )
åĬ ł
Ġske l
ĠRece ive
BgNV BA
satis fied
? %
E QUAL
Q S
q size
z ij
li et
Ġu c
str un
Ġra pid
ĠRe ason
Ġwe st
Ġdis cri
32 1
Ġlocal ized
Reg isters
Al location
assert ions
Ġinternal s
Ġsigma s
ĠChe mical
B H
E EXIST
P an
Q Size
e u
h is
j av
k nn
t ld
id f
ul ong
sc ans
op ies
json ify
ĠR NA
Ġuser info
Ġsub directory
AT OM
ne ver
Ġ4 29
GE O
ĠPro blem
Ġsort s
200 2
Ġtermin ator
neighb our
Ġcap able
Ġpercent iles
evalu ator
("/") [-
åĨ ħ
Ġacceler ation
PAY LOAD
Resid ue
A Z
\ ""
e ager
i id
y um
st ones
ut ting
Ġb lo
fig s
Ġ` <
bo s
RE USE
from buffer
sk learn
ob ot
Text Field
fd open
Ġpipe lines
Ġsyn apses
68 5
Ġmonth ly
PL US
Ġplay ing
æľ Ģ
combo Box
wk t
Ġvr rp
B ED
W here
l al
ss ip
Ġw ake
Ġcon fs
Ġ[ %(
Ġco uple
ĠD ig
comp uter
rep rs
01 01
bs iella
net id
sum moner
Ġpy ramid
local ized
Ġauth n
DO CKER
Ch arge
MA STER
Ġbot tle
ĠCh unk
PC A
Protocol TreeNode
ĠMO DE
increment al
tel li
~~~~~~~~ ~~~~~~~~
Ġpract ice
ĠMQ TT
R ating
S tri
t min
¨ ĭ
con omy
Ġh ang
ĠA nother
Ġv owel
Ġx b
node Type
ĠH ack
Ġstart time
pri o
Ġ(' <
Ġ[' /
Ġarg list
Add Spacer
ĠLo ss
({' _
ru ption
ä¸ ²
bed file
Ġexpr s
ĠPer cent
rm dir
ĠSub scription
ĠLabel s
ĠEd it
Ġsucceed s
ĠContin ue
Kle bsiella
H ow
R d
c lin
s ma
Ġd sp
un os
Ġ( &
arg parser
di angle
set Item
Ġ== >
ĠS ageMaker
join s
vert ised
Ġallow able
Text Edit
rou ble
66 0
28 7
Ġpop ulations
Ġdownload er
ĠIP s
vers ity
ops is
Ġmis sed
stand alone
Comple x
Ġarc name
ĠChange s
MAC HINE
CAS CADE
2 13
N u
e ighth
j it
w ks
| [
re cursively
or o
en umber
me sg
Ġo file
Ġst m
set Shortcut
int ra
ĠC redentials
ĠC ategorical
bject s
Ġy c
pre processing
Ġen queue
Ġcol lapsed
log it
Ġsub field
Ġspeci mens
Pro files
Ġht t
En velope
project ions
gen re
down stream
ins ights
addr info
Field Name
Ġcomm unicate
ĠPro mpt
Ġdisplay ing
regex es
ERROR S
Ġ'* ',
Ġau dience
Ġneighb ours
ĠSub Element
Ġut ili
priv acy
ĠON LY
lig and
tel net
å¼ Ģ
PROPER TIES
Ġgd al
3 03
@ {
B old
C andid
G MENT
R ich
l h
p len
s an
in correct
Ġi y
Ġf abric
Ġn exus
Ġb rowse
un compressed
un mapped
Ġbe have
=' -',
Ġkey points
Ġpre fs
Ġun ary
Ġun bound
sub path
LE SS
Co e
Ġpy lor
De termines
List Of
LO ADED
Ġsum mar
ĠUn like
Ġlib virt
19 7
28 4
Ġinstall ing
Al arm
Do ck
Work ers
("_ ")
onet ary
Ġpylor i
B RANCH
p unct
re moval
Ġt ells
de coding
co uch
up pet
Ġco upling
ĠA A
ĠN A
ĠL STM
work book
Ġmax imal
rt t
Ġav oids
ĠK wargs
Ġsk ill
zip File
roll ments
80 7
35 8
68 7
Ġpool ing
aut om
ĠAuth entic
bet ter
SN R
Fin ish
exponent ial
Ġcraw l
ORIG IN
C rop
I RA
e fficiency
g le
re serve
re ferer
Ġs on
Ġd dof
ath on
__ ``
'] ='
ĠC ACHE
ĠP CA
Ġan c
sh tein
ĠD one
ust o
ĠV ET
lu a
user data
Ġadd rs
point ment
off s
si ms
pri mitives
To One
Ġsign s
rs ync
27 9
Ġinvalid ation
Ġaut ore
Fe e
Ġutil ities
SA VE
sw ift
Ġcir cum
Ġquote char
Bg kqhkiG
F M
S park
b iter
c ript
t end
lo ud
Ġcon junction
ig t
ĠC RL
pre trained
ĠM andatory
Ġtime it
Ġun subscribe
Ġk g
Ġdis cret
sy mb
SS P
Model Index
28 9
ven shtein
DEFAULT S
Ġevalu ator
Parse FromString
Cal ibration
Ver b
nu c
Pattern s
PRI ORITY
Validation Exception
Ġcombo box
Tap Changer
GOR ITH
K T
O US
T k
o zer
x FA
Ġf cn
Ġn fc
ol erance
set t
am er
ĠS imp
ĠS pin
ĠP ix
__( ):
ĠM er
Ġpath way
Ġro s
". '
sub commands
0000 1
Ġqu aternion
Ġref und
Ġar bit
cat alogs
15 3
Ġcustom ers
BU CKET
Ġclean ing
ĠEn coding
Ġbit rate
Read able
([' %
Exec utable
57 6
conver ged
ĠMo difi
TAL IC
Strept omyces
D t
G re
R Lock
a vi
s parql
| _
} ``
de activate
an tom
ent e
il Parser
il tered
Ġcon venient
Ġh po
ĠD uration
ho les
). '
ep ilog
sa v
ĠO FF
Con tour
ĠG d
ĠH er
no aa
cy c
cond uct
Sh utdown
Inter vals
={} )
30 9
35 9
Ġinteg rity
Tran sactions
Connect ivity
ĠExec utes
MQ TT
Weight s
RUNN CFG
ANALY SIS
" ><
, :],
C p
G PIO
K ILL
Q TextCursor
a W
n Data
x so
Ñ ĩ
or phan
Ġa mt
Ġs vd
Ġb other
Ġb cc
Ġm ist
Ġis olated
ode tic
type of
ig s
Ġdi a
Ġcomp liance
Ex act
AC CEPT
UL D
rop ic
ĠPro vides
stats d
side s
=% .
23 8
google apis
nb x
Work ing
Ġphase d
Ġgre edy
="{}" '.
' #
C Z
C s
K nown
k r
t pe
t var
er kzeug
Ġin herits
Ġs hear
Ġb x
() ``.
ter ior
'] /
Ġl z
pa ging
ĠN T
Ġpre cip
"] },
ĠH G
ĠH MAC
Ġ} ))
off ered
Ġhost port
Ch rom
Ġar rival
ĠPy Qt
leg is
PRO DU
Ġsyn thetic
200 7
System RDLParser
Ġlif e
CLO UD
neur on
ĠLa unch
/ __
C Q
E ach
T i
í ĺ
Ġt ds
he ta
Ġ' ]
get ting
um mary
ol lar
ĠT ile
ĠT KK
ĠS core
ĠC N
ĠC ent
ĠM ET
Pro ps
De bugger
Ġinter sections
ĠAr g
Ġsign um
Th an
('- ')[
ĠIN TEGER
Ġ'< '
ĠDataFrame s
ĠReg isters
den y
Ġdocker file
ĠColumn s
ĠInstance s
Ġthro ttle
dbs Exception
æĮ ĩ
@ @
C ipher
E lem
F oo
Q Abstract
S w
S at
Ġt it
he ssian
ce f
ge m
get Value
ĠI TALIC
code cs
Ġpa ssage
md f
we eps
sy mm
trans fers
rank ing
RO UT
mail box
Ġ... "
55 5
Ġtri g
Ġob vious
exist ence
gz illa
iterable s
bank s
Ġinf luence
Ġmagnitude s
Ġremain s
ĠDes ired
phon on
Av ailability
ĠArch ive
B as
B EL
Ġm g
Ġ" .")
Ġcon da
che mical
Con t
ĠG E
group er
rap id
Ġ4 3
16 2
post al
14 1
BO UND
Ġactiv ations
sto od
Ġmultip licity
ĠUN I
acce pts
GO OGLE
Cla use
ĠPipeline Context
REPL ACE
Cent ral
B GP
G CS
P lane
c group
c ql
e o
t body
pe ff
Ġm w
Ġw ild
get children
is inf
to array
Ġu d
po bj
ph rases
ĠR ound
Ġuser names
Ġ4 6
ĠPar sed
Ch allenge
graph viz
util ity
make String
CE LL
Ġjust ify
bl end
Ġexit code
OK UP
Ġpid file
("- ")
è¿ Ļ
Ip Address
CONNE CTED
ĠRep ly
Ġorth ogonal
ENGIN E
) '),
D n
N W
O A
P retty
Q g
er als
Ġre index
Ġre do
Ġs cheduling
id r
ra dec
Ġm ine
Ġw inner
di co
text Cursor
jo urn
und led
ĠRe fer
ther mal
Ġsub directories
sign um
Ġ"" ):
meta bol
Ġclo ses
pen ses
19 4
display Name
Result Found
Document s
ĠCur sor
è¯ ¢
quant iles
Ġâ İ¥
Ġfl ds
NX M
CLO SED
Ġann ual
H ardware
I SE
P mag
f ence
f riend
j query
re raise
al lax
Ġre ferer
ur ator
Ġs ls
Ġs pr
Ġcon sumers
Re peat
ĠF S
Ġv n
sh ortest
Ġnew name
ĠR en
lement ary
Ġbo oleans
Ġz abbix
net cdf
Ġtable Name
fs m
Ġ7 9
17 3
Ġfix es
win ner
Ġvector ized
Parse Action
chedul ers
CONFIG URATION
deploy ed
Ġå ¦Ĥæŀľ
Ġdiag nostic
mx net
Ġguarante es
YDV R
Ġcraw ler
ĠCOM MA
Ġfri ction
inot opy
ĠDIG IT
E thernet
I mplementation
d R
r va
y i
y aw
ì Ŀ
Ġn io
Ġs he
Ġd max
un packed
ch root
Ġst ick
Ġof s
Ġ1 60
Ġr k
ĠS MB
ĠE mbed
ĠB undle
ĠW allet
Ġext reme
Ġop name
lib vlc
Ġpy xb
Ġsc anned
Get Service
ib m
Ġvar Binds
CON N
18 1
50 5
34 9
SH UT
ĠIN TER
Sp nbx
spl unk
sli des
Ġicon s
CUR SOR
ĠManage ment
Ġrol lout
+ -
C ategories
G rant
W iki
u T
w atched
de ath
() ]))
Ġg df
Re gress
ĠS orted
ĠS TE
Ġan p
ep ub
by name
Ġsub p
group name
Ġ'% '
expand vars
CL USTER
Copy ing
ĠParameter Error
prin ted
ĠCOL UM
Ġprivile ge
ĠSn apshot
anu ary
B order
S ed
V lan
d itional
d uty
h yperedge
m ip
p lasma
in h
er able
Ġm map
as contiguousarray
Ġra b
op name
Ġen closed
Ġlog dir
so on
Ġup loads
tag Name
full screen
bar rier
ie ce
Ġow ns
percent iles
Ġmove ment
Ġsock s
Ġve cs
Ġgenes is
FOR CE
meas ured
PR INT
plate s
craw l
orph ic
ĠNamed TemporaryFile
reh ension
) <
A bs
k ubernetes
r ings
x html
| :
en sed
en coders
Ġp ed
Ġa part
Ġde m
Ġb kg
un available
Ġco oling
sa x
Ġnode Name
OR G
msg pack
ĠDe pth
68 9
Ġhy brid
Ġaccept ing
wrapper s
variance s
USER S
zz le
workflow s
yy yy
METRI C
DISABLE D
P in
b urst
g ues
Ġf ancy
Ġs lim
Ġy err
mb ic
arch ives
ĠH ACK
row n
use ful
old own
find ing
Ġbreak ing
Ġfla v
timeout s
CON DITION
VER SE
Ġ9 7
SO FT
Part ial
linear ity
Ġ:: =
bg color
ĠÐ ²
Ġsol r
abc def
blacklist ed
Ġcapt cha
Break point
determin istic
å§ ĭ
14748 364
2 60
B OLD
W r
l k
in ame
Ġt max
Ġc able
la bs
ĠT ries
Ġco urses
per manent
ĠS ANS
Ġdi vider
bo dies
ph ens
umb nail
min val
SI DE
fla ke
Ġunicode data
ĠTo o
Api Error
Ġpublish ing
ĠSome thing
LANGUAGE S
Camp aign
ĠdbsException Handler
8 02
? :
D l
L STM
] _,
Ġt sv
Ġf whm
Ġre ls
Ġin ception
Ġst k
up loads
Ġr mtree
ind rical
mo ms
Ġnp ix
ĠG EN
ĠB LAST
ĠB ayesian
level no
=[ ('
mark ov
mag netic
sys diag
OT P
29 4
37 9
Ġho pe
SER IF
END C
Ġrot ations
Ġhex lify
simple x
mis p
vr n
except hook
6666 66
GRA PH
vx vv
setHorizontal Stretch
setVertical Stretch
A sk
E IN
K V
P rf
p as
Ġt ilt
al phas
Ġe cd
Ġ( *.
ri buted
is kit
set Alignment
to gether
form field
---- +
sc enarios
pre decessors
Ġlog store
Par agraph
Ġtra vel
def ect
Ġchar m
(_ ,
ĠK ind
('- '
SC REEN
Ġbit stream
ĠIN I
Ġacc ident
Ġheat maps
ĠâĢ ľ
ĠFlat ten
Ġmit ogen
A toms
G GER
T icket
V endor
x pos
Ġn arrow
Ġin fra
Ġ' |'
fi df
Ġ" !
ver aging
Ġh ierarchical
ĠA AA
ĠC IDR
ĠP ref
Ġ` --
Ġch assis
Ġal i
ĠM SG
log pdf
Ġca using
Ġsy mprec
task id
Response s
Le pto
30 7
cb i
Ġstat istical
Ġinspect or
PAR SER
authentic ator
è¯ ģ
Ġ'[ %
CATE GORY
cons umption
Sim ilar
AX IS
Analy ses
Bro ker
RDF Datetime
Ġresol ves
rip per
Associ ation
rabbit mq
æ¬ ¡
c las
r file
Ġf requent
ro b
lo gg
Ġb rand
() /
set HeightForWidth
') ['
ĠO ur
Ġid p
ĠG RA
Ġsub cmd
ast ro
Ġ'. /
15 1
TR ACK
Ġgame s
Ġfasta file
("= ")
A ux
D to
M et
S AT
U npack
len ded
Ġlist ify
pre fer
=" -
Ġk pc
Ġtext ual
ou cher
Key words
has HeightForWidth
cy l
Ġsp rint
uni versal
play lists
prec ate
Ġcomb ining
Stream ing
Pol l
Ġdry run
çĶ Ł
Global s
Ġnor med
PYTHON PATH
Ġowners hip
Flu ent
+ '\
. [
3 18
> ']
A sia
C lock
P J
o T
re fid
Ġp lo
Ġs aml
Ġe specially
un recognized
Ġ( ',
Ġsh orthand
lib virt
Pro vide
Ġvalid ating
De mand
Res Rec
ĠX ml
Ġtask id
meta var
Ġed ition
Ġpk s
ws dl
SP F
Ġretrie val
invalid ation
CP P
)+ "\
ĠOver flowError
Pe ak
lor ation
peptide s
FACT OR
ĠEstim ate
Ġfoot print
craw ler
spic ious
> &
c bar
Ġt rend
it a
Ġp im
Ġn ans
Ġe os
Ġ' ']
get Text
set Data
ĠA E
ĠI p
che ss
init iator
ĠD IST
Ġtime frame
tra jectories
Data Instance
Ġarg name
SI LON
TT ransport
Ġref res
ĠEn sures
Ġ"{} /
ĠQu artz
ĠObject s
sto chastic
ĠCO UNT
sur rogate
nm r
Ġln k
ĠCalled ProcessError
ĠJava Script
ĠSeq IO
Ġpropag ation
D r
D el
G ran
L W
W arnings
c ite
n fe
é Ŀ
re co
or gs
Ġt end
Ġf an
Ġp len
Ġn avigation
Ġ' =',
Ġd path
co conut
Ġst aging
Ġcon j
Ġ1 40
fo v
ĠP SF
Ġan iso
Ġx pos
om ies
Ġro uters
ang led
Ġbu ses
ne utral
Ġform field
Ġvi rt
Ġlink ing
Le af
allow s
SC AL
Per manence
Ġrelative delta
bed o
CA LE
ĠError Code
åĲ Ī
phan tom
ĠDocument ation
Ġlearn er
album s
ĠDep ending
Ġregard ing
SEC URITY
stddev s
Ġrelax ation
æ¶Ī æģ¯
quilibri um
U X
c make
m ann
in de
in del
Ġt et
Ġi ri
Ġre dd
Ġre pair
it ro
Ġp ins
Ġm df
di sg
di vergence
am ond
Ġ+ -----+
ĠO VER
Ġte ardown
ab ridge
reg istrations
Pro b
Se g
like s
Ġ'_ ',
50 7
19 0
site map
34 6
44 4
Code c
}} ",
cn tr
super class
Protocol Error
ĠCO MBIN
pm id
Ver ification
Ġmot ors
itch en
WE IGHT
Ġepisode s
ĠBO X
numer ical
ĠNorm ally
2 80
C fg
C ategorical
_ <
d op
Ġ Er
se rie
Ġf leet
Ġ' (%
ch irp
set opt
am odel
ĠI mplementation
Ġv f
Ġv name
ack nowledge
Ġx xx
Ġhe ter
Ġk ick
Pro vided
Ġlin alg
pass ing
build root
29 0
22 6
Ġpop ped
Load Balancer
Ġsimple x
PER MISSION
Ġeven ly
ĠMo ck
Ġbackup s
ĠOver write
Coord inates
Ġrand int
Ġadapt ive
alleli ze
wildcard s
tim ings
Ġspl unk
Ġpropag ated
inated List
PyCdlib Invalid
? )\
B lack
C ENT
R V
b ams
d oping
s mb
st icky
Ġc dx
Ġp illow
ge ar
Ġe ligible
Ġm argins
to x
Ġ[ {}
Ġstr at
ĠC B
Ġch root
Ġch rome
iv ities
ĠL ines
Ġte e
ĠW A
comp artment
ĠH H
process Map
Ġclass ified
length scale
ĠPar sing
CH AIN
Ġ[" %
Ġsuccess ive
67 9
real time
Ġunder stood
Ġjoin s
bed s
tic a
Ġgl fw
Dec l
Dec re
URI Ref
look ahead
Ġsci kit
Radio Button
displace ments
lifi cation
readcrumb s
Ġju icer
SOLU TION
( ([
1 000000
A mb
H KEY
S Frame
b q
n iter
o led
s hear
u ers
z order
in box
me the
Ġf data
Ġre map
Ġin sp
Ġde livered
'] ()
Ġg auge
ĠP layer
ĠP OP
Ġfil ls
Ġpo ssibilities
row count
Ġcall ers
Ġj am
64 7
En coded
Ġcor rupt
Ġwrite able
ob ile
mod path
EL D
29 6
LIN ES
lc dict
}] '.
lv in
ä½ į
Tr unc
Cl one
Ġphot os
Soft ware
* -
H SM
I H
W hether
g cc
i contains
s urname
Ġre ferencing
ion al
Ġa ds
Ġd ci
Ġm data
() ].
(' ---
th ink
set Geometry
sp anner
ĠS afe
out path
], )
]) }
tra iler
** ,
ĠEx clude
Ġpy tplot
trans mission
Ġfound ations
Ġar ri
ĠK L
CT OR
23 7
BU F
Ġsyn onyms
69 8
separ ators
Ġcent roids
Ġspect rogram
Ġcompress or
Ġrh ol
Authentic ate
############ ###
Ġski prows
D TYPE
Y ES
c able
d ens
i ou
t al
Ġ river
Ġn k
Ġa y
Ġs us
ut coffset
Ġd fa
Ġ" ~
um ulative
ĠA g
oc ument
ĠL ight
Ġpy gments
24 4
cursor s
35 4
hy dro
Ġchain ed
inf inity
cu ssion
Ġ<< <
Min or
fasta file
mid i
kit chen
Ġtk inter
Ġpul p
ĠBit Vec
Unicode UTF
Ġ---------------------------------------- --------------------------------
Std out
Ġmes hes
ĠXY Z
/ ~
O id
R oll
T rap
U GE
V ault
g df
s db
æ µ
ro ad
par c
ap ert
lif ecycle
Ġout dated
Ġcol name
". ')
:` _
AN BgkqhkiG
Ġper haps
sy llab
To pology
Un resolved
SI T
Ġwhere as
ĠUn its
03 0
Ġmod al
Ġxml rpc
score r
cla ve
final ized
Ad vanced
trip lets
ĠAR M
Background Color
ĠPyJs StrictEq
Ġstim ulus
Embed ding
ĠREAD ME
Ġsimultaneous ly
Lepto spira
A rai
P t
e ther
h oriz
n odata
v name
x v
Ġre voked
Ġde cryption
ss o
id l
get user
'] ._
as px
Ġcon cepts
to uched
), '
time it
=' +
Ġma ker
pre ter
Ġsub reddit
Ġsh ipping
ĠQ VBoxLayout
Ġmat lab
dis charge
ĠWe ight
Add On
bit wise
nan max
37 7
slice d
ĠConfig Error
Ġ': ',
Target s
Ġbad ge
Ġta ils
Dec or
Ter ms
=', ',
ĠHel p
('~ /.
Modifi cation
åĮ ĸ
ulner ability
ç±» åŀĭ
U DF
on o
Ġc ras
Ġp att
ct g
ent ions
pt rm
up link
Ġg b
Re cursively
Ġname op
os itions
Ġid f
Ġuse cols
replace d
pert urb
Ġ... ],
Hand lers
Ġvari ances
Group Id
Ġclean er
Ġpix map
web driver
Ġtensor board
rot ations
Ġpredict ive
Ġmut ated
Exist ing
average s
Ġæ ĺ
Ġderiv ation
numer ator
ĠPers on
Publish er
ĠScal ing
Ġgues sed
A ir
G MA
M asked
R b
S CHED
X IS
Ġn ational
Ġde ck
Ġb atched
ra ble
get int
ap k
str on
ĠS TOP
Ġit alic
ĠR i
ĠR et
ĠR MS
ĠG dk
net conf
ĠQ Application
iss parse
mon str
first Child
Ġmultiple x
Ġdifferent ial
Mode licaParser
emit ter
Ġep hemeral
Uni mplemented
Fore ground
Depend encies
tur tle
ĠAng le
Ġmarsh al
ĠAirflow Exception
K S
S orted
f ly
Ġs Type
ot u
Ġm ongodb
Ġst dev
Ġel l
(" &
Ġ0 1
ĠA ccum
), ),
ĠS tage
Ġy e
Ġla ck
Ġsub modules
Pro cesses
si ded
Ġsp c
current frame
Ġact ors
67 7
Dis covery
68 6
Ġaut oc
lookup s
Log ic
Ġetc d
ĠBe gin
sky dir
Ip v
ĠLook s
Ġwavelength s
Ġdynam ics
Oper ating
again st
R AT
W alker
i mmutable
s anity
de ref
Ġc ave
Ġn iter
Ġb urst
ri ers
am g
Ġex pert
Ġco ok
fa i
sc ar
ĠR outer
Ġtra sh
ĠJ inja
ĠCreate d
('/ '))
Be havior
Ġdump er
assign ee
SUB JECT
HAND LER
fwd l
Ġpeptide s
ĠIllegal State
ĠIC MP
scaff old
H Y
e moji
r in
x scale
Ã µ
Ã ¼
æ Ľ
ç Ĥ
Ġ Â
Ġ è¯
ĵ į
Ġc uda
(' )')
Ġg tf
Ġv dims
Ġlist dir
op a
ĠN C
lic an
ĠG ather
ĠG MT
ec s
from keys
Ġj body
Ġopen s
ĠDe veloper
exec uting
Ġar cs
stop words
mag col
30 6
buf size
big table
ĠHe ight
Ġdec lination
ĠTra de
ĠBack ground
azure arm
Ġcn f
Ġpul led
ä¾ ĭ
Ġdamp ing
OptionGroup Option
[...]
