{
  "version": "1.0",
  "truncation": {
    "direction": "Right",
    "max_length": 512,
    "strategy": "LongestFirst",
    "stride": 0
  },
  "padding": {
    "strategy": {
      "Fixed": 512
    },
    "direction": "Right",
    "pad_to_multiple_of": null,
    "pad_id": 1,
    "pad_type_id": 0,
    "pad_token": "<pad>"
  },
  "added_tokens": [
    {
      "id": 0,
      "content": "<s>",
      "single_word": false,
      "lstrip": false,
      "rstrip": false,
      "normalized": true,
      "special": true
    },
    {
      "id": 1,
      "content": "<pad>",
      "single_word": false,
      "lstrip": false,
      "rstrip": false,
      "normalized": true,
      "special": true
    },
    {
      "id": 2,
      "content": "</s>",
      "single_word": false,
      "lstrip": false,
      "rstrip": false,
      "normalized": true,
      "special": true
    },
    {
      "id": 50000,
      "content": "<EOL>",
      "single_word": false,
      "lstrip": false,
      "rstrip": false,
      "normalized": false,
      "special": true
    },
    {
      "id": 50001,
      "content": "<|UNKNOWN|>",
      "single_word": false,
      "lstrip": false,
      "rstrip": false,
      "normalized": true,
      "special": true
    }
  ],
  "normalizer": null,
  "pre_tokenizer": {
    "type": "ByteLevel",
    "add_prefix_space": false,
    "trim_offsets": true,
    "use_regex": true
  },
  "post_processor": {
    "type": "ByteLevel",
    "add_prefix_space": true,
    "trim_offsets": false,
    "use_regex": true
  },
  "decoder": {
    "type": "ByteLevel",
    "add_prefix_space": true,
    "trim_offsets": true,
    "use_regex": true
  },
  "model": {
    "type": "BPE",
    "dropout": null,
    "unk_token": null,
    "continuing_subword_prefix": "",
    "end_of_word_suffix": "",
    "fuse_unk": false,
    "byte_fallback": false,
    "ignore_merges": false,
    "vocab": {
      "<s>": 0,
      "<pad>": 1,
      "</s>": 2,
      "!": 3,
      "\"": 4,
      "#": 5,
      "$": 6,
      "%": 7,
      "&": 8,
      "'": 9,
      "(": 10,
      ")": 11,
      "*": 12,
      "+": 13,
      ",": 14,
      "-": 15,
      ".": 16,
      "/": 17,
      "0": 18,
      "1": 19,
      "2": 20,
      "3": 21,
      "4": 22,
      "5": 23,
      "6": 24,
      "7": 25,
      "8": 26,
      "9": 27,
      ":": 28,
      ";": 29,
      "<": 30,
      "=": 31,
      ">": 32,
      "?": 33,
      "@": 34,
      "A": 35,
      "B": 36,
      "C": 37,
      "D": 38,
      "E": 39,
      "F": 40,
      "G": 41,
      "H": 42,
      "I": 43,
      "J": 44,
      "K": 45,
      "L": 46,
      "M": 47,
      "N": 48,
      "O": 49,
      "P": 50,
      "Q": 51,
      "R": 52,
      "S": 53,
      "T": 54,
      "U": 55,
      "V": 56,
      "W": 57,
      "X": 58,
      "Y": 59,
      "Z": 60,
      "[": 61,
      "\\": 62,
      "]": 63,
      "^": 64,
      "_": 65,
      "`": 66,
      "a": 67,
      "b": 68,
      "c": 69,
      "d": 70,
      "e": 71,
      "f": 72,
      "g": 73,
      "h": 74,
      "i": 75,
      "j": 76,
      "k": 77,
      "l": 78,
      "m": 79,
      "n": 80,
      "o": 81,
      "p": 82,
      "q": 83,
      "r": 84,
      "s": 85,
      "t": 86,
      "u": 87,
      "v": 88,
      "w": 89,
      "x": 90,
      "y": 91,
      "z": 92,
      "{": 93,
      "|": 94,
      "}": 95,
      "~": 96,
      "¡": 97,
      "¢": 98,
      "£": 99,
      "¤": 100,
      "¥": 101,
      "¦": 102,
      "§": 103,
      "¨": 104,
      "©": 105,
      "ª": 106,
      "«": 107,
      "¬": 108,
      "®": 109,
      "¯": 110,
      "°": 111,
      "±": 112,
      "²": 113,
      "³": 114,
      "´": 115,
      "µ": 116,
      "¶": 117,
      "·": 118,
      "¸": 119,
      "¹": 120,
      "º": 121,
      "»": 122,
      "¼": 123,
      "½": 124,
      "¾": 125,
      "¿": 126,
      "À": 127,
      "Á": 128,
      "Â": 129,
      "Ã": 130,
      "Ä": 131,
      "Å": 132,
      "Æ": 133,
      "Ç": 134,
      "È": 135,
      "É": 136,
      "Ê": 137,
      "Ë": 138,
      "Ì": 139,
      "Í": 140,
      "Î": 141,
      "Ï": 142,
      "Ð": 143,
      "Ñ": 144,
      "Ò": 145,
      "Ó": 146,
      "Ô": 147,
      "Õ": 148,
      "Ö": 149,
      "×": 150,
      "Ø": 151,
      "Ù": 152,
      "Ú": 153,
      "Û": 154,
      "Ü": 155,
      "Ý": 156,
      "Þ": 157,
      "ß": 158,
      "à": 159,
      "á": 160,
      "â": 161,
      "ã": 162,
      "ä": 163,
      "å": 164,
      "æ": 165,
      "ç": 166,
      "è": 167,
      "é": 168,
      "ê": 169,
      "ë": 170,
      "ì": 171,
      "í": 172,
      "î": 173,
      "ï": 174,
      "ð": 175,
      "ñ": 176,
      "ò": 177,
      "ó": 178,
      "ô": 179,
      "õ": 180,
      "ö": 181,
      "÷": 182,
      "ø": 183,
      "ù": 184,
      "ú": 185,
      "û": 186,
      "ü": 187,
      "ý": 188,
      "þ": 189,
      "ÿ": 190,
      "Ā": 191,
      "ā": 192,
      "Ă": 193,
      "ă": 194,
      "Ą": 195,
      "ą": 196,
      "Ć": 197,
      "ć": 198,
      "Ĉ": 199,
      "ĉ": 200,
      "Ċ": 201,
      "ċ": 202,
      "Č": 203,
      "č": 204,
      "Ď": 205,
      "ď": 206,
      "Đ": 207,
      "đ": 208,
      "Ē": 209,
      "ē": 210,
      "Ĕ": 211,
      "ĕ": 212,
      "Ė": 213,
      "ė": 214,
      "Ę": 215,
      "ę": 216,
      "Ě": 217,
      "ě": 218,
      "Ĝ": 219,
      "ĝ": 220,
      "Ğ": 221,
      "ğ": 222,
      "Ġ": 223,
      "ġ": 224,
      "Ģ": 225,
      "ģ": 226,
      "Ĥ": 227,
      "ĥ": 228,
      "Ħ": 229,
      "ħ": 230,
      "Ĩ": 231,
      "ĩ": 232,
      "Ī": 233,
      "ī": 234,
      "Ĭ": 235,
      "ĭ": 236,
      "Į": 237,
      "į": 238,
      "İ": 239,
      "ı": 240,
      "Ĳ": 241,
      "ĳ": 242,
      "Ĵ": 243,
      "ĵ": 244,
      "Ķ": 245,
      "ķ": 246,
      "ĸ": 247,
      "Ĺ": 248,
      "ĺ": 249,
      "Ļ": 250,
      "ļ": 251,
      "Ľ": 252,
      "ľ": 253,
      "Ŀ": 254,
      "ŀ": 255,
      "Ł": 256,
      "ł": 257,
      "Ń": 258,
      "se": 259,
      "in": 260,
      "re": 261,
      "on": 262,
      "at": 263,
      "er": 264,
      "Ġ=": 265,
      "or": 266,
      "st": 267,
      "Ġt": 268,
      "sel": 269,
      "self": 270,
      "en": 271,
      "de": 272,
      "ar": 273,
      "Ġi": 274,
      "al": 275,
      "me": 276,
      "an": 277,
      "le": 278,
      "Ġself": 279,
      "Ġc": 280,
      "Ġf": 281,
      "he": 282,
      "Ġre": 283,
      "ion": 284,
      "it": 285,
      "ur": 286,
      "Ġp": 287,
      "Ġ<": 288,
      "ct": 289,
      "Ġn": 290,
      "ce": 291,
      "Ġin": 292,
      "ge": 293,
      "Ġa": 294,
      "ame": 295,
      "ro": 296,
      "Ġif": 297,
      "):": 298,
      "Ġs": 299,
      "\"\"": 300,
      "Ġe": 301,
      "Ġo": 302,
      "Ġde": 303,
      "Ġ'": 304,
      "ue": 305,
      "ut": 306,
      "lo": 307,
      "ent": 308,
      "ing": 309,
      "Ġthe": 310,
      "pe": 311,
      "Ġd": 312,
      "fi": 313,
      "li": 314,
      "urn": 315,
      "ate": 316,
      "turn": 317,
      "ss": 318,
      "Ġb": 319,
      "ot": 320,
      "Ġdef": 321,
      "un": 322,
      "id": 323,
      "Ġ#": 324,
      "co": 325,
      "one": 326,
      "ra": 327,
      "Ġm": 328,
      "._": 329,
      "Ġw": 330,
      "ad": 331,
      "Ġreturn": 332,
      "Ġ</": 333,
      "--": 334,
      "la": 335,
      "()": 336,
      "Ġfor": 337,
      "None": 338,
      "val": 339,
      "mp": 340,
      "Ġis": 341,
      "and": 342,
      "name": 343,
      "get": 344,
      "Ġ\"": 345,
      "te": 346,
      "ul": 347,
      "pt": 348,
      "ke": 349,
      "ata": 350,
      "Ġto": 351,
      "ype": 352,
      "Ġ(": 353,
      "arg": 354,
      "ch": 355,
      "ri": 356,
      "\"\"\"": 357,
      "',": 358,
      "di": 359,
      "Ġst": 360,
      "um": 361,
      "il": 362,
      "Ġ\"\"\"": 363,
      "up": 364,
      "el": 365,
      "ck": 366,
      "ter": 367,
      "ed": 368,
      "('": 369,
      "is": 370,
      "))": 371,
      "Ġnot": 372,
      "ma": 373,
      "ath": 374,
      "ol": 375,
      "con": 376,
      "__": 377,
      "es": 378,
      "th": 379,
      "set": 380,
      "ation": 381,
      "ser": 382,
      "xt": 383,
      "value": 384,
      "Ġof": 385,
      "args": 386,
      "ver": 387,
      "am": 388,
      "ĠNone": 389,
      "['": 390,
      "ĠT": 391,
      "']": 392,
      "ode": 393,
      "ect": 394,
      "Ġ:": 395,
      "as": 396,
      "par": 397,
      "ult": 398,
      "Ġcon": 399,
      "key": 400,
      "type": 401,
      "ror": 402,
      "end": 403,
      "Ġl": 404,
      "Ġ+": 405,
      "')": 406,
      "ap": 407,
      "Ġand": 408,
      "':": 409,
      "orm": 410,
      "ta": 411,
      "ble": 412,
      "sp": 413,
      "Ġh": 414,
      "ve": 415,
      "ime": 416,
      "int": 417,
      "ction": 418,
      "Ġ{": 419,
      "iz": 420,
      "Ġ*": 421,
      "Ġex": 422,
      "path": 423,
      "ig": 424,
      "all": 425,
      "od": 426,
      "Ġth": 427,
      "Ġel": 428,
      "to": 429,
      "ption": 430,
      "Ġ[": 431,
      "(\"": 432,
      "list": 433,
      "Ġelse": 434,
      "Ġ1": 435,
      "age": 436,
      "bj": 437,
      "Ġg": 438,
      "ile": 439,
      "Ġ_": 440,
      "Ġ%": 441,
      "Ġu": 442,
      "\",": 443,
      "form": 444,
      "tr": 445,
      "qu": 446,
      "Ġor": 447,
      "data": 448,
      "ment": 449,
      "Ġlo": 450,
      "----": 451,
      "Ġbe": 452,
      "po": 453,
      "Ġ==": 454,
      "ith": 455,
      "Ġco": 456,
      "str": 457,
      "Ġ-": 458,
      "file": 459,
      "Ġ0": 460,
      "vi": 461,
      "ance": 462,
      "ren": 463,
      "Ġr": 464,
      "00": 465,
      "ite": 466,
      "ort": 467,
      "per": 468,
      "ise": 469,
      "ĠA": 470,
      "Er": 471,
      "put": 472,
      "que": 473,
      "Ġdata": 474,
      "Error": 475,
      "rue": 476,
      "et": 477,
      "pro": 478,
      "param": 479,
      "kw": 480,
      "ine": 481,
      "Ġvalue": 482,
      "res": 483,
      "ist": 484,
      "Ġas": 485,
      "Re": 486,
      "Ġname": 487,
      "fig": 488,
      "),": 489,
      "ĠI": 490,
      "ĠS": 491,
      "ase": 492,
      "ub": 493,
      "rom": 494,
      "art": 495,
      "app": 496,
      "Ġme": 497,
      "ize": 498,
      "Ġstr": 499,
      "ord": 500,
      "Ġse": 501,
      "us": 502,
      "Ġra": 503,
      "alse": 504,
      "out": 505,
      "che": 506,
      "ĠC": 507,
      "ĠF": 508,
      "kwargs": 509,
      "ic": 510,
      "stance": 511,
      "eld": 512,
      "ew": 513,
      "ex": 514,
      "able": 515,
      "fo": 516,
      "Ġv": 517,
      "Ġpro": 518,
      "ack": 519,
      "Ġdi": 520,
      "ow": 521,
      "Ġres": 522,
      "ry": 523,
      "ers": 524,
      "init": 525,
      "time": 526,
      "format": 527,
      "\":": 528,
      "Ġraise": 529,
      "\")": 530,
      "Ġpar": 531,
      "quest": 532,
      "add": 533,
      "ly": 534,
      "ms": 535,
      "bject": 536,
      "ext": 537,
      "Ġwith": 538,
      "our": 539,
      "ĠP": 540,
      "fa": 541,
      "red": 542,
      "='": 543,
      ".__": 544,
      "ci": 545,
      "Ġ`": 546,
      "],": 547,
      "__(": 548,
      "text": 549,
      "Ġy": 550,
      "date": 551,
      "rent": 552,
      "Ġfile": 553,
      "sion": 554,
      "Ġan": 555,
      "lass": 556,
      "])": 557,
      "ht": 558,
      "dex": 559,
      "ff": 560,
      "sc": 561,
      "sh": 562,
      "append": 563,
      "url": 564,
      "code": 565,
      "Ġget": 566,
      "ind": 567,
      "mple": 568,
      "Ġma": 569,
      "Ġkey": 570,
      "ange": 571,
      "ource": 572,
      "ure": 573,
      "len": 574,
      "Ġch": 575,
      "Ġlen": 576,
      "Ġ>": 577,
      "Ġx": 578,
      "Ġ__": 579,
      "Ġfrom": 580,
      "gg": 581,
      "Ġlist": 582,
      "unt": 583,
      "mm": 584,
      "tri": 585,
      "op": 586,
      "bu": 587,
      "ls": 588,
      "instance": 589,
      "jo": 590,
      "pre": 591,
      "ĠD": 592,
      "Ġexce": 593,
      "lif": 594,
      "oc": 595,
      "Ġpa": 596,
      "atch": 597,
      "ip": 598,
      "Ġ**": 599,
      "ĠE": 600,
      "error": 601,
      "cess": 602,
      "der": 603,
      "Ġelif": 604,
      "pa": 605,
      "col": 606,
      "Ġset": 607,
      "Ġ2": 608,
      "ity": 609,
      "Ġout": 610,
      "Ġon": 611,
      "thod": 612,
      "rint": 613,
      "ssage": 614,
      "read": 615,
      "attr": 616,
      "Ġ)": 617,
      "bo": 618,
      "ust": 619,
      "ho": 620,
      "ield": 621,
      "..": 622,
      "Ġhe": 623,
      "reate": 624,
      "Ġtry": 625,
      "ument": 626,
      "ray": 627,
      "config": 628,
      "onse": 629,
      "dict": 630,
      "und": 631,
      "im": 632,
      "os": 633,
      "ule": 634,
      "ĠThe": 635,
      "Ġen": 636,
      "sed": 637,
      "Ġ{}": 638,
      "roup": 639,
      "dir": 640,
      "Ġresult": 641,
      "info": 642,
      "low": 643,
      "py": 644,
      "Ġexcept": 645,
      "odel": 646,
      "mo": 647,
      "ive": 648,
      "ph": 649,
      "Ġwh": 650,
      "ĠTrue": 651,
      "dd": 652,
      "mb": 653,
      "True": 654,
      "Ġtype": 655,
      "ign": 656,
      "Ġal": 657,
      "ory": 658,
      "ag": 659,
      "ĠRe": 660,
      "==": 661,
      "ran": 662,
      "version": 663,
      "size": 664,
      "ute": 665,
      "ĠN": 666,
      "ssion": 667,
      ").": 668,
      "Ġthis": 669,
      "om": 670,
      "ĠFalse": 671,
      "ted": 672,
      "vent": 673,
      "ces": 674,
      "Ġisinstance": 675,
      "Ġthat": 676,
      "ca": 677,
      "ĠM": 678,
      "iv": 679,
      "In": 680,
      "valid": 681,
      "ild": 682,
      "ary": 683,
      "array": 684,
      "ameter": 685,
      "Ġla": 686,
      "sponse": 687,
      "[\"": 688,
      "ĠV": 689,
      "Ġtime": 690,
      "ken": 691,
      "Ġpath": 692,
      "Ġcol": 693,
      "ill": 694,
      "bel": 695,
      "load": 696,
      "Ġro": 697,
      "ir": 698,
      "Ġit": 699,
      "ition": 700,
      "Ġnp": 701,
      "umb": 702,
      "Ġnew": 703,
      "Ġby": 704,
      "ork": 705,
      "False": 706,
      "class": 707,
      "ator": 708,
      "Ġprint": 709,
      "Ġpre": 710,
      "lu": 711,
      "ĠL": 712,
      "Ġwe": 713,
      "Ġ[]": 714,
      "cal": 715,
      "son": 716,
      "Ġun": 717,
      "Ġos": 718,
      "update": 719,
      "'.": 720,
      "rite": 721,
      "ery": 722,
      "Ġat": 723,
      "=\"": 724,
      "ys": 725,
      "nect": 726,
      "ER": 727,
      "unction": 728,
      "ore": 729,
      "lic": 730,
      "log": 731,
      "ial": 732,
      "min": 733,
      "join": 734,
      "():": 735,
      "Ġ+=": 736,
      "ptions": 737,
      "tent": 738,
      "line": 739,
      "ari": 740,
      "ep": 741,
      "fe": 742,
      "sa": 743,
      "Ġare": 744,
      "index": 745,
      "Ġk": 746,
      "vice": 747,
      "Ġsup": 748,
      "port": 749,
      "start": 750,
      "ault": 751,
      "lock": 752,
      "cur": 753,
      "lient": 754,
      "gger": 755,
      "Ġint": 756,
      "Ġrequest": 757,
      "Ġobject": 758,
      "gs": 759,
      "\"]": 760,
      "mage": 761,
      "ded": 762,
      "ĠO": 763,
      "##": 764,
      "pp": 765,
      "rect": 766,
      "json": 767,
      "ĠR": 768,
      "Ġdefault": 769,
      "ings": 770,
      "peci": 771,
      "alue": 772,
      "ape": 773,
      "mmand": 774,
      "trib": 775,
      "node": 776,
      "fault": 777,
      "umber": 778,
      "arget": 779,
      "tain": 780,
      "base": 781,
      "umn": 782,
      "--------": 783,
      "count": 784,
      "act": 785,
      "lay": 786,
      "``": 787,
      "atus": 788,
      "Ġ''": 789,
      "lit": 790,
      "Con": 791,
      "yn": 792,
      "query": 793,
      "field": 794,
      "ts": 795,
      "lement": 796,
      "sen": 797,
      "scri": 798,
      "back": 799,
      "state": 800,
      "Ġargs": 801,
      "ON": 802,
      "ress": 803,
      "user": 804,
      "ĠU": 805,
      "Ġall": 806,
      "IN": 807,
      "uth": 808,
      "Ġhas": 809,
      "ann": 810,
      "Ġid": 811,
      "ies": 812,
      "ĠG": 813,
      "late": 814,
      "ang": 815,
      "Ġ``": 816,
      "string": 817,
      "Ġuser": 818,
      "argument": 819,
      "pi": 820,
      "Ġadd": 821,
      "ac": 822,
      "Ġconfig": 823,
      "Ġcur": 824,
      "loat": 825,
      "odule": 826,
      "ener": 827,
      "unc": 828,
      "max": 829,
      "ĠB": 830,
      "Ġwill": 831,
      "word": 832,
      "lin": 833,
      "ĠIf": 834,
      "ther": 835,
      "ask": 836,
      "Ġnode": 837,
      "ok": 838,
      "Ġkwargs": 839,
      "Ġte": 840,
      "mat": 841,
      "ĠW": 842,
      "by": 843,
      "gth": 844,
      "Ġfil": 845,
      "ception": 846,
      "].": 847,
      "Ġline": 848,
      "fix": 849,
      "mport": 850,
      "ty": 851,
      "ard": 852,
      "Ġsub": 853,
      "ll": 854,
      "Ġsh": 855,
      "Ġdo": 856,
      "map": 857,
      "turns": 858,
      "{}": 859,
      "\".": 860,
      "tp": 861,
      "group": 862,
      "Ġpo": 863,
      "request": 864,
      "tra": 865,
      "ader": 866,
      "AT": 867,
      "obj": 868,
      "ml": 869,
      "ifi": 870,
      "own": 871,
      "heck": 872,
      "write": 873,
      "Ġlog": 874,
      "ameters": 875,
      "ave": 876,
      "Ġ/": 877,
      "ight": 878,
      "Ġfield": 879,
      "sub": 880,
      "ab": 881,
      "if": 882,
      "Ġext": 883,
      "bug": 884,
      "ec": 885,
      "da": 886,
      "Ġ!": 887,
      "**": 888,
      "Ġle": 889,
      "Ġoutput": 890,
      "Ġdict": 891,
      "ated": 892,
      "RE": 893,
      "pos": 894,
      "arch": 895,
      "ound": 896,
      "ant": 897,
      "Ġ!=": 898,
      "Ġstring": 899,
      "point": 900,
      "mit": 901,
      "ST": 902,
      "rame": 903,
      "},": 904,
      "Ġresponse": 905,
      "qui": 906,
      "uld": 907,
      "Ġmethod": 908,
      "Ġ\\": 909,
      "uct": 910,
      "sert": 911,
      "wa": 912,
      "default": 913,
      "ample": 914,
      "Ġsuper": 915,
      "())": 916,
      "Ġite": 917,
      "cation": 918,
      "ree": 919,
      "ket": 920,
      "Ġ3": 921,
      "Ġ>>": 922,
      "from": 923,
      "gra": 924,
      "md": 925,
      "work": 926,
      "vel": 927,
      "Ġcomp": 928,
      "ĠValue": 929,
      "Ġuse": 930,
      "Ġerror": 931,
      "result": 932,
      "Ġmax": 933,
      "Ġ'''": 934,
      "cord": 935,
      "ject": 936,
      "([": 937,
      "comp": 938,
      "split": 939,
      "spa": 940,
      "lace": 941,
      "iter": 942,
      "Type": 943,
      "Ġfunction": 944,
      "method": 945,
      "ump": 946,
      "tern": 947,
      "object": 948,
      "ĠH": 949,
      "Ġstart": 950,
      "label": 951,
      "ĠEx": 952,
      "Ġne": 953,
      "params": 954,
      "ĠValueError": 955,
      "Ġspeci": 956,
      "Ġ>>>": 957,
      "Ġop": 958,
      "Ġbu": 959,
      "Ex": 960,
      "arn": 961,
      "items": 962,
      "call": 963,
      "ler": 964,
      "debug": 965,
      "Ġmessage": 966,
      "Ġparam": 967,
      "lot": 968,
      "stri": 969,
      "message": 970,
      "row": 971,
      "'):": 972,
      "ull": 973,
      "model": 974,
      "Ġno": 975,
      "ream": 976,
      "ĠTh": 977,
      "lib": 978,
      "values": 979,
      "cs": 980,
      "Ġpass": 981,
      "ron": 982,
      "we": 983,
      "ĠIn": 984,
      "rep": 985,
      "ations": 986,
      "ans": 987,
      "Ġcan": 988,
      "Ġbo": 989,
      "Ġurl": 990,
      "sor": 991,
      "Ġz": 992,
      "uple": 993,
      "Ġindex": 994,
      "Ġimport": 995,
      "St": 996,
      "server": 997,
      "item": 998,
      "Ġvalues": 999,
      "its": 1000,
      "with": 1001,
      "ĠReturns": 1002,
      "LE": 1003,
      "Ġso": 1004,
      "ence": 1005,
      "temp": 1006,
      "for": 1007,
      "reg": 1008,
      "space": 1009,
      "Ġinput": 1010,
      "inter": 1011,
      "ariable": 1012,
      "nection": 1013,
      "be": 1014,
      "ste": 1015,
      "Ġrange": 1016,
      "lat": 1017,
      "Ġapp": 1018,
      ":`": 1019,
      "Ġend": 1020,
      "ds": 1021,
      "pect": 1022,
      "token": 1023,
      "[:": 1024,
      "Ġinstance": 1025,
      "run": 1026,
      "Ġ}": 1027,
      "shape": 1028,
      "ses": 1029,
      "ix": 1030,
      "Ġac": 1031,
      "Name": 1032,
      "ote": 1033,
      "ax": 1034,
      "Ġcall": 1035,
      "clu": 1036,
      "01": 1037,
      "Ġcont": 1038,
      "output": 1039,
      "Ġcreate": 1040,
      "Ġother": 1041,
      "com": 1042,
      "move": 1043,
      "tes": 1044,
      "num": 1045,
      "'],": 1046,
      "Ġbase": 1047,
      "idth": 1048,
      "OR": 1049,
      "Ġstate": 1050,
      "sg": 1051,
      "====": 1052,
      "ptional": 1053,
      "Ġj": 1054,
      "Ġmodel": 1055,
      "hand": 1056,
      "keys": 1057,
      "parse": 1058,
      "aders": 1059,
      "filen": 1060,
      "return": 1061,
      "Ġcheck": 1062,
      "ĠThis": 1063,
      "ak": 1064,
      "Ke": 1065,
      "ension": 1066,
      "itle": 1067,
      "ding": 1068,
      "ost": 1069,
      "Ġlogger": 1070,
      "fil": 1071,
      "ich": 1072,
      "new": 1073,
      "lp": 1074,
      "status": 1075,
      "DE": 1076,
      "ils": 1077,
      "Ġreg": 1078,
      "iven": 1079,
      "Ġret": 1080,
      "Ġitem": 1081,
      "Ġcurrent": 1082,
      "filename": 1083,
      "ME": 1084,
      "Ġrun": 1085,
      "tribute": 1086,
      "ref": 1087,
      "input": 1088,
      "table": 1089,
      "Ġtext": 1090,
      "'t": 1091,
      "ou": 1092,
      "Ġ|": 1093,
      "Ġversion": 1094,
      "ft": 1095,
      "no": 1096,
      "ach": 1097,
      "create": 1098,
      "func": 1099,
      "gin": 1100,
      "Ġent": 1101,
      "bs": 1102,
      "Ġax": 1103,
      "names": 1104,
      "Ġnumber": 1105,
      "AN": 1106,
      "ature": 1107,
      "select": 1108,
      "nd": 1109,
      "source": 1110,
      "AL": 1111,
      "var": 1112,
      "().": 1113,
      "limit": 1114,
      "tings": 1115,
      "((": 1116,
      "main": 1117,
      "module": 1118,
      "Ġcontain": 1119,
      "][": 1120,
      "...": 1121,
      "view": 1122,
      "Co": 1123,
      "(),": 1124,
      "Key": 1125,
      "annel": 1126,
      "Ġper": 1127,
      "ID": 1128,
      "'s": 1129,
      "Ġtran": 1130,
      "ename": 1131,
      "Ġfloat": 1132,
      "client": 1133,
      "Ġdis": 1134,
      "Ġobj": 1135,
      "np": 1136,
      "sing": 1137,
      "Ġmin": 1138,
      "'])": 1139,
      "service": 1140,
      "Ġmust": 1141,
      "Ġevent": 1142,
      "lob": 1143,
      "Ġformat": 1144,
      "Pro": 1145,
      "sk": 1146,
      "Ġtarget": 1147,
      "vert": 1148,
      "Ġparams": 1149,
      "filter": 1150,
      "og": 1151,
      "ors": 1152,
      "Ġspecifi": 1153,
      "event": 1154,
      "mode": 1155,
      "Ġcode": 1156,
      "df": 1157,
      "Ġgiven": 1158,
      "Ġlin": 1159,
      "adata": 1160,
      "Ġvalid": 1161,
      "rap": 1162,
      "rc": 1163,
      "led": 1164,
      "Ġone": 1165,
      "Ġused": 1166,
      "net": 1167,
      "host": 1168,
      "Ġquery": 1169,
      "//": 1170,
      "Ġca": 1171,
      "check": 1172,
      "cls": 1173,
      "ody": 1174,
      "ments": 1175,
      "Ġ->": 1176,
      "scription": 1177,
      "ally": 1178,
      "hould": 1179,
      "clo": 1180,
      "ne": 1181,
      "10": 1182,
      "sum": 1183,
      "Ġpy": 1184,
      "De": 1185,
      "Ġwhich": 1186,
      "Ġtemp": 1187,
      "Ġsu": 1188,
      "db": 1189,
      "Ġrow": 1190,
      "context": 1191,
      "content": 1192,
      "response": 1193,
      "####": 1194,
      "process": 1195,
      "thon": 1196,
      "ght": 1197,
      "Ġparent": 1198,
      "so": 1199,
      "not": 1200,
      "000": 1201,
      "sy": 1202,
      "'),": 1203,
      "off": 1204,
      "has": 1205,
      "orted": 1206,
      ".\"\"\"": 1207,
      "amp": 1208,
      "Ġhave": 1209,
      "rid": 1210,
      "Ġ4": 1211,
      "types": 1212,
      "Ġdate": 1213,
      "lable": 1214,
      "Ġsource": 1215,
      "Ġparser": 1216,
      "ched": 1217,
      "Ġread": 1218,
      "doc": 1219,
      "api": 1220,
      "raw": 1221,
      "Ġargument": 1222,
      "clude": 1223,
      "AR": 1224,
      "use": 1225,
      "ution": 1226,
      "options": 1227,
      "msg": 1228,
      "Ġmsg": 1229,
      "Ġarray": 1230,
      "ctions": 1231,
      "Par": 1232,
      "feren": 1233,
      "utes": 1234,
      "Ġonly": 1235,
      "Ġmatch": 1236,
      "Ġtra": 1237,
      "SE": 1238,
      "Ġimage": 1239,
      "Ġshould": 1240,
      ").__": 1241,
      "Ġassert": 1242,
      "Ġtoken": 1243,
      "Ġsize": 1244,
      "Ġcontext": 1245,
      "Ġ{'": 1246,
      "Data": 1247,
      "Ġcal": 1248,
      "do": 1249,
      "mt": 1250,
      "pts": 1251,
      "ong": 1252,
      "su": 1253,
      "oth": 1254,
      "Ġclass": 1255,
      ")))": 1256,
      "rectory": 1257,
      "length": 1258,
      "block": 1259,
      "ast": 1260,
      "target": 1261,
      "pop": 1262,
      "Ġcontin": 1263,
      "image": 1264,
      "Ġinter": 1265,
      "Ġhand": 1266,
      "command": 1267,
      "column": 1268,
      "try": 1269,
      "irst": 1270,
      "Ġcolumn": 1271,
      "ackage": 1272,
      "ay": 1273,
      "old": 1274,
      "Ġgroup": 1275,
      "uration": 1276,
      "si": 1277,
      "pec": 1278,
      "err": 1279,
      "Ġpart": 1280,
      "Ġ{\"": 1281,
      "Ġcommand": 1282,
      "tadata": 1283,
      "Ġopen": 1284,
      "Ġ@": 1285,
      "ists": 1286,
      "lete": 1287,
      "cre": 1288,
      "auth": 1289,
      "Ġtag": 1290,
      "Ġnum": 1291,
      "cy": 1292,
      "32": 1293,
      "Ġfilename": 1294,
      "Ġup": 1295,
      "ĠPar": 1296,
      "ĠAr": 1297,
      "ates": 1298,
      "Id": 1299,
      "://": 1300,
      "chema": 1301,
      "Ġcls": 1302,
      "av": 1303,
      "inal": 1304,
      "gging": 1305,
      "Ġcontent": 1306,
      "ual": 1307,
      "job": 1308,
      "Ġcontinue": 1309,
      "pr": 1310,
      "mi": 1311,
      "ark": 1312,
      "rial": 1313,
      "ain": 1314,
      "unk": 1315,
      "match": 1316,
      "Ġpos": 1317,
      "Ġany": 1318,
      "Ġlabel": 1319,
      "12": 1320,
      "ĠCon": 1321,
      "files": 1322,
      "Res": 1323,
      "ids": 1324,
      "ical": 1325,
      "session": 1326,
      "idget": 1327,
      "ĠQ": 1328,
      "tag": 1329,
      "pri": 1330,
      "ps": 1331,
      "[-": 1332,
      "Ġmat": 1333,
      "Ġupdate": 1334,
      "otal": 1335,
      "def": 1336,
      "resh": 1337,
      "sent": 1338,
      "Ġhelp": 1339,
      "Ġelement": 1340,
      "cl": 1341,
      "ĠDe": 1342,
      "Ġ--------": 1343,
      "stem": 1344,
      "Ġfirst": 1345,
      "lean": 1346,
      "EN": 1347,
      "PI": 1348,
      "here": 1349,
      "http": 1350,
      "face": 1351,
      "Ġjson": 1352,
      "Ġyield": 1353,
      "Ġsp": 1354,
      "fields": 1355,
      "strip": 1356,
      "lper": 1357,
      "64": 1358,
      "Ġ('": 1359,
      "TI": 1360,
      "Ġtable": 1361,
      "Ġdoc": 1362,
      "parent": 1363,
      "Ġoptions": 1364,
      "ĠException": 1365,
      "Ġval": 1366,
      "]:": 1367,
      "Me": 1368,
      "mbda": 1369,
      "ync": 1370,
      "of": 1371,
      "trans": 1372,
      "Ġ['": 1373,
      "Ġwhile": 1374,
      "indow": 1375,
      "range": 1376,
      "ld": 1377,
      "Ġchar": 1378,
      "root": 1379,
      "Ġtuple": 1380,
      "'))": 1381,
      "level": 1382,
      "ked": 1383,
      "Se": 1384,
      "Ġclient": 1385,
      "reak": 1386,
      "Ġsys": 1387,
      "ĠX": 1388,
      "Ġeach": 1389,
      "Ġbool": 1390,
      "queue": 1391,
      "Ġver": 1392,
      "core": 1393,
      "quired": 1394,
      "cache": 1395,
      "File": 1396,
      "onent": 1397,
      "ats": 1398,
      "Ġmode": 1399,
      "Ġinit": 1400,
      "idx": 1401,
      "find": 1402,
      "link": 1403,
      "io": 1404,
      "Ġfa": 1405,
      "ference": 1406,
      "sign": 1407,
      "man": 1408,
      "Ġfound": 1409,
      "alt": 1410,
      "Ġwhen": 1411,
      "test": 1412,
      "cent": 1413,
      "Ġfiles": 1414,
      "float": 1415,
      "Ġsy": 1416,
      "viron": 1417,
      "attern": 1418,
      "Ġht": 1419,
      "Ġover": 1420,
      "ures": 1421,
      "width": 1422,
      "ister": 1423,
      "ns": 1424,
      "rix": 1425,
      "Ġaction": 1426,
      "TE": 1427,
      "ped": 1428,
      "rank": 1429,
      "andom": 1430,
      "are": 1431,
      "color": 1432,
      "Ġgener": 1433,
      "parser": 1434,
      "current": 1435,
      "swith": 1436,
      "ick": 1437,
      "prefix": 1438,
      "order": 1439,
      "address": 1440,
      "comm": 1441,
      "ormal": 1442,
      "helper": 1443,
      "store": 1444,
      "ify": 1445,
      "quence": 1446,
      "Ġarg": 1447,
      "ries": 1448,
      ")]": 1449,
      "frame": 1450,
      "like": 1451,
      "Ġwork": 1452,
      "bro": 1453,
      "cond": 1454,
      "replace": 1455,
      "ffer": 1456,
      "Ġfilter": 1457,
      "open": 1458,
      "part": 1459,
      "Ġ.": 1460,
      "iled": 1461,
      "last": 1462,
      "ized": 1463,
      "ume": 1464,
      "Ġspecified": 1465,
      "igh": 1466,
      "change": 1467,
      "Ġbut": 1468,
      "To": 1469,
      "umpy": 1470,
      "struct": 1471,
      "ous": 1472,
      "train": 1473,
      "right": 1474,
      "Set": 1475,
      "loc": 1476,
      "Ġtrans": 1477,
      "Un": 1478,
      "Ġsign": 1479,
      "ifier": 1480,
      "AC": 1481,
      "resource": 1482,
      "header": 1483,
      "Ġact": 1484,
      "ĠY": 1485,
      "List": 1486,
      "tributes": 1487,
      "Ġmodule": 1488,
      "cor": 1489,
      "ved": 1490,
      "En": 1491,
      "sample": 1492,
      "uni": 1493,
      "number": 1494,
      "local": 1495,
      "cket": 1496,
      "gn": 1497,
      "Ġhost": 1498,
      "mpty": 1499,
      "title": 1500,
      "copy": 1501,
      "arning": 1502,
      "Ġtest": 1503,
      "yle": 1504,
      "env": 1505,
      "ud": 1506,
      "ting": 1507,
      "action": 1508,
      "(*": 1509,
      "coding": 1510,
      "lines": 1511,
      "Ġresults": 1512,
      "teg": 1513,
      "Ġmo": 1514,
      "Ġoff": 1515,
      "Ġ5": 1516,
      "SI": 1517,
      "Ġpoint": 1518,
      "plot": 1519,
      "Ġvariable": 1520,
      "pend": 1521,
      "ccess": 1522,
      "Ġdoes": 1523,
      "Ġattr": 1524,
      "Ġstatus": 1525,
      "ract": 1526,
      "stamp": 1527,
      "Ġq": 1528,
      "Ġcor": 1529,
      "contain": 1530,
      "ches": 1531,
      "Ġiter": 1532,
      "pert": 1533,
      "Ġ\"\"": 1534,
      "})": 1535,
      "wait": 1536,
      "Ġlast": 1537,
      "raph": 1538,
      ")):": 1539,
      "Ġauth": 1540,
      "cmd": 1541,
      "Ġlength": 1542,
      "ai": 1543,
      "ateg": 1544,
      "izer": 1545,
      "ĠJ": 1546,
      "task": 1547,
      "PE": 1548,
      "Ġport": 1549,
      "RO": 1550,
      "Ġmake": 1551,
      "connect": 1552,
      "stream": 1553,
      "ten": 1554,
      "ctionary": 1555,
      "offset": 1556,
      "::": 1557,
      "Ġbreak": 1558,
      "fore": 1559,
      "\"},": 1560,
      "Ġinto": 1561,
      "Ġblock": 1562,
      "methods": 1563,
      "Ġfe": 1564,
      "Ġrecord": 1565,
      "child": 1566,
      "Ġresource": 1567,
      "Ġprocess": 1568,
      "lobal": 1569,
      "lower": 1570,
      "ert": 1571,
      "uri": 1572,
      "ĠParameters": 1573,
      "ĠArgs": 1574,
      "0000": 1575,
      "iss": 1576,
      "vis": 1577,
      "FI": 1578,
      "older": 1579,
      "peration": 1580,
      "pass": 1581,
      "exec": 1582,
      "Ar": 1583,
      "element": 1584,
      "xy": 1585,
      "TT": 1586,
      "ager": 1587,
      "cade": 1588,
      "ible": 1589,
      "function": 1590,
      "perties": 1591,
      "print": 1592,
      "ĠType": 1593,
      "Ġ'.": 1594,
      "Ġgetattr": 1595,
      "bin": 1596,
      "(_": 1597,
      "Ġpri": 1598,
      "Ġserver": 1599,
      "utils": 1600,
      "Ġ--": 1601,
      "Ġass": 1602,
      "Ġsc": 1603,
      "dim": 1604,
      "25": 1605,
      "build": 1606,
      "mbol": 1607,
      "={": 1608,
      "lease": 1609,
      "ocket": 1610,
      "Ġlocal": 1611,
      "template": 1612,
      "cli": 1613,
      "'].": 1614,
      "step": 1615,
      "Di": 1616,
      "fact": 1617,
      "Exception": 1618,
      "Ġoptional": 1619,
      "Ġdist": 1620,
      "Ġcount": 1621,
      "Ġback": 1622,
      "Ġparse": 1623,
      "project": 1624,
      "Ġtask": 1625,
      "Str": 1626,
      "close": 1627,
      "yload": 1628,
      "11": 1629,
      "Ġload": 1630,
      "Get": 1631,
      "']:": 1632,
      "Value": 1633,
      "logger": 1634,
      "vid": 1635,
      "LO": 1636,
      "gen": 1637,
      "DO": 1638,
      "Ġusing": 1639,
      "box": 1640,
      "req": 1641,
      "Ġorder": 1642,
      "brocade": 1643,
      "uid": 1644,
      "Ġsession": 1645,
      "Ġinfo": 1646,
      "Ġ----------": 1647,
      "Ġuni": 1648,
      "fter": 1649,
      "ib": 1650,
      "mail": 1651,
      "Ġrep": 1652,
      "ating": 1653,
      "Ġthen": 1654,
      "encode": 1655,
      "Ġlogging": 1656,
      "ustom": 1657,
      "top": 1658,
      "ner": 1659,
      "uto": 1660,
      "Ġ'%": 1661,
      "page": 1662,
      "ined": 1663,
      "Ġhasattr": 1664,
      "lt": 1665,
      "Ġsample": 1666,
      "search": 1667,
      "']['": 1668,
      "cul": 1669,
      "Ġnext": 1670,
      "ont": 1671,
      "lugin": 1672,
      "Ġexist": 1673,
      "Ġqu": 1674,
      "annot": 1675,
      "Ġdest": 1676,
      "Ser": 1677,
      "ql": 1678,
      "Ġchange": 1679,
      "ready": 1680,
      "headers": 1681,
      "lection": 1682,
      "lan": 1683,
      "std": 1684,
      "rt": 1685,
      "GE": 1686,
      "Ġneed": 1687,
      "CO": 1688,
      "Ġad": 1689,
      "scal": 1690,
      "Ġdel": 1691,
      "Ġcmd": 1692,
      "bytes": 1693,
      "pected": 1694,
      "ake": 1695,
      "Ġparameters": 1696,
      "fir": 1697,
      "Ġwas": 1698,
      "settings": 1699,
      "les": 1700,
      "Ġheaders": 1701,
      "imum": 1702,
      "Ġav": 1703,
      "Lo": 1704,
      "Ġheader": 1705,
      "lication": 1706,
      "Ġenum": 1707,
      "ization": 1708,
      "({": 1709,
      "mary": 1710,
      "16": 1711,
      "Ġchild": 1712,
      "record": 1713,
      "Ġarguments": 1714,
      "ĠSe": 1715,
      "Ġtemplate": 1716,
      "exp": 1717,
      "Ġcolor": 1718,
      "du": 1719,
      "Ġyou": 1720,
      "ome": 1721,
      "RL": 1722,
      "mote": 1723,
      "Ġhttp": 1724,
      "Ġtimeout": 1725,
      "licy": 1726,
      "Ch": 1727,
      "Ġfunc": 1728,
      "hash": 1729,
      "graph": 1730,
      "send": 1731,
      "play": 1732,
      "perty": 1733,
      "Ġnet": 1734,
      "rit": 1735,
      "script": 1736,
      "Ġexp": 1737,
      "Class": 1738,
      "oi": 1739,
      "Ġfla": 1740,
      "gener": 1741,
      "ton": 1742,
      "Ġproject": 1743,
      "char": 1744,
      "meta": 1745,
      "SS": 1746,
      "Ġ>=": 1747,
      "UT": 1748,
      "serial": 1749,
      "ident": 1750,
      "ĠKey": 1751,
      "container": 1752,
      "channel": 1753,
      "dic": 1754,
      "ĠCo": 1755,
      "uster": 1756,
      "ative": 1757,
      "Ġ...": 1758,
      "zer": 1759,
      "========": 1760,
      "timeout": 1761,
      "connection": 1762,
      "Ġtf": 1763,
      "tree": 1764,
      "UL": 1765,
      "Ġfind": 1766,
      "mon": 1767,
      "gment": 1768,
      "02": 1769,
      "flow": 1770,
      "ions": 1771,
      "99": 1772,
      "Ġ----": 1773,
      "cope": 1774,
      "Ġroot": 1775,
      "ensions": 1776,
      "Ġmult": 1777,
      "fn": 1778,
      "Ġparameter": 1779,
      "other": 1780,
      "Ġcase": 1781,
      "\"):": 1782,
      "Ġfields": 1783,
      "axis": 1784,
      "Ġallow": 1785,
      "Ġdb": 1786,
      "Ġconnection": 1787,
      "Ġnames": 1788,
      "tx": 1789,
      "formation": 1790,
      "`.": 1791,
      "remove": 1792,
      "html": 1793,
      "Ġdirectory": 1794,
      "fla": 1795,
      "conds": 1796,
      "Ġed": 1797,
      "Ġdtype": 1798,
      "ailable": 1799,
      "nown": 1800,
      "Ġprovi": 1801,
      "body": 1802,
      "paths": 1803,
      "handle": 1804,
      "orage": 1805,
      "Ġoffset": 1806,
      "Ġ..": 1807,
      ".')": 1808,
      "startswith": 1809,
      "post": 1810,
      "bose": 1811,
      "metadata": 1812,
      "callback": 1813,
      "Ġnamespace": 1814,
      "mg": 1815,
      "Ġpage": 1816,
      "''": 1817,
      "Ġdictionary": 1818,
      "Ġstream": 1819,
      "Ġmap": 1820,
      "Ġ]": 1821,
      "dis": 1822,
      "Ġkeys": 1823,
      "location": 1824,
      "Ġsame": 1825,
      "Ġorig": 1826,
      "ING": 1827,
      "ternal": 1828,
      "mission": 1829,
      "util": 1830,
      "ĠTypeError": 1831,
      "Ġ&": 1832,
      "Ġvar": 1833,
      "Ġref": 1834,
      "Ġselect": 1835,
      "LI": 1836,
      "ency": 1837,
      ".\")": 1838,
      "Ġsen": 1839,
      "Ġshape": 1840,
      "Ġservice": 1841,
      "ential": 1842,
      "---": 1843,
      ":]": 1844,
      "Ġ<=": 1845,
      "down": 1846,
      "MA": 1847,
      "Ġexec": 1848,
      "Ġform": 1849,
      "Col": 1850,
      "Ġident": 1851,
      "atures": 1852,
      "ĠAn": 1853,
      "AD": 1854,
      "pth": 1855,
      "Ġprefix": 1856,
      "abled": 1857,
      "utf": 1858,
      "xml": 1859,
      "las": 1860,
      "Ġdf": 1861,
      "ning": 1862,
      "Ġlay": 1863,
      "variable": 1864,
      "ias": 1865,
      "RI": 1866,
      "erate": 1867,
      "ide": 1868,
      "Ġaxis": 1869,
      "ell": 1870,
      "ins": 1871,
      "next": 1872,
      "Ġentry": 1873,
      "pk": 1874,
      "ush": 1875,
      "save": 1876,
      "]]": 1877,
      "tocol": 1878,
      "Ġwrite": 1879,
      "ens": 1880,
      "lect": 1881,
      "Ġdiff": 1882,
      "points": 1883,
      "Ġman": 1884,
      "Time": 1885,
      "spec": 1886,
      "ass": 1887,
      "mplement": 1888,
      "description": 1889,
      "Ġcl": 1890,
      "04": 1891,
      "Ġ6": 1892,
      "Ġinitial": 1893,
      "ear": 1894,
      "tro": 1895,
      "exists": 1896,
      "Ġbuild": 1897,
      "pack": 1898,
      "14": 1899,
      "Ġwhere": 1900,
      "go": 1901,
      "Ġyang": 1902,
      "ster": 1903,
      "Ġnumpy": 1904,
      "dices": 1905,
      "Ġinst": 1906,
      "Ġlines": 1907,
      "TY": 1908,
      "delete": 1909,
      "ail": 1910,
      "Ġjob": 1911,
      "Ġalready": 1912,
      "datetime": 1913,
      "decode": 1914,
      "handler": 1915,
      "atic": 1916,
      "Ġstep": 1917,
      "Ġlevel": 1918,
      "qual": 1919,
      "erge": 1920,
      "itions": 1921,
      "pub": 1922,
      "olume": 1923,
      "Element": 1924,
      "stack": 1925,
      "Ġaddress": 1926,
      "dered": 1927,
      "]))": 1928,
      "lambda": 1929,
      "Ġar": 1930,
      "Ġbody": 1931,
      "=[": 1932,
      "########": 1933,
      "ob": 1934,
      "objects": 1935,
      "itor": 1936,
      "Ġreturns": 1937,
      "NA": 1938,
      "etch": 1939,
      "Ġdatetime": 1940,
      "pha": 1941,
      "33": 1942,
      "derr": 1943,
      "Ġcache": 1944,
      "Ġlimit": 1945,
      "Ġattribute": 1946,
      "gram": 1947,
      "conf": 1948,
      "make": 1949,
      "ĠID": 1950,
      "fg": 1951,
      "addr": 1952,
      "riter": 1953,
      "Ġenumerate": 1954,
      "verse": 1955,
      "teger": 1956,
      "Ġ8": 1957,
      "dot": 1958,
      "Ġvi": 1959,
      "Ġframe": 1960,
      "Ġbytes": 1961,
      "full": 1962,
      "Po": 1963,
      "Ġscal": 1964,
      "the": 1965,
      "rtype": 1966,
      "dtype": 1967,
      "ities": 1968,
      "Ġph": 1969,
      "direct": 1970,
      "mask": 1971,
      "Ġcallback": 1972,
      "nodes": 1973,
      "del": 1974,
      "cp": 1975,
      "cat": 1976,
      "Ġchannel": 1977,
      "sup": 1978,
      "results": 1979,
      "ttribute": 1980,
      "ingle": 1981,
      "Ġrequired": 1982,
      "Ġthan": 1983,
      "Ġerr": 1984,
      "UN": 1985,
      "peri": 1986,
      "Ġmay": 1987,
      "wer": 1988,
      "Ġmore": 1989,
      "pression": 1990,
      "ĠGet": 1991,
      "cry": 1992,
      "----------------": 1993,
      "tran": 1994,
      "dump": 1995,
      "Not": 1996,
      "Ġold": 1997,
      "Ġsettings": 1998,
      "angu": 1999,
      "ector": 2000,
      "disp": 2001,
      "ĠWe": 2002,
      "const": 2003,
      "Ġapi": 2004,
      "mod": 2005,
      "mark": 2006,
      "ward": 2007,
      "ĠPy": 2008,
      "gh": 2009,
      "mory": 2010,
      "ported": 2011,
      "stop": 2012,
      "Ġpackage": 2013,
      "wise": 2014,
      "Object": 2015,
      "lation": 2016,
      "Ġthere": 2017,
      "anguage": 2018,
      "fy": 2019,
      "Ġ\"%": 2020,
      "only": 2021,
      "Ġword": 2022,
      "columns": 2023,
      "package": 2024,
      "Ġreturned": 2025,
      "Ġcopy": 2026,
      "now": 2027,
      "entry": 2028,
      "15": 2029,
      "tric": 2030,
      "fer": 2031,
      "rop": 2032,
      "(**": 2033,
      "Ġpassword": 2034,
      "]['": 2035,
      "Ġplot": 2036,
      "Ġenv": 2037,
      "CE": 2038,
      "est": 2039,
      "parameters": 2040,
      "Ġsearch": 2041,
      "ĠTO": 2042,
      "schema": 2043,
      "DI": 2044,
      "bar": 2045,
      "network": 2046,
      "Add": 2047,
      "Ġobjects": 2048,
      "').": 2049,
      "}'.": 2050,
      "Ġraw": 2051,
      "over": 2052,
      "Ġstruct": 2053,
      "Ġnon": 2054,
      "password": 2055,
      "Frame": 2056,
      "Ġthread": 2057,
      ")),": 2058,
      "FA": 2059,
      "Ġitems": 2060,
      "Ġsum": 2061,
      "cle": 2062,
      "Ġremove": 2063,
      "style": 2064,
      "CH": 2065,
      "term": 2066,
      "present": 2067,
      "Ġtitle": 2068,
      "[:,": 2069,
      "quire": 2070,
      "istr": 2071,
      "ĠSet": 2072,
      "vironment": 2073,
      "Ġclo": 2074,
      "Ġab": 2075,
      "Ġtw": 2076,
      "Field": 2077,
      "Config": 2078,
      "extend": 2079,
      "Ġinclude": 2080,
      "Ġsome": 2081,
      "grid": 2082,
      "round": 2083,
      "bit": 2084,
      "left": 2085,
      "ATE": 2086,
      "ility": 2087,
      "ML": 2088,
      "ification": 2089,
      "String": 2090,
      "TTP": 2091,
      "Ġdim": 2092,
      "Ġdescription": 2093,
      "ponse": 2094,
      "Ġmetadata": 2095,
      "batch": 2096,
      "\\\\": 2097,
      "ĠK": 2098,
      "seq": 2099,
      "au": 2100,
      "buffer": 2101,
      "pc": 2102,
      "MP": 2103,
      "weight": 2104,
      "gex": 2105,
      "pol": 2106,
      "difi": 2107,
      "Ġtotal": 2108,
      "comple": 2109,
      "Ġerrors": 2110,
      "wrap": 2111,
      "Ġsorted": 2112,
      "ics": 2113,
      "mag": 2114,
      "tags": 2115,
      "Ġtop": 2116,
      "Ġlink": 2117,
      "Ġter": 2118,
      "ants": 2119,
      "ols": 2120,
      "src": 2121,
      "ĠFor": 2122,
      "cept": 2123,
      "Ġextra": 2124,
      "first": 2125,
      "assed": 2126,
      "Ġlocation": 2127,
      "ui": 2128,
      "ollow": 2129,
      "inst": 2130,
      "ie": 2131,
      "option": 2132,
      "Ġcomm": 2133,
      "rs": 2134,
      "Ġ-------": 2135,
      "ĠPro": 2136,
      "Dict": 2137,
      "cc": 2138,
      "Ġ'/": 2139,
      "Ġregister": 2140,
      "No": 2141,
      "rate": 2142,
      "orig": 2143,
      "Ġdevice": 2144,
      "rule": 2145,
      "show": 2146,
      "Ġsingle": 2147,
      "ANG": 2148,
      "Text": 2149,
      "device": 2150,
      "TH": 2151,
      "ctx": 2152,
      "ash": 2153,
      "13": 2154,
      "The": 2155,
      "ern": 2156,
      "Ġ'-": 2157,
      "Ġoption": 2158,
      "Ġhandle": 2159,
      "Ġbet": 2160,
      "PO": 2161,
      "tuple": 2162,
      "Ġwidth": 2163,
      "Ġsk": 2164,
      "Ġ10": 2165,
      "Ġcom": 2166,
      "gine": 2167,
      "section": 2168,
      "20": 2169,
      ")[": 2170,
      "Ġgraph": 2171,
      "lasses": 2172,
      "Path": 2173,
      "layer": 2174,
      "labels": 2175,
      "Request": 2176,
      "my": 2177,
      "ose": 2178,
      "gest": 2179,
      "Ġprovided": 2180,
      "=(": 2181,
      "mber": 2182,
      "let": 2183,
      "ining": 2184,
      "itional": 2185,
      "Ġgen": 2186,
      "ĠUn": 2187,
      "LA": 2188,
      "hed": 2189,
      "Strain": 2190,
      "unter": 2191,
      "Ġafter": 2192,
      "opts": 2193,
      "resp": 2194,
      "Ġfull": 2195,
      "ĠData": 2196,
      "Ġcoord": 2197,
      "idd": 2198,
      "ĠSt": 2199,
      "CT": 2200,
      "raise": 2201,
      "ular": 2202,
      "active": 2203,
      "Hand": 2204,
      "true": 2205,
      "Ġbefore": 2206,
      "saction": 2207,
      "ĠCreate": 2208,
      "edge": 2209,
      "Ġconst": 2210,
      "lice": 2211,
      "very": 2212,
      "vices": 2213,
      "total": 2214,
      "ude": 2215,
      "ript": 2216,
      "sets": 2217,
      "Ġwrap": 2218,
      "ĠAdd": 2219,
      "tails": 2220,
      "mult": 2221,
      "perator": 2222,
      "ween": 2223,
      "'][": 2224,
      "Ite": 2225,
      "ĠReturn": 2226,
      "scale": 2227,
      "Ġinformation": 2228,
      "org": 2229,
      "system": 2230,
      "ĠList": 2231,
      "pattern": 2232,
      "exception": 2233,
      "okup": 2234,
      "Ġawait": 2235,
      "Ġcomple": 2236,
      "ĠDefault": 2237,
      "access": 2238,
      "Ġ'--": 2239,
      "sys": 2240,
      "ret": 2241,
      "Ġstop": 2242,
      "Parser": 2243,
      "24": 2244,
      "Bo": 2245,
      "username": 2246,
      "ĠKeyError": 2247,
      "Ġmeta": 2248,
      "bound": 2249,
      "ait": 2250,
      "warning": 2251,
      "ful": 2252,
      "opt": 2253,
      "Node": 2254,
      "Ġpassed": 2255,
      ".\"": 2256,
      ",-": 2257,
      "ride": 2258,
      "CON": 2259,
      "af": 2260,
      "Ġdocument": 2261,
      "coord": 2262,
      "Ġdown": 2263,
      "ranch": 2264,
      "Ġexc": 2265,
      "ategory": 2266,
      "Ġlib": 2267,
      "Ġhash": 2268,
      "Ġind": 2269,
      "Ġnetwork": 2270,
      "gress": 2271,
      "Ġmain": 2272,
      "hether": 2273,
      "Ġchunk": 2274,
      "Ġschema": 2275,
      "ĠTODO": 2276,
      "cies": 2277,
      "dist": 2278,
      "Ġsave": 2279,
      "Ġexception": 2280,
      "ĠNot": 2281,
      "acter": 2282,
      "issing": 2283,
      "ling": 2284,
      "exit": 2285,
      "Ġrest": 2286,
      "cret": 2287,
      "redential": 2288,
      "Ġ'\\": 2289,
      "bool": 2290,
      "Ġresp": 2291,
      "utton": 2292,
      "Ġcolumns": 2293,
      "Widget": 2294,
      "medi": 2295,
      "\"],": 2296,
      "lyph": 2297,
      "height": 2298,
      "Sub": 2299,
      "wh": 2300,
      "loop": 2301,
      "Ġtmp": 2302,
      "Ġ',": 2303,
      "KE": 2304,
      "mean": 2305,
      "Ġag": 2306,
      "fs": 2307,
      "Ġstd": 2308,
      "],[": 2309,
      "Ġempty": 2310,
      "ither": 2311,
      "Ġidx": 2312,
      "55": 2313,
      "ason": 2314,
      "Ġpayload": 2315,
      "Ġavailable": 2316,
      "exc": 2317,
      "Ġtri": 2318,
      "Ġconfiguration": 2319,
      "keep": 2320,
      "Ġits": 2321,
      "ULT": 2322,
      "Th": 2323,
      "stdout": 2324,
      "groups": 2325,
      "vals": 2326,
      "TYPE": 2327,
      "alog": 2328,
      "vious": 2329,
      "Form": 2330,
      "Ġview": 2331,
      "Ġrequests": 2332,
      "ĠExample": 2333,
      "ination": 2334,
      "duct": 2335,
      "can": 2336,
      "Ġlambda": 2337,
      "olution": 2338,
      "directory": 2339,
      "ĠAPI": 2340,
      "Ġnodes": 2341,
      "stats": 2342,
      "speci": 2343,
      "SON": 2344,
      "random": 2345,
      "Ġattributes": 2346,
      "Ġencoding": 2347,
      "Ġfin": 2348,
      "Ġnormal": 2349,
      "State": 2350,
      "Ġasync": 2351,
      "iple": 2352,
      "ek": 2353,
      "Ġopt": 2354,
      "Ġ'_": 2355,
      "alid": 2356,
      "domain": 2357,
      "`,": 2358,
      "NAME": 2359,
      "Ġweight": 2360,
      "}\".": 2361,
      "Ġglobal": 2362,
      "matrix": 2363,
      "Ġmatrix": 2364,
      "FF": 2365,
      "Ġ(\"": 2366,
      ".,": 2367,
      "Ġedge": 2368,
      "03": 2369,
      "ater": 2370,
      "Ġrule": 2371,
      "Ġcreated": 2372,
      "Ġbin": 2373,
      "vate": 2374,
      "Ġsequence": 2375,
      "ffix": 2376,
      "Ġsend": 2377,
      "Invalid": 2378,
      "TION": 2379,
      "Ġbatch": 2380,
      "zone": 2381,
      "initial": 2382,
      "gument": 2383,
      "thread": 2384,
      "manager": 2385,
      "Ġ):": 2386,
      "dest": 2387,
      "Ġzip": 2388,
      "olve": 2389,
      "18": 2390,
      "Ġshow": 2391,
      "inition": 2392,
      "tmp": 2393,
      "zip": 2394,
      "Ġrandom": 2395,
      "pace": 2396,
      "Ġpattern": 2397,
      "position": 2398,
      "Message": 2399,
      "Ġap": 2400,
      "timestamp": 2401,
      "</": 2402,
      "Ġpost": 2403,
      "Ġfollow": 2404,
      "Ġplt": 2405,
      "Ġ'{": 2406,
      "tect": 2407,
      "sort": 2408,
      "wd": 2409,
      "comment": 2410,
      "rection": 2411,
      "reshold": 2412,
      "pen": 2413,
      "delta": 2414,
      "ensor": 2415,
      "pping": 2416,
      "Event": 2417,
      "Ġsalt": 2418,
      "Ġcli": 2419,
      "Return": 2420,
      "rows": 2421,
      "\"])": 2422,
      "gnore": 2423,
      "Ġdatabase": 2424,
      "rou": 2425,
      "apping": 2426,
      "Ġtree": 2427,
      "Ġhandler": 2428,
      "vider": 2429,
      "entic": 2430,
      "profile": 2431,
      "Ġbeen": 2432,
      "Ġright": 2433,
      "Ġbetween": 2434,
      "posit": 2435,
      "00000": 2436,
      "OG": 2437,
      "Ġcomponent": 2438,
      "Info": 2439,
      "day": 2440,
      "Ġtypes": 2441,
      "Ġpub": 2442,
      "Ġexists": 2443,
      "EL": 2444,
      "vari": 2445,
      "Ġaccess": 2446,
      "Ġ{}\".": 2447,
      "Ġconvert": 2448,
      "python": 2449,
      "errors": 2450,
      "diff": 2451,
      "Ġdataset": 2452,
      "ĠRun": 2453,
      "OT": 2454,
      "sig": 2455,
      "ffi": 2456,
      "window": 2457,
      "conn": 2458,
      "','": 2459,
      "Ġcontaining": 2460,
      "50": 2461,
      "med": 2462,
      "book": 2463,
      "ww": 2464,
      "66": 2465,
      "\"))": 2466,
      "properties": 2467,
      "FAULT": 2468,
      "namespace": 2469,
      "execute": 2470,
      "attrs": 2471,
      "TER": 2472,
      "Response": 2473,
      "Ġexample": 2474,
      "__,": 2475,
      "Ġgo": 2476,
      "itude": 2477,
      "Ġsrc": 2478,
      "aded": 2479,
      "txt": 2480,
      "ĠCheck": 2481,
      "Ġlike": 2482,
      "common": 2483,
      "olean": 2484,
      "Ġrepresent": 2485,
      "19": 2486,
      "words": 2487,
      "Ġcontainer": 2488,
      "ipe": 2489,
      "models": 2490,
      "US": 2491,
      "Ġbound": 2492,
      "Item": 2493,
      "Ġnow": 2494,
      "enu": 2495,
      "Ġ[\"": 2496,
      "serv": 2497,
      "unit": 2498,
      "returns": 2499,
      "ived": 2500,
      "Ġtags": 2501,
      "thing": 2502,
      "requ": 2503,
      "bind": 2504,
      "Ġreference": 2505,
      "import": 2506,
      "Ġloop": 2507,
      "Ġdelete": 2508,
      "side": 2509,
      "Ġconnect": 2510,
      "raint": 2511,
      "dev": 2512,
      "ng": 2513,
      "Ġposition": 2514,
      "Ġtwo": 2515,
      "account": 2516,
      "Ġ\".": 2517,
      "Ġleft": 2518,
      "fra": 2519,
      "]):": 2520,
      "Ġsplit": 2521,
      "normal": 2522,
      "Ġob": 2523,
      "ents": 2524,
      "RA": 2525,
      "prot": 2526,
      "widget": 2527,
      "rec": 2528,
      "Ġdir": 2529,
      "ernel": 2530,
      "pdate": 2531,
      "Ġmask": 2532,
      "Ġpk": 2533,
      "symbol": 2534,
      "=%": 2535,
      "hist": 2536,
      "Ġqueue": 2537,
      "ĠMe": 2538,
      "Ġ7": 2539,
      "ink": 2540,
      "ince": 2541,
      "Ġhere": 2542,
      "Ġforce": 2543,
      "attributes": 2544,
      "Ġren": 2545,
      "coder": 2546,
      "sn": 2547,
      "Ġctx": 2548,
      "Create": 2549,
      "Ġdiffe": 2550,
      "Index": 2551,
      "sv": 2552,
      "Ġdirect": 2553,
      "known": 2554,
      "valu": 2555,
      "zeros": 2556,
      "Ġskip": 2557,
      "Ġusername": 2558,
      "stderr": 2559,
      "Ġip": 2560,
      "chain": 2561,
      "oice": 2562,
      "\"),": 2563,
      ":%": 2564,
      "wit": 2565,
      "children": 2566,
      "extra": 2567,
      "rary": 2568,
      "verage": 2569,
      "Ġdepend": 2570,
      "cause": 2571,
      "abs": 2572,
      "river": 2573,
      "samples": 2574,
      "Ġsuccess": 2575,
      "ories": 2576,
      "roll": 2577,
      "interface": 2578,
      "mal": 2579,
      "23": 2580,
      "Ġpoints": 2581,
      "warn": 2582,
      "istry": 2583,
      "Ġcalcul": 2584,
      "Ġconn": 2585,
      "Ġcalled": 2586,
      "Ġlong": 2587,
      "Ġjust": 2588,
      "tach": 2589,
      "component": 2590,
      "chunk": 2591,
      "imp": 2592,
      "ware": 2593,
      "Ġreq": 2594,
      "17": 2595,
      "Ġcustom": 2596,
      "``.": 2597,
      "Size": 2598,
      "Ġsort": 2599,
      "Ġchars": 2600,
      "Ġalso": 2601,
      "lem": 2602,
      "Ġserial": 2603,
      "ĠAttribute": 2604,
      "latform": 2605,
      "Ġdefined": 2606,
      "Ġaccount": 2607,
      "Ġignore": 2608,
      "radi": 2609,
      "shot": 2610,
      "mplemented": 2611,
      "ĠRes": 2612,
      "bot": 2613,
      "oid": 2614,
      "alys": 2615,
      "cker": 2616,
      "Ġsee": 2617,
      "validate": 2618,
      "Ġvari": 2619,
      "Client": 2620,
      "Ġcond": 2621,
      "Le": 2622,
      "TO": 2623,
      "Ġfact": 2624,
      "display": 2625,
      "bl": 2626,
      "VER": 2627,
      "ift": 2628,
      "expr": 2629,
      "('\\": 2630,
      "Ġlayer": 2631,
      "Ġvis": 2632,
      "Model": 2633,
      "board": 2634,
      "place": 2635,
      "uuid": 2636,
      "contro": 2637,
      "ific": 2638,
      "ĠURL": 2639,
      "dataset": 2640,
      "Handler": 2641,
      "Ġverbose": 2642,
      "Ġiss": 2643,
      "Ġlabels": 2644,
      "Ġsix": 2645,
      "ilder": 2646,
      "IO": 2647,
      "fit": 2648,
      "register": 2649,
      "BU": 2650,
      "stead": 2651,
      "Result": 2652,
      "Ġmark": 2653,
      "Ġpython": 2654,
      "bution": 2655,
      "rest": 2656,
      "AB": 2657,
      "itial": 2658,
      "git": 2659,
      "ping": 2660,
      "IT": 2661,
      "Ġreplace": 2662,
      "Ġparsed": 2663,
      "EX": 2664,
      "ĠOptional": 2665,
      "Ġdisplay": 2666,
      "AS": 2667,
      "vars": 2668,
      "aml": 2669,
      "redentials": 2670,
      "extmethods": 2671,
      "cell": 2672,
      "ssible": 2673,
      "ĠDi": 2674,
      "Bu": 2675,
      "29": 2676,
      "Ġexisting": 2677,
      "Ġ{}'.": 2678,
      "email": 2679,
      "stat": 2680,
      "Ġthem": 2681,
      "Ġsa": 2682,
      "80": 2683,
      "100": 2684,
      "Ġheight": 2685,
      "Ġfeature": 2686,
      "curity": 2687,
      "hell": 2688,
      "ĠQt": 2689,
      "tf": 2690,
      "Ġ},": 2691,
      "Ġdon": 2692,
      "Ġfig": 2693,
      "ports": 2694,
      "Ġfailed": 2695,
      "ily": 2696,
      "mount": 2697,
      "67": 2698,
      "ank": 2699,
      "]),": 2700,
      "Sh": 2701,
      "uture": 2702,
      "her": 2703,
      "Ġoriginal": 2704,
      "Ġwindow": 2705,
      "oci": 2706,
      "An": 2707,
      "folder": 2708,
      "upper": 2709,
      "gor": 2710,
      "ĠLOG": 2711,
      "rans": 2712,
      "Speci": 2713,
      "Ġsig": 2714,
      "Ġbyte": 2715,
      "ators": 2716,
      "Ġwant": 2717,
      "By": 2718,
      "ws": 2719,
      "emp": 2720,
      "Ġsection": 2721,
      "Ġpair": 2722,
      "Qu": 2723,
      "payload": 2724,
      "Ġexpected": 2725,
      "Ġunit": 2726,
      "ia": 2727,
      "'}": 2728,
      "Ġwait": 2729,
      "socket": 2730,
      "plugin": 2731,
      "gorith": 2732,
      "repo": 2733,
      "cast": 2734,
      "Ġextmethods": 2735,
      "case": 2736,
      "global": 2737,
      "Ġremote": 2738,
      "head": 2739,
      "cols": 2740,
      "cer": 2741,
      "Ġstyle": 2742,
      "attribute": 2743,
      "('-": 2744,
      "User": 2745,
      "eded": 2746,
      "Ġrows": 2747,
      "scope": 2748,
      "sequence": 2749,
      "Ġ'{}": 2750,
      "Lay": 2751,
      "ves": 2752,
      "enter": 2753,
      "depth": 2754,
      "Ġsignal": 2755,
      "28": 2756,
      "cho": 2757,
      "ĠLo": 2758,
      "UE": 2759,
      "Ġstore": 2760,
      "empty": 2761,
      "sport": 2762,
      "seconds": 2763,
      "Ġunique": 2764,
      "Comp": 2765,
      "Ġopts": 2766,
      "plo": 2767,
      "trics": 2768,
      "Ġmod": 2769,
      "ĠPython": 2770,
      "60": 2771,
      "Ġmissing": 2772,
      "Ġ\"\\": 2773,
      "leep": 2774,
      "ian": 2775,
      "termin": 2776,
      "rough": 2777,
      "encies": 2778,
      "cked": 2779,
      "pair": 2780,
      "ĠSee": 2781,
      "year": 2782,
      "Ġprofile": 2783,
      "encoding": 2784,
      "lative": 2785,
      "Ġproperties": 2786,
      "Ġoperation": 2787,
      "ffect": 2788,
      "Ġvariables": 2789,
      "repr": 2790,
      "ero": 2791,
      "HE": 2792,
      "pool": 2793,
      "Out": 2794,
      "dumps": 2795,
      "site": 2796,
      "indices": 2797,
      "Or": 2798,
      "alysis": 2799,
      "Context": 2800,
      "ĠAttributeError": 2801,
      "ared": 2802,
      "Ġsystem": 2803,
      "tax": 2804,
      "ATI": 2805,
      "lated": 2806,
      "operation": 2807,
      "ĠRa": 2808,
      "27": 2809,
      "Ġconf": 2810,
      "Ġelements": 2811,
      "auto": 2812,
      "https": 2813,
      "ered": 2814,
      "Ġeither": 2815,
      "dirs": 2816,
      "interval": 2817,
      "Ġfail": 2818,
      "ven": 2819,
      "light": 2820,
      "Ġgenerate": 2821,
      "tail": 2822,
      "pository": 2823,
      "IP": 2824,
      "idden": 2825,
      "Ġpd": 2826,
      "Ġinstead": 2827,
      "respon": 2828,
      "ersion": 2829,
      "insert": 2830,
      "environ": 2831,
      "NT": 2832,
      "Ġinteger": 2833,
      "pid": 2834,
      "cut": 2835,
      "transform": 2836,
      "olver": 2837,
      "ites": 2838,
      "Ġtimestamp": 2839,
      "ĠYANG": 2840,
      "Ġunicode": 2841,
      "ĠIt": 2842,
      "ority": 2843,
      "Ġ9": 2844,
      "IG": 2845,
      "Found": 2846,
      "desc": 2847,
      "Ġregion": 2848,
      "identifier": 2849,
      "leg": 2850,
      "sid": 2851,
      "loads": 2852,
      "Ġbecause": 2853,
      "parts": 2854,
      "Ġsocket": 2855,
      "depend": 2856,
      "He": 2857,
      "allow": 2858,
      "policy": 2859,
      "Ġpe": 2860,
      "05": 2861,
      "ground": 2862,
      "Ġsim": 2863,
      "ithub": 2864,
      "proxy": 2865,
      "non": 2866,
      "cfg": 2867,
      "poch": 2868,
      "ĠName": 2869,
      "Ġextract": 2870,
      "bits": 2871,
      "Ġfn": 2872,
      "Ġdomain": 2873,
      "_,": 2874,
      "Ġmon": 2875,
      "Ġsymbol": 2876,
      "Ġplugin": 2877,
      "Ġxml": 2878,
      "ET": 2879,
      "aly": 2880,
      "nt": 2881,
      "cursor": 2882,
      "trace": 2883,
      "lish": 2884,
      "Group": 2885,
      "required": 2886,
      "('/": 2887,
      "Ġstrings": 2888,
      "ĠTo": 2889,
      "cluster": 2890,
      "way": 2891,
      "fin": 2892,
      "score": 2893,
      "lied": 2894,
      "MO": 2895,
      "long": 2896,
      "features": 2897,
      "andid": 2898,
      "ango": 2899,
      "dt": 2900,
      "flags": 2901,
      "NO": 2902,
      "help": 2903,
      "sq": 2904,
      "Ġsupported": 2905,
      "ighb": 2906,
      "clean": 2907,
      "cheme": 2908,
      "document": 2909,
      "KEY": 2910,
      "classes": 2911,
      "Ġscale": 2912,
      "alled": 2913,
      "used": 2914,
      "Ġrece": 2915,
      "lap": 2916,
      "SC": 2917,
      "Ġimp": 2918,
      "hex": 2919,
      ".'": 2920,
      "()))": 2921,
      "Ġdebug": 2922,
      "mbers": 2923,
      "Ġge": 2924,
      "cert": 2925,
      "ĠNote": 2926,
      "gorithm": 2927,
      "Ġclean": 2928,
      "fetch": 2929,
      "strict": 2930,
      "Ġseconds": 2931,
      "abel": 2932,
      "optional": 2933,
      "ivity": 2934,
      "URL": 2935,
      "ured": 2936,
      "Ġwhether": 2937,
      "Ġthey": 2938,
      "Ġabs": 2939,
      "Ġprevious": 2940,
      "storage": 2941,
      "ogle": 2942,
      "Ġspec": 2943,
      "andard": 2944,
      "Ġvalidate": 2945,
      "Ġbased": 2946,
      "Inter": 2947,
      "signal": 2948,
      "ould": 2949,
      "__()": 2950,
      "34": 2951,
      "commit": 2952,
      "Ġhttps": 2953,
      "gre": 2954,
      "Ġendpoint": 2955,
      "Ġproperty": 2956,
      "tom": 2957,
      "={}": 2958,
      "vision": 2959,
      "region": 2960,
      "Ġkeep": 2961,
      "mbed": 2962,
      "eno": 2963,
      "ĠHTTP": 2964,
      "Ġattrs": 2965,
      "30": 2966,
      "Array": 2967,
      "Ġmean": 2968,
      "tokens": 2969,
      "adding": 2970,
      "SO": 2971,
      "ignment": 2972,
      "ailed": 2973,
      "DB": 2974,
      "reference": 2975,
      "serialize": 2976,
      "entity": 2977,
      "[:-": 2978,
      "Ġsecond": 2979,
      "Ġcell": 2980,
      "esc": 2981,
      "ĠJSON": 2982,
      "Ġextensions": 2983,
      "Ġ100": 2984,
      "Base": 2985,
      "('--": 2986,
      "Ġmy": 2987,
      "secret": 2988,
      "At": 2989,
      "('%": 2990,
      "dr": 2991,
      "ways": 2992,
      "ier": 2993,
      "Py": 2994,
      "Ġdefining": 2995,
      "Check": 2996,
      "Ġbuf": 2997,
      "()):": 2998,
      "sql": 2999,
      "asure": 3000,
      "Ġcluster": 3001,
      "lab": 3002,
      "Ġflag": 3003,
      "__)": 3004,
      "feature": 3005,
      "API": 3006,
      "Dyn": 3007,
      "ises": 3008,
      "any": 3009,
      "Ġstack": 3010,
      "Ġcontains": 3011,
      "Ġmultiple": 3012,
      "remote": 3013,
      "Ġmerge": 3014,
      "ced": 3015,
      "Box": 3016,
      "Ġcursor": 3017,
      "dified": 3018,
      "Ġtransform": 3019,
      "Ġotherwise": 3020,
      "Content": 3021,
      "report": 3022,
      "Ġlat": 3023,
      "rel": 3024,
      "DEFAULT": 3025,
      "Ġgrid": 3026,
      "press": 3027,
      "expected": 3028,
      "Ġpol": 3029,
      "cb": 3030,
      "apshot": 3031,
      "Ġseq": 3032,
      "math": 3033,
      "verbose": 3034,
      "img": 3035,
      "ored": 3036,
      "Ġstri": 3037,
      "Ġbot": 3038,
      "UR": 3039,
      "Ġ),": 3040,
      "curs": 3041,
      "ĠET": 3042,
      "logging": 3043,
      "moved": 3044,
      "Ġwarn": 3045,
      "csv": 3046,
      "changed": 3047,
      "dims": 3048,
      "unicode": 3049,
      "Ġparts": 3050,
      "TR": 3051,
      "mgmt": 3052,
      "requency": 3053,
      "Ġdifferent": 3054,
      "angle": 3055,
      "Ġscope": 3056,
      "inates": 3057,
      "App": 3058,
      "just": 3059,
      "Ġindent": 3060,
      "Ġflags": 3061,
      "cloud": 3062,
      "rag": 3063,
      "endpoint": 3064,
      "GET": 3065,
      "numpy": 3066,
      "mapping": 3067,
      "pl": 3068,
      "Ġmapping": 3069,
      "endswith": 3070,
      "201": 3071,
      "IL": 3072,
      "hook": 3073,
      "iew": 3074,
      "Line": 3075,
      "ggreg": 3076,
      "Ġsn": 3077,
      "OP": 3078,
      "tered": 3079,
      "metric": 3080,
      "actions": 3081,
      "Ġus": 3082,
      "Ġencode": 3083,
      "Auth": 3084,
      "ED": 3085,
      "Ġdisable": 3086,
      "ilter": 3087,
      "ended": 3088,
      "izes": 3089,
      "Ġinvalid": 3090,
      "variables": 3091,
      "Ġcorrespon": 3092,
      "Ġ\"{": 3093,
      "chedule": 3094,
      "Format": 3095,
      "Ġyour": 3096,
      "lim": 3097,
      "prec": 3098,
      "UP": 3099,
      "Ġfollowing": 3100,
      "(\"%": 3101,
      "fd": 3102,
      "ndarray": 3103,
      "PAT": 3104,
      "Ġdistance": 3105,
      "ĠSer": 3106,
      "trie": 3107,
      "buf": 3108,
      "tract": 3109,
      "arr": 3110,
      "convert": 3111,
      "custom": 3112,
      "Ġcorrect": 3113,
      "witch": 3114,
      "Ġ((": 3115,
      "cores": 3116,
      "ĠRuntime": 3117,
      "argv": 3118,
      "Ġgra": 3119,
      "ice": 3120,
      "az": 3121,
      "sec": 3122,
      "alpha": 3123,
      "release": 3124,
      "(\"\\": 3125,
      "asic": 3126,
      "Ġadded": 3127,
      "Ġsent": 3128,
      "(-": 3129,
      "()[": 3130,
      "backend": 3131,
      "unique": 3132,
      "include": 3133,
      "/{": 3134,
      "jango": 3135,
      "fill": 3136,
      "where": 3137,
      "Ġenvironment": 3138,
      "real": 3139,
      "norm": 3140,
      "Ġmessages": 3141,
      "44": 3142,
      "crypt": 3143,
      "-%": 3144,
      "dirname": 3145,
      "ĠEn": 3146,
      "Ġfit": 3147,
      "els": 3148,
      "Ġmatches": 3149,
      "Ġkeyword": 3150,
      "ĠZ": 3151,
      "SP": 3152,
      "Ġ\",": 3153,
      "Ġconver": 3154,
      "ision": 3155,
      "cap": 3156,
      "collection": 3157,
      "factory": 3158,
      "spect": 3159,
      "Ġinterface": 3160,
      "'\\": 3161,
      "center": 3162,
      "/%": 3163,
      "SH": 3164,
      "gp": 3165,
      "Ġrepo": 3166,
      "``,": 3167,
      "vo": 3168,
      "Ġspecify": 3169,
      "Ġtrace": 3170,
      "Ġdefaults": 3171,
      "Ġboth": 3172,
      "defaults": 3173,
      "uted": 3174,
      "Ġ\"_": 3175,
      "Ġalpha": 3176,
      "FO": 3177,
      "ĠDE": 3178,
      "88": 3179,
      "oices": 3180,
      "AP": 3181,
      "ĠComp": 3182,
      "until": 3183,
      "22": 3184,
      "================": 3185,
      "spe": 3186,
      "Ġidentifier": 3187,
      "property": 3188,
      "ERR": 3189,
      "Ġtake": 3190,
      "byte": 3191,
      "iod": 3192,
      "ration": 3193,
      "tex": 3194,
      "alle": 3195,
      "Ġbit": 3196,
      "Failed": 3197,
      "Code": 3198,
      "sm": 3199,
      "uplic": 3200,
      "pare": 3201,
      "ences": 3202,
      "Pre": 3203,
      "DynClass": 3204,
      "states": 3205,
      "ross": 3206,
      "Sy": 3207,
      "Ġbuffer": 3208,
      "application": 3209,
      "salt": 3210,
      "author": 3211,
      "PRO": 3212,
      "Ġscript": 3213,
      "Ġreport": 3214,
      "Ġtrue": 3215,
      "inputs": 3216,
      "Ġrender": 3217,
      "Ġpaths": 3218,
      "Ġ})": 3219,
      "database": 3220,
      "success": 3221,
      "Ġfinal": 3222,
      "Ġindic": 3223,
      "atio": 3224,
      "force": 3225,
      "-+": 3226,
      "pted": 3227,
      "ĠWh": 3228,
      "DF": 3229,
      "Ġstats": 3230,
      ":`~": 3231,
      "units": 3232,
      "Date": 3233,
      "Ġpossible": 3234,
      "cla": 3235,
      "Run": 3236,
      "Ġsepar": 3237,
      "Ġexpression": 3238,
      "ense": 3239,
      "safe": 3240,
      "Ġentity": 3241,
      "stim": 3242,
      "card": 3243,
      "Ġstdout": 3244,
      "Ġcollection": 3245,
      "Ġfix": 3246,
      "kind": 3247,
      "Ġ\"/": 3248,
      "Ġsamples": 3249,
      "archive": 3250,
      "Per": 3251,
      "events": 3252,
      "Ġtokens": 3253,
      "Ġsure": 3254,
      "clear": 3255,
      "}'": 3256,
      "Ġpipe": 3257,
      "Loc": 3258,
      "ynam": 3259,
      "uint": 3260,
      "ulation": 3261,
      "Session": 3262,
      "fail": 3263,
      "__['": 3264,
      "Ġsite": 3265,
      "sync": 3266,
      "Ġcert": 3267,
      "draw": 3268,
      "ĠOr": 3269,
      "65": 3270,
      "Ġcannot": 3271,
      "GER": 3272,
      "parameter": 3273,
      "Ġindices": 3274,
      "ze": 3275,
      "licit": 3276,
      "Reg": 3277,
      "proto": 3278,
      "Ġpop": 3279,
      "exce": 3280,
      "language": 3281,
      "Ġthrough": 3282,
      "Ġdt": 3283,
      "patch": 3284,
      "pix": 3285,
      "ĠStr": 3286,
      "na": 3287,
      "bab": 3288,
      "ĠRuntimeError": 3289,
      "Input": 3290,
      "QL": 3291,
      "Ġcallable": 3292,
      "utable": 3293,
      "ĠUse": 3294,
      "Argument": 3295,
      "ik": 3296,
      "Ġimg": 3297,
      "tc": 3298,
      "ire": 3299,
      "pb": 3300,
      "volume": 3301,
      "Ġ_,": 3302,
      "Ġsyn": 3303,
      "Ġdecor": 3304,
      "Ġow": 3305,
      "Ġemail": 3306,
      "nan": 3307,
      "Read": 3308,
      "Man": 3309,
      "Species": 3310,
      "vm": 3311,
      "Image": 3312,
      "ignore": 3313,
      "imer": 3314,
      "Ġvolume": 3315,
      "factor": 3316,
      "ker": 3317,
      "setup": 3318,
      "Ġdoesn": 3319,
      "Map": 3320,
      "umbers": 3321,
      "Dis": 3322,
      "lers": 3323,
      "Ġtr": 3324,
      "Ġdelta": 3325,
      "Ġda": 3326,
      "period": 3327,
      "Ġmaximum": 3328,
      "ending": 3329,
      "Ġty": 3330,
      "35": 3331,
      "sure": 3332,
      "nly": 3333,
      "tab": 3334,
      "Ġevery": 3335,
      "Ġnote": 3336,
      "ives": 3337,
      "series": 3338,
      "agent": 3339,
      "Ġallowed": 3340,
      "Ġrunning": 3341,
      "mac": 3342,
      "aries": 3343,
      "__.": 3344,
      "jobs": 3345,
      "itive": 3346,
      "role": 3347,
      "37": 3348,
      "master": 3349,
      "}.": 3350,
      "Ġ-=": 3351,
      "mpt": 3352,
      "ness": 3353,
      "Ġhist": 3354,
      "SION": 3355,
      "FILE": 3356,
      "lug": 3357,
      "AM": 3358,
      "lush": 3359,
      "Ġdone": 3360,
      "CK": 3361,
      "compile": 3362,
      "ffici": 3363,
      "Ġsince": 3364,
      "dat": 3365,
      "Ġassoci": 3366,
      "button": 3367,
      "prop": 3368,
      "periment": 3369,
      "Ġutils": 3370,
      "times": 3371,
      "Ġauto": 3372,
      "Ġwithout": 3373,
      "complete": 3374,
      "ĠFile": 3375,
      "################": 3376,
      "Ġthese": 3377,
      "layout": 3378,
      "gments": 3379,
      "imple": 3380,
      "ged": 3381,
      "tools": 3382,
      "68": 3383,
      "Table": 3384,
      "Ġour": 3385,
      "win": 3386,
      "Ġstat": 3387,
      "regex": 3388,
      "pipe": 3389,
      "route": 3390,
      "Ġlook": 3391,
      "counter": 3392,
      "Ġexit": 3393,
      "tt": 3394,
      "Count": 3395,
      "ificate": 3396,
      "(['": 3397,
      "'''": 3398,
      "arguments": 3399,
      "Ġapply": 3400,
      "skip": 3401,
      "Ġclose": 3402,
      "From": 3403,
      "vas": 3404,
      "flag": 3405,
      "Qt": 3406,
      "merge": 3407,
      "ually": 3408,
      "vide": 3409,
      "Ġpresent": 3410,
      "Ġasyn": 3411,
      "eric": 3412,
      "kets": 3413,
      "Service": 3414,
      "fname": 3415,
      "bucket": 3416,
      "install": 3417,
      "andas": 3418,
      "cessed": 3419,
      "View": 3420,
      "ATION": 3421,
      "fast": 3422,
      "__.__": 3423,
      "protocol": 3424,
      "leted": 3425,
      "Ġuri": 3426,
      "}\\": 3427,
      "Ġdistri": 3428,
      "ĠRaises": 3429,
      "amily": 3430,
      "Ġast": 3431,
      "({'": 3432,
      "admin": 3433,
      "Ġloc": 3434,
      "fmt": 3435,
      "glyph": 3436,
      "ient": 3437,
      "Version": 3438,
      "Ġmemory": 3439,
      "Ġhigh": 3440,
      "cii": 3441,
      "extract": 3442,
      "services": 3443,
      "Ġevents": 3444,
      "Ġbeing": 3445,
      "ferences": 3446,
      "Ġcomment": 3447,
      "Ġappro": 3448,
      "ams": 3449,
      "Ġ\"--": 3450,
      "Ġlanguage": 3451,
      "Ġkw": 3452,
      "ĠYANGDynClass": 3453,
      "ĠGener": 3454,
      "render": 3455,
      "ru": 3456,
      "ength": 3457,
      "font": 3458,
      "rl": 3459,
      "Ġcould": 3460,
      "hy": 3461,
      "sleep": 3462,
      "perations": 3463,
      "lux": 3464,
      "Ġinputs": 3465,
      "Ġtheir": 3466,
      "relation": 3467,
      "={'": 3468,
      "ux": 3469,
      "sl": 3470,
      "Call": 3471,
      "vec": 3472,
      "chron": 3473,
      "Ġwithin": 3474,
      "member": 3475,
      "Ġ'')": 3476,
      "Process": 3477,
      "Ġaut": 3478,
      "cimal": 3479,
      "Ġchain": 3480,
      "Ġsetup": 3481,
      "elements": 3482,
      "Ġfinally": 3483,
      "alias": 3484,
      "Ġ##": 3485,
      "steps": 3486,
      "pter": 3487,
      "memory": 3488,
      "sep": 3489,
      "public": 3490,
      "Ġmetric": 3491,
      "For": 3492,
      "distance": 3493,
      "Ġ%(": 3494,
      "End": 3495,
      "ish": 3496,
      "Ġspace": 3497,
      "Ġmethods": 3498,
      "Ġinstall": 3499,
      "quires": 3500,
      "Ġ,": 3501,
      "Status": 3502,
      "gb": 3503,
      "Ġsupport": 3504,
      "resources": 3505,
      "less": 3506,
      "Ġart": 3507,
      "Ġstorage": 3508,
      "Ġ\"{}": 3509,
      "****": 3510,
      "Tag": 3511,
      "Ġvector": 3512,
      "cluded": 3513,
      "ilt": 3514,
      "]+": 3515,
      "Ġ\"-": 3516,
      "tk": 3517,
      "filters": 3518,
      "ĠAny": 3519,
      "Connection": 3520,
      "gate": 3521,
      "miss": 3522,
      "docs": 3523,
      "Ġzero": 3524,
      "Ġfont": 3525,
      "Ġannot": 3526,
      "ĠNo": 3527,
      "Ġsetattr": 3528,
      "Ġpix": 3529,
      "etri": 3530,
      "Ġwidget": 3531,
      "reset": 3532,
      "modules": 3533,
      "Ġbest": 3534,
      "Ġabout": 3535,
      "ENT": 3536,
      "lookup": 3537,
      "generate": 3538,
      "ars": 3539,
      "coe": 3540,
      "ĠCh": 3541,
      "enabled": 3542,
      "75": 3543,
      "null": 3544,
      "vs": 3545,
      "chine": 3546,
      "ified": 3547,
      "rf": 3548,
      "().__": 3549,
      "ters": 3550,
      "rb": 3551,
      "Ġdepth": 3552,
      "dio": 3553,
      "09": 3554,
      "200": 3555,
      "UM": 3556,
      "sym": 3557,
      "Column": 3558,
      "HTTP": 3559,
      "Ġdesc": 3560,
      "Ġhtml": 3561,
      "Ġspecific": 3562,
      "69": 3563,
      ".*": 3564,
      "olute": 3565,
      "sist": 3566,
      "Ġdownload": 3567,
      "Ġfolder": 3568,
      "Ġsuch": 3569,
      "Ġlower": 3570,
      "Ġtimes": 3571,
      "Ġreal": 3572,
      "Ġcompute": 3573,
      "Ġwrit": 3574,
      "}\"": 3575,
      "Ġagain": 3576,
      "Action": 3577,
      "ometry": 3578,
      "45": 3579,
      "flat": 3580,
      "tick": 3581,
      "exceptions": 3582,
      "49": 3583,
      "ha": 3584,
      "Ġsm": 3585,
      "Ġequal": 3586,
      "LOG": 3587,
      "Ġauthor": 3588,
      "login": 3589,
      "after": 3590,
      "Instance": 3591,
      "okie": 3592,
      "Valid": 3593,
      "layers": 3594,
      "ĠIP": 3595,
      "cf": 3596,
      "ĠIN": 3597,
      "Ġhow": 3598,
      "Ġsql": 3599,
      "uter": 3600,
      "Ġbranch": 3601,
      "rtual": 3602,
      "Number": 3603,
      "zero": 3604,
      "ene": 3605,
      "Ġconstruct": 3606,
      "apply": 3607,
      "Ġproxy": 3608,
      "Ġregex": 3609,
      "summary": 3610,
      "Ġweights": 3611,
      "indent": 3612,
      "ES": 3613,
      "hes": 3614,
      "ines": 3615,
      "Ġrole": 3616,
      "Al": 3617,
      "DS": 3618,
      "ues": 3619,
      "39": 3620,
      "stru": 3621,
      "}{": 3622,
      "lack": 3623,
      "Ġterm": 3624,
      "Cur": 3625,
      "lon": 3626,
      "span": 3627,
      "Command": 3628,
      "termine": 3629,
      "('.": 3630,
      "rece": 3631,
      "Ġrequire": 3632,
      "sole": 3633,
      ")\"": 3634,
      "heet": 3635,
      "Ġextension": 3636,
      "Ġwhat": 3637,
      "drop": 3638,
      "tool": 3639,
      "*(": 3640,
      "Ġpool": 3641,
      "Ġ))": 3642,
      "weights": 3643,
      "links": 3644,
      "Ġgroups": 3645,
      "QU": 3646,
      "ERROR": 3647,
      "Gener": 3648,
      "hs": 3649,
      "VAL": 3650,
      "Ġfeatures": 3651,
      "Ġscore": 3652,
      "PATH": 3653,
      "pad": 3654,
      "()]": 3655,
      "ALL": 3656,
      "Ġ//": 3657,
      "Ġunder": 3658,
      "OL": 3659,
      "month": 3660,
      "this": 3661,
      "lint": 3662,
      "rer": 3663,
      "Ġprop": 3664,
      "Ġsignature": 3665,
      "ORM": 3666,
      "rand": 3667,
      "counts": 3668,
      "sim": 3669,
      "ving": 3670,
      "engine": 3671,
      "spath": 3672,
      "binary": 3673,
      "ĠIO": 3674,
      "ower": 3675,
      "Ġwrapper": 3676,
      "Log": 3677,
      "nn": 3678,
      "Ġactual": 3679,
      "Ġstructure": 3680,
      "Ġprotocol": 3681,
      "Ġoperator": 3682,
      "Ġcontents": 3683,
      "curren": 3684,
      "Ġperiod": 3685,
      "category": 3686,
      "dia": 3687,
      "ancel": 3688,
      "Ġfill": 3689,
      "served": 3690,
      "cos": 3691,
      "Ġdecode": 3692,
      "Ġfmt": 3693,
      "Ġmath": 3694,
      "alk": 3695,
      "38": 3696,
      "Ġrelative": 3697,
      "SubElement": 3698,
      "ases": 3699,
      "_.": 3700,
      "tries": 3701,
      "igned": 3702,
      "missions": 3703,
      "contents": 3704,
      "Ġmodels": 3705,
      "cont": 3706,
      "messages": 3707,
      "ensity": 3708,
      "Ġplace": 3709,
      "Tra": 3710,
      "_{": 3711,
      "Layout": 3712,
      "Ġsubprocess": 3713,
      "Ġ16": 3714,
      "axes": 3715,
      "Ġactive": 3716,
      "ä¸": 3717,
      "Do": 3718,
      "Ġtx": 3719,
      "Ġchanges": 3720,
      "{}'.": 3721,
      "ulate": 3722,
      "ĠUser": 3723,
      "Ġjoin": 3724,
      "__(**": 3725,
      "=_": 3726,
      "eq": 3727,
      "sha": 3728,
      "short": 3729,
      "Ġsegment": 3730,
      "DataFrame": 3731,
      "Ġpad": 3732,
      "Token": 3733,
      "amma": 3734,
      "Ext": 3735,
      "bed": 3736,
      "pan": 3737,
      "Ġdetails": 3738,
      "Ġfp": 3739,
      "filepath": 3740,
      "Ġreverse": 3741,
      "commands": 3742,
      "Ġprev": 3743,
      "Start": 3744,
      "Ġclick": 3745,
      "details": 3746,
      "ploy": 3747,
      "vers": 3748,
      "Ġ'*": 3749,
      "Ġupdated": 3750,
      "Query": 3751,
      "Returns": 3752,
      "Ġbucket": 3753,
      "leaf": 3754,
      "Ġcre": 3755,
      "uting": 3756,
      "ĠIndex": 3757,
      "getattr": 3758,
      "Ġmatching": 3759,
      "github": 3760,
      "AGE": 3761,
      "ely": 3762,
      "Ġfilters": 3763,
      "channels": 3764,
      "lex": 3765,
      "history": 3766,
      "none": 3767,
      "ĠDo": 3768,
      "08": 3769,
      "Ġang": 3770,
      "Ġ[])": 3771,
      "ished": 3772,
      "blem": 3773,
      "multi": 3774,
      "Ġmulti": 3775,
      "gy": 3776,
      "Label": 3777,
      "Ac": 3778,
      "ND": 3779,
      "entication": 3780,
      "77": 3781,
      "Iter": 3782,
      ")])": 3783,
      "osition": 3784,
      "branch": 3785,
      "als": 3786,
      "Ġinterval": 3787,
      "Update": 3788,
      "POST": 3789,
      "sted": 3790,
      "ĠRE": 3791,
      "Desc": 3792,
      "suffix": 3793,
      "threshold": 3794,
      "lections": 3795,
      "Ġneeded": 3796,
      "syn": 3797,
      "download": 3798,
      "mut": 3799,
      "Ġbackend": 3800,
      "\"\\": 3801,
      "Ġ'',": 3802,
      "scribe": 3803,
      "lain": 3804,
      "slice": 3805,
      "tensor": 3806,
      "Ġapplication": 3807,
      "expand": 3808,
      "Ġretrie": 3809,
      "Ġexclude": 3810,
      "Ġroute": 3811,
      "Ġentries": 3812,
      "Ġ(%": 3813,
      "setdefault": 3814,
      "created": 3815,
      "Point": 3816,
      "rpc": 3817,
      "rol": 3818,
      "voc": 3819,
      "Ġbinary": 3820,
      "sqrt": 3821,
      "example": 3822,
      "\"]:": 3823,
      "Of": 3824,
      "Ġwould": 3825,
      "\",\"": 3826,
      "Ġfunctions": 3827,
      "ĠValid": 3828,
      "Ġboolean": 3829,
      "rp": 3830,
      "reshape": 3831,
      "acters": 3832,
      "ller": 3833,
      "basename": 3834,
      "Ġalways": 3835,
      "Ġretry": 3836,
      "Ġamount": 3837,
      "unpack": 3838,
      "Ġexpr": 3839,
      "Ġcomplete": 3840,
      "Ġim": 3841,
      "Ġdestination": 3842,
      "icle": 3843,
      "Trans": 3844,
      "ressed": 3845,
      "ĠConfig": 3846,
      "-+-+": 3847,
      "web": 3848,
      "Ġwarnings": 3849,
      "Ġ201": 3850,
      "48": 3851,
      "Ġradi": 3852,
      "CS": 3853,
      "']))": 3854,
      "ssl": 3855,
      "Ġ'<": 3856,
      "vector": 3857,
      "mot": 3858,
      "Ġfetch": 3859,
      "Resource": 3860,
      "edges": 3861,
      "provider": 3862,
      "Ġcorresponding": 3863,
      "Ġ200": 3864,
      "Ġho": 3865,
      "ife": 3866,
      "STR": 3867,
      "Ġunits": 3868,
      "SER": 3869,
      "Ġseries": 3870,
      "ount": 3871,
      "Ġinstances": 3872,
      "logy": 3873,
      "Ġadditional": 3874,
      "=\"\"": 3875,
      "ascii": 3876,
      "edit": 3877,
      "reen": 3878,
      "\"].": 3879,
      "mar": 3880,
      "Ġoc": 3881,
      "='',": 3882,
      "VE": 3883,
      "expression": 3884,
      "ĠOS": 3885,
      "inf": 3886,
      "Ġdraw": 3887,
      "area": 3888,
      "Ġchildren": 3889,
      "come": 3890,
      "omatic": 3891,
      "js": 3892,
      "ĠCol": 3893,
      "Attribute": 3894,
      "ĠCal": 3895,
      ",)": 3896,
      "tore": 3897,
      "loaded": 3898,
      "colors": 3899,
      "sorted": 3900,
      ":\\": 3901,
      "tact": 3902,
      "writer": 3903,
      "tz": 3904,
      "coords": 3905,
      "Ġsuffix": 3906,
      "duration": 3907,
      "missing": 3908,
      "images": 3909,
      "Ġdimension": 3910,
      "Ġtrain": 3911,
      "ĠPath": 3912,
      "BUG": 3913,
      "dl": 3914,
      "defined": 3915,
      "invalid": 3916,
      ".)": 3917,
      "maining": 3918,
      "Ġcommon": 3919,
      "Ġ{},": 3920,
      "codes": 3921,
      "Ġappend": 3922,
      "Ġstderr": 3923,
      "Ġyear": 3924,
      "reader": 3925,
      "Tree": 3926,
      ")'": 3927,
      "Ġcfg": 3928,
      "enum": 3929,
      "track": 3930,
      "Ġwho": 3931,
      "ather": 3932,
      "qa": 3933,
      "meth": 3934,
      "Ġoptim": 3935,
      "MS": 3936,
      "quences": 3937,
      "ailf": 3938,
      "Ġsetting": 3939,
      "freq": 3940,
      "Ġremoved": 3941,
      "Ġevalu": 3942,
      "Ġcomb": 3943,
      "cm": 3944,
      "UB": 3945,
      "Ġbox": 3946,
      "Ġbind": 3947,
      "des": 3948,
      "uring": 3949,
      "Policy": 3950,
      "Ġassume": 3951,
      "high": 3952,
      "second": 3953,
      "ATA": 3954,
      "Ġkernel": 3955,
      "Ġhead": 3956,
      "ACK": 3957,
      "lear": 3958,
      "cu": 3959,
      "Ġfra": 3960,
      "Ġpr": 3961,
      "VI": 3962,
      "cing": 3963,
      "WS": 3964,
      "ĠInvalid": 3965,
      "AG": 3966,
      "Ġrec": 3967,
      "Ġensure": 3968,
      "deredDict": 3969,
      "Ġsym": 3970,
      "Ġshort": 3971,
      "fp": 3972,
      "obs": 3973,
      "tion": 3974,
      "Manager": 3975,
      "Ġdistribution": 3976,
      "loss": 3977,
      "Ġperform": 3978,
      ":-": 3979,
      "Ġreason": 3980,
      "ĠPer": 3981,
      "ABLE": 3982,
      "Ġmag": 3983,
      "Ġfast": 3984,
      "Ġ'__": 3985,
      "Ġprivate": 3986,
      "Ġprogress": 3987,
      "Block": 3988,
      "culate": 3989,
      "changes": 3990,
      "Ġnd": 3991,
      "before": 3992,
      "percent": 3993,
      "Ġ{})": 3994,
      "cd": 3995,
      "tty": 3996,
      "Ġaxes": 3997,
      "%(": 3998,
      "Ġcat": 3999,
      "Ġiterable": 4000,
      "writ": 4001,
      "Ġrel": 4002,
      "eval": 4003,
      "seed": 4004,
      "Ġday": 4005,
      "mpls": 4006,
      "Stream": 4007,
      "Ġimages": 4008,
      "signature": 4009,
      "Ro": 4010,
      "Ġassociated": 4011,
      "utor": 4012,
      "Ġlock": 4013,
      "Button": 4014,
      "undle": 4015,
      "urface": 4016,
      "IC": 4017,
      "Ġ[],": 4018,
      "07": 4019,
      "PC": 4020,
      "final": 4021,
      "ship": 4022,
      "Ġ[(": 4023,
      "raises": 4024,
      "\").": 4025,
      "segment": 4026,
      "istics": 4027,
      "Source": 4028,
      "acy": 4029,
      "ones": 4030,
      "menu": 4031,
      "platform": 4032,
      "Ġkind": 4033,
      "SET": 4034,
      "dec": 4035,
      "ĠWhen": 4036,
      "\"][\"": 4037,
      "activ": 4038,
      "Ġestim": 4039,
      "hostname": 4040,
      "Ġcategory": 4041,
      "Ġ<<": 4042,
      "days": 4043,
      "Ġalias": 4044,
      "google": 4045,
      "Ġpick": 4046,
      "partition": 4047,
      "Ġdst": 4048,
      "],[-": 4049,
      "iteritems": 4050,
      "Ġselected": 4051,
      "gt": 4052,
      "Ġtransaction": 4053,
      "256": 4054,
      "inv": 4055,
      "arm": 4056,
      "(__": 4057,
      "Filter": 4058,
      "ons": 4059,
      "Ġverify": 4060,
      "Ġexecute": 4061,
      "tasks": 4062,
      "specifi": 4063,
      "Ġsubject": 4064,
      "dst": 4065,
      "configuration": 4066,
      "NS": 4067,
      "ZE": 4068,
      "xx": 4069,
      "Ġli": 4070,
      "product": 4071,
      "formed": 4072,
      "ĠString": 4073,
      "control": 4074,
      "TIME": 4075,
      "Ġtrack": 4076,
      "running": 4077,
      "Fe": 4078,
      "gative": 4079,
      "Ġfname": 4080,
      "static": 4081,
      "arted": 4082,
      "Ġweb": 4083,
      "icro": 4084,
      "Ġslice": 4085,
      "Ġglyph": 4086,
      "cesses": 4087,
      "INT": 4088,
      "Ġexceptions": 4089,
      "}}": 4090,
      "Ġvia": 4091,
      "Ġcommit": 4092,
      "Temp": 4093,
      "subject": 4094,
      "amount": 4095,
      "resses": 4096,
      "Graph": 4097,
      "BA": 4098,
      "Ġrequested": 4099,
      "redu": 4100,
      "Server": 4101,
      "proc": 4102,
      "Ġrecords": 4103,
      "Level": 4104,
      "metrics": 4105,
      "nb": 4106,
      "istered": 4107,
      "rules": 4108,
      "verify": 4109,
      "raints": 4110,
      "oms": 4111,
      ",'": 4112,
      "www": 4113,
      "Ġcp": 4114,
      "Ġstored": 4115,
      "Ġdefinition": 4116,
      "chronous": 4117,
      "untry": 4118,
      "Ġutil": 4119,
      "Ġoverride": 4120,
      "ĠQu": 4121,
      "Ġmember": 4122,
      "Ġpylint": 4123,
      "Ġuntil": 4124,
      "Ġflat": 4125,
      "beta": 4126,
      "Ed": 4127,
      "Ġpolicy": 4128,
      "Ġcommands": 4129,
      "rm": 4130,
      "Ġrelease": 4131,
      "Window": 4132,
      "single": 4133,
      "Ġpacket": 4134,
      "private": 4135,
      ":])": 4136,
      "oriz": 4137,
      "__(*": 4138,
      "Mode": 4139,
      "Ġchanged": 4140,
      "etwork": 4141,
      "sock": 4142,
      "Ġpkg": 4143,
      "ĠInitial": 4144,
      "digest": 4145,
      "Color": 4146,
      "Ġcoordinates": 4147,
      "Ġnoqa": 4148,
      "pkg": 4149,
      "actor": 4150,
      "ii": 4151,
      "sigma": 4152,
      "'re": 4153,
      "ynamic": 4154,
      "Record": 4155,
      "registry": 4156,
      "END": 4157,
      "Ġsav": 4158,
      "Ġnamed": 4159,
      "Ġmeans": 4160,
      "ops": 4161,
      "condition": 4162,
      "Ġwere": 4163,
      "Default": 4164,
      "Ġcondition": 4165,
      "entries": 4166,
      "Ġcharacter": 4167,
      "36": 4168,
      "gno": 4169,
      "Ġ\"\",": 4170,
      "Ġ$": 4171,
      "andidate": 4172,
      "We": 4173,
      "Ġdat": 4174,
      "95": 4175,
      "Implemented": 4176,
      "astype": 4177,
      "Ġgenerator": 4178,
      "serializer": 4179,
      "ĠTime": 4180,
      "NotFound": 4181,
      "Ġmu": 4182,
      "ral": 4183,
      "ache": 4184,
      "Ġneeds": 4185,
      "Ġleast": 4186,
      "lip": 4187,
      "note": 4188,
      "bove": 4189,
      "abspath": 4190,
      "Ġtensor": 4191,
      "faces": 4192,
      "retry": 4193,
      "tempt": 4194,
      "26": 4195,
      "Ġctypes": 4196,
      "Ġcy": 4197,
      "Ġstandard": 4198,
      "40": 4199,
      "Ġpublic": 4200,
      "compute": 4201,
      "atom": 4202,
      "Could": 4203,
      "cpu": 4204,
      ")/": 4205,
      "mu": 4206,
      "Ġids": 4207,
      "ĠUpdate": 4208,
      "ationError": 4209,
      "ĠMake": 4210,
      "ĠNumber": 4211,
      "IS": 4212,
      "Ġcoe": 4213,
      "scriptor": 4214,
      "upload": 4215,
      "require": 4216,
      "Ġgenerated": 4217,
      ")*": 4218,
      "Ġway": 4219,
      "As": 4220,
      "ili": 4221,
      "blocks": 4222,
      ")).": 4223,
      "firm": 4224,
      "tn": 4225,
      "found": 4226,
      "atches": 4227,
      "exclude": 4228,
      "Ġ')": 4229,
      "driver": 4230,
      "OK": 4231,
      "users": 4232,
      "}:": 4233,
      "Ġmar": 4234,
      "ĠAl": 4235,
      "progress": 4236,
      "Ġcompat": 4237,
      "conv": 4238,
      "CP": 4239,
      ">'": 4240,
      "uff": 4241,
      "Ġmost": 4242,
      "cio": 4243,
      "Mo": 4244,
      "quote": 4245,
      "sources": 4246,
      "Ġaddr": 4247,
      "Ġredirect": 4248,
      "isfile": 4249,
      "environment": 4250,
      "(',": 4251,
      "sumer": 4252,
      "Initial": 4253,
      "operator": 4254,
      "components": 4255,
      "ifest": 4256,
      "flush": 4257,
      "Ġnorm": 4258,
      "Ġfd": 4259,
      "Ġupload": 4260,
      "velo": 4261,
      "Ġfactor": 4262,
      "Ġwx": 4263,
      "shift": 4264,
      "original": 4265,
      "home": 4266,
      "Ġdirection": 4267,
      "Ġsupp": 4268,
      "delay": 4269,
      "generator": 4270,
      "ĠArgument": 4271,
      "Ġprobab": 4272,
      "Ġlookup": 4273,
      "Function": 4274,
      "jor": 4275,
      "fun": 4276,
      "Ġrepr": 4277,
      "Ġspe": 4278,
      "Ġrate": 4279,
      "ORD": 4280,
      "done": 4281,
      "Ġinsert": 4282,
      "band": 4283,
      "Ġcharacters": 4284,
      "iler": 4285,
      "outputs": 4286,
      "available": 4287,
      "ĠNotImplemented": 4288,
      "Be": 4289,
      "ĠExamples": 4290,
      "Ġreset": 4291,
      "Gui": 4292,
      "Ġorigin": 4293,
      "hour": 4294,
      "Ġtermin": 4295,
      "ĠBu": 4296,
      "Ġengine": 4297,
      "HT": 4298,
      "Ġproduct": 4299,
      "Ġbits": 4300,
      "ĠNO": 4301,
      "hidden": 4302,
      "utc": 4303,
      "GS": 4304,
      "sd": 4305,
      "scheme": 4306,
      "ger": 4307,
      "56": 4308,
      "ells": 4309,
      "Exec": 4310,
      "Parse": 4311,
      "Ġput": 4312,
      "assert": 4313,
      "origin": 4314,
      "olved": 4315,
      "plotlib": 4316,
      "Ġupper": 4317,
      "ada": 4318,
      "]*": 4319,
      "spaces": 4320,
      "IF": 4321,
      "Ġredu": 4322,
      "bounds": 4323,
      "grade": 4324,
      "'\"": 4325,
      "Ġfuture": 4326,
      "erature": 4327,
      "ression": 4328,
      "Ġmany": 4329,
      "pto": 4330,
      "DIR": 4331,
      "epoch": 4332,
      "records": 4333,
      "Ġflow": 4334,
      "CA": 4335,
      "This": 4336,
      "ĠIOError": 4337,
      "PRE": 4338,
      "worker": 4339,
      "Ġgot": 4340,
      "oom": 4341,
      ".',": 4342,
      "Ġcenter": 4343,
      "Contro": 4344,
      "LIN": 4345,
      "Ġcredentials": 4346,
      "alance": 4347,
      "urse": 4348,
      "elem": 4349,
      "ibility": 4350,
      "lots": 4351,
      "ĠOther": 4352,
      "Address": 4353,
      "targets": 4354,
      "members": 4355,
      "ategories": 4356,
      "best": 4357,
      "58": 4358,
      "sired": 4359,
      "Ġder": 4360,
      "Ġrepresentation": 4361,
      "Clo": 4362,
      "clus": 4363,
      "Ġinteg": 4364,
      "Ġdetect": 4365,
      "ĠSh": 4366,
      "cursive": 4367,
      "Ġinspect": 4368,
      "ĠApp": 4369,
      "Ġside": 4370,
      "cr": 4371,
      "cel": 4372,
      "Ġimplement": 4373,
      "Load": 4374,
      "rain": 4375,
      "Ġseed": 4376,
      "definition": 4377,
      "Output": 4378,
      "}/": 4379,
      "Change": 4380,
      "ĠDefaults": 4381,
      "ĠDict": 4382,
      "47": 4383,
      "kernel": 4384,
      "icon": 4385,
      "Ġelem": 4386,
      "Ġthreshold": 4387,
      "MM": 4388,
      "matches": 4389,
      "Ġalgorithm": 4390,
      "transaction": 4391,
      "Ġrot": 4392,
      "cessary": 4393,
      "Ġstates": 4394,
      "ga": 4395,
      "gene": 4396,
      ")}": 4397,
      "ĠAs": 4398,
      "Ġclasses": 4399,
      "otype": 4400,
      "ices": 4401,
      "yaml": 4402,
      "Ġns": 4403,
      "servation": 4404,
      "br": 4405,
      "Ġmaster": 4406,
      "Logger": 4407,
      "Ġinternal": 4408,
      "attrib": 4409,
      "yg": 4410,
      ");": 4411,
      "div": 4412,
      "PUT": 4413,
      "Ġdisk": 4414,
      "bins": 4415,
      "']]": 4416,
      "=['": 4417,
      "holder": 4418,
      "AND": 4419,
      "Ġans": 4420,
      "Cannot": 4421,
      "1000": 4422,
      "scan": 4423,
      "Ġrepresenting": 4424,
      "selected": 4425,
      "arge": 4426,
      "Ġcontrol": 4427,
      "mk": 4428,
      "--------------------------------": 4429,
      "Unknown": 4430,
      "Ġsigma": 4431,
      "Ġresources": 4432,
      "Ġcalculate": 4433,
      "ferred": 4434,
      "inate": 4435,
      "ueue": 4436,
      "('_": 4437,
      "concat": 4438,
      "owner": 4439,
      "builder": 4440,
      "lev": 4441,
      "unch": 4442,
      "Doc": 4443,
      "Device": 4444,
      "presen": 4445,
      "rot": 4446,
      "BO": 4447,
      "Ġshell": 4448,
      "SA": 4449,
      "topic": 4450,
      "ber": 4451,
      "Ad": 4452,
      "ulti": 4453,
      "aut": 4454,
      "ively": 4455,
      "ectors": 4456,
      "PAR": 4457,
      "tile": 4458,
      "Ġpadding": 4459,
      "dify": 4460,
      "Ġsummary": 4461,
      "mem": 4462,
      "ĠError": 4463,
      "ttp": 4464,
      "Ġ*,": 4465,
      "prev": 4466,
      "Ġduration": 4467,
      ".\",": 4468,
      "Ġedges": 4469,
      "Ġdump": 4470,
      "Ġ1000": 4471,
      "samp": 4472,
      "=-": 4473,
      "loader": 4474,
      "fc": 4475,
      "precated": 4476,
      "Ġcounter": 4477,
      "(\\": 4478,
      "IM": 4479,
      "Const": 4480,
      "structure": 4481,
      "Ġpairs": 4482,
      "ĠBy": 4483,
      "neighb": 4484,
      "oto": 4485,
      "struction": 4486,
      "ilities": 4487,
      "phi": 4488,
      "Ġcap": 4489,
      "Ġbro": 4490,
      "begin": 4491,
      "ĠBase": 4492,
      ")\\": 4493,
      "Ġusers": 4494,
      "extension": 4495,
      "ORT": 4496,
      "Ġ12": 4497,
      "added": 4498,
      "serve": 4499,
      "Ġminimum": 4500,
      "SIZE": 4501,
      "pg": 4502,
      "strings": 4503,
      "push": 4504,
      "Ġ20": 4505,
      "Ġsamp": 4506,
      "ĠCLI": 4507,
      "exist": 4508,
      "Method": 4509,
      "cocc": 4510,
      "COL": 4511,
      "Ġbegin": 4512,
      ">`": 4513,
      "Ġwords": 4514,
      "ouble": 4515,
      "Ġdecorator": 4516,
      "coccus": 4517,
      "ilar": 4518,
      "Ġencoded": 4519,
      "Hel": 4520,
      "Ġactions": 4521,
      "dimension": 4522,
      "')[": 4523,
      "distri": 4524,
      "correct": 4525,
      "lineno": 4526,
      "Ġmonth": 4527,
      "asset": 4528,
      "Ġlibrary": 4529,
      "Warning": 4530,
      "Ġau": 4531,
      "async": 4532,
      "Ġsuccessful": 4533,
      "86": 4534,
      "Ġ#:": 4535,
      "zy": 4536,
      "Sc": 4537,
      "Ġio": 4538,
      "Act": 4539,
      "plan": 4540,
      "td": 4541,
      "Def": 4542,
      "striction": 4543,
      "Ġspa": 4544,
      "System": 4545,
      "_)": 4546,
      "ĠImport": 4547,
      "Ġgene": 4548,
      "diag": 4549,
      "Ġworker": 4550,
      "sity": 4551,
      "On": 4552,
      "FIG": 4553,
      "Ġ':": 4554,
      "ĠRead": 4555,
      "_%": 4556,
      "lank": 4557,
      "ĠOnly": 4558,
      "Params": 4559,
      "iso": 4560,
      "ssh": 4561,
      "Link": 4562,
      "gnored": 4563,
      "Ġrepository": 4564,
      "Ġdirectly": 4565,
      "Cal": 4566,
      "handlers": 4567,
      "free": 4568,
      "21": 4569,
      "ridge": 4570,
      "transport": 4571,
      "epcopy": 4572,
      "Su": 4573,
      "ĠCommand": 4574,
      "(?": 4575,
      "mediate": 4576,
      "limiter": 4577,
      "Ġpid": 4578,
      "Ġrelation": 4579,
      "usage": 4580,
      "Ġhy": 4581,
      "Ġlayout": 4582,
      "Ġtoo": 4583,
      "initions": 4584,
      "Ġvariant": 4585,
      "parsed": 4586,
      "unknown": 4587,
      "Ġgit": 4588,
      "variant": 4589,
      "06": 4590,
      "inner": 4591,
      "Ġaccept": 4592,
      ")',": 4593,
      "lis": 4594,
      "ava": 4595,
      "urls": 4596,
      "esca": 4597,
      "ogram": 4598,
      "]])": 4599,
      "iddle": 4600,
      "packet": 4601,
      "Up": 4602,
      "refresh": 4603,
      "Ġvisit": 4604,
      "orld": 4605,
      "rence": 4606,
      "operational": 4607,
      "ription": 4608,
      "Ġcomponents": 4609,
      "Ġbar": 4610,
      "price": 4611,
      "Ġvm": 4612,
      "Ġnumbers": 4613,
      "Page": 4614,
      "cum": 4615,
      "peat": 4616,
      "selection": 4617,
      "Ġlists": 4618,
      "hood": 4619,
      "ied": 4620,
      "Ġabove": 4621,
      "Ġpers": 4622,
      "uplicate": 4623,
      "dep": 4624,
      "INFO": 4625,
      "Dir": 4626,
      "identity": 4627,
      "Ġdrop": 4628,
      "Sign": 4629,
      "divid": 4630,
      "attach": 4631,
      "XX": 4632,
      "ront": 4633,
      "Pa": 4634,
      "Task": 4635,
      "ĠFI": 4636,
      "security": 4637,
      "Ġsimple": 4638,
      "59": 4639,
      "Ġinstalled": 4640,
      "Ġdimensions": 4641,
      "scape": 4642,
      "Ġmove": 4643,
      "Row": 4644,
      "(\"-": 4645,
      "Ġanalysis": 4646,
      "Ġ''.": 4647,
      "diction": 4648,
      "reverse": 4649,
      "Ġuses": 4650,
      "stricted": 4651,
      "wrapper": 4652,
      "Parameter": 4653,
      "chedul": 4654,
      "packages": 4655,
      "Max": 4656,
      "enable": 4657,
      "Ġplatform": 4658,
      "Ġcsv": 4659,
      "allel": 4660,
      "HO": 4661,
      "ium": 4662,
      "ĠBo": 4663,
      "ifact": 4664,
      "ckets": 4665,
      "reason": 4666,
      "Ġcollect": 4667,
      "Ġoutputs": 4668,
      "Ref": 4669,
      "Spec": 4670,
      "dx": 4671,
      "Ġetc": 4672,
      "Ġmetrics": 4673,
      "Ġarr": 4674,
      "ĠDataFrame": 4675,
      "89": 4676,
      "echo": 4677,
      "Ġreply": 4678,
      "otential": 4679,
      "crypted": 4680,
      "separ": 4681,
      "deg": 4682,
      "Ġ?": 4683,
      "dp": 4684,
      "Ġanother": 4685,
      "Ġrequires": 4686,
      "ends": 4687,
      "{}\".": 4688,
      "Ġvalidation": 4689,
      "Fla": 4690,
      "Ġfiltered": 4691,
      "oo": 4692,
      "DEBUG": 4693,
      "Ġmanager": 4694,
      "allback": 4695,
      "frames": 4696,
      "Ġissue": 4697,
      "atype": 4698,
      "Ġzone": 4699,
      "ĠOrderedDict": 4700,
      "Ġpartic": 4701,
      "Ġautomatic": 4702,
      "Core": 4703,
      "ragma": 4704,
      "OUT": 4705,
      "requests": 4706,
      "internal": 4707,
      "Ġcached": 4708,
      "isdir": 4709,
      "Ġfalse": 4710,
      "tainer": 4711,
      "alg": 4712,
      "Ġagent": 4713,
      "Ġtab": 4714,
      "feed": 4715,
      "quare": 4716,
      "prob": 4717,
      "ĠExt": 4718,
      "Ġlogin": 4719,
      "crement": 4720,
      "ĠSy": 4721,
      "Ġndarray": 4722,
      "Ġpl": 4723,
      "aa": 4724,
      "Work": 4725,
      "opy": 4726,
      "ipv": 4727,
      "Ġusage": 4728,
      "failed": 4729,
      "boot": 4730,
      "rev": 4731,
      "resolve": 4732,
      "disk": 4733,
      "Ġcolors": 4734,
      "ROM": 4735,
      "Ġavoid": 4736,
      "acity": 4737,
      "_(": 4738,
      "ĠWhether": 4739,
      "Ġexpi": 4740,
      "ropy": 4741,
      "reply": 4742,
      "cn": 4743,
      "OS": 4744,
      "Ġenable": 4745,
      "Ġproto": 4746,
      "NE": 4747,
      "Obj": 4748,
      "Ġlet": 4749,
      "(\"--": 4750,
      "era": 4751,
      "Series": 4752,
      "Ġdid": 4753,
      "sens": 4754,
      "Ġche": 4755,
      "connected": 4756,
      "Ġthose": 4757,
      "Ġreader": 4758,
      "shell": 4759,
      "suppress": 4760,
      "PY": 4761,
      "iases": 4762,
      "Ġarrays": 4763,
      "Ġatom": 4764,
      "DATA": 4765,
      "credentials": 4766,
      "Ġexpect": 4767,
      "expi": 4768,
      "ender": 4769,
      "Ġglyphs": 4770,
      "Ġfeed": 4771,
      "emon": 4772,
      "Length": 4773,
      "Ġcalling": 4774,
      "Pri": 4775,
      "OF": 4776,
      "ĠRemove": 4777,
      "79": 4778,
      "mesh": 4779,
      "Ġduring": 4780,
      "Ġenabled": 4781,
      "usters": 4782,
      "Ġstrip": 4783,
      "'](": 4784,
      "sin": 4785,
      "antity": 4786,
      "lang": 4787,
      "cording": 4788,
      ",))": 4789,
      "Ġpartition": 4790,
      "Ġtool": 4791,
      "stract": 4792,
      "Ġtor": 4793,
      "arange": 4794,
      "Ġstarting": 4795,
      "VERSION": 4796,
      "Ġinner": 4797,
      "png": 4798,
      "Ġvert": 4799,
      "dicate": 4800,
      "Ġhex": 4801,
      "choice": 4802,
      "optim": 4803,
      "Entry": 4804,
      "Ġclear": 4805,
      "men": 4806,
      "ratio": 4807,
      "sw": 4808,
      "orary": 4809,
      "Rec": 4810,
      "uses": 4811,
      "allowed": 4812,
      "Meta": 4813,
      "Ġtasks": 4814,
      "PA": 4815,
      "Sp": 4816,
      "rowser": 4817,
      "ĠPo": 4818,
      "inc": 4819,
      "Ġloaded": 4820,
      "Ġmd": 4821,
      "ifiers": 4822,
      "Unable": 4823,
      "ality": 4824,
      "Store": 4825,
      "variance": 4826,
      "ĠRequest": 4827,
      "Ġprovider": 4828,
      "Ġasset": 4829,
      "rong": 4830,
      "cwd": 4831,
      "ongo": 4832,
      "media": 4833,
      "tic": 4834,
      "Range": 4835,
      "Ġrestriction": 4836,
      "+'": 4837,
      "sess": 4838,
      "Ġ[[": 4839,
      "Ġnecessary": 4840,
      "Ġangle": 4841,
      "ĠLE": 4842,
      "Ġspecial": 4843,
      "orizont": 4844,
      "Ġrank": 4845,
      "Ġcurrently": 4846,
      "cover": 4847,
      "ĠUni": 4848,
      "processing": 4849,
      "MAX": 4850,
      "redirect": 4851,
      "pdf": 4852,
      "Ġoprot": 4853,
      "Ġcollections": 4854,
      "Ġds": 4855,
      "direction": 4856,
      "related": 4857,
      "parsers": 4858,
      "big": 4859,
      "rstrip": 4860,
      "sheet": 4861,
      "ï¼": 4862,
      "mass": 4863,
      "Ġeffect": 4864,
      "priority": 4865,
      "Ġtargets": 4866,
      "ural": 4867,
      "MENT": 4868,
      "URE": 4869,
      "Ġwin": 4870,
      "radius": 4871,
      "ĠPre": 4872,
      "()),": 4873,
      "Ġ\"\")": 4874,
      "visit": 4875,
      "ĠHe": 4876,
      "Ġignored": 4877,
      "updated": 4878,
      "ough": 4879,
      "creen": 4880,
      "['_": 4881,
      "Ġsafe": 4882,
      "ĠAll": 4883,
      "ĠOSError": 4884,
      "Ġdetermine": 4885,
      "Serial": 4886,
      "slug": 4887,
      "cached": 4888,
      "cipy": 4889,
      "ĠParse": 4890,
      "embed": 4891,
      "partial": 4892,
      "cogn": 4893,
      "ram": 4894,
      "Ġcalls": 4895,
      "ptr": 4896,
      "vl": 4897,
      ".\\": 4898,
      "Ġround": 4899,
      "Ġpercent": 4900,
      "ĠYou": 4901,
      "Ġhparams": 4902,
      "Ġtraining": 4903,
      "ond": 4904,
      "Ġcla": 4905,
      "Ġdev": 4906,
      "cod": 4907,
      "emit": 4908,
      "Ġyet": 4909,
      "Ġprogram": 4910,
      "align": 4911,
      "argin": 4912,
      "Ġyaml": 4913,
      "theta": 4914,
      "Ġsecret": 4915,
      "Ġbutton": 4916,
      "Ġreceived": 4917,
      "ube": 4918,
      "foo": 4919,
      "Ġdeleted": 4920,
      ")(": 4921,
      "Ġps": 4922,
      "Ġwriter": 4923,
      "ftime": 4924,
      "tl": 4925,
      "Ġnormalize": 4926,
      "ĠXML": 4927,
      "ĠIndexError": 4928,
      "tables": 4929,
      "Ġprodu": 4930,
      "pick": 4931,
      "(':": 4932,
      "integer": 4933,
      "(%": 4934,
      "pture": 4935,
      "fficient": 4936,
      "Ġbelow": 4937,
      "canvas": 4938,
      "Ġfrequency": 4939,
      "Ġasyncio": 4940,
      "uous": 4941,
      "controller": 4942,
      "\\'": 4943,
      "Ġrules": 4944,
      "ĠDis": 4945,
      "XT": 4946,
      "orter": 4947,
      "Ġattach": 4948,
      "Ġmarker": 4949,
      "Ġpandas": 4950,
      "lict": 4951,
      "Ġcover": 4952,
      "instances": 4953,
      "super": 4954,
      "Ġmac": 4955,
      "Ġcut": 4956,
      "px": 4957,
      "Ġstatement": 4958,
      "Ġmight": 4959,
      "orizontal": 4960,
      "Ġdesired": 4961,
      "Ġmeasure": 4962,
      "EM": 4963,
      "Ġphase": 4964,
      "false": 4965,
      "catalog": 4966,
      "aff": 4967,
      "tack": 4968,
      "Ġrv": 4969,
      "ARN": 4970,
      "escape": 4971,
      "power": 4972,
      "Ġsources": 4973,
      "Ġlow": 4974,
      "Job": 4975,
      "strument": 4976,
      "PS": 4977,
      "gz": 4978,
      "Ġ\"<": 4979,
      "aw": 4980,
      "Ġradius": 4981,
      "sect": 4982,
      "translate": 4983,
      "ĠNode": 4984,
      "Test": 4985,
      "perand": 4986,
      "export": 4987,
      "sem": 4988,
      "CAL": 4989,
      "pipeline": 4990,
      "chor": 4991,
      ".%": 4992,
      "Ġcb": 4993,
      "Ġneighb": 4994,
      "LL": 4995,
      "Ġ'*'": 4996,
      "Ġtopic": 4997,
      "lid": 4998,
      "ĠNotImplementedError": 4999,
      "closed": 5000,
      "Thread": 5001,
      "!!": 5002,
      "ĠOtherwise": 5003,
      "versions": 5004,
      "functions": 5005,
      "Ġtile": 5006,
      "Ġnb": 5007,
      "57": 5008,
      "Ġlon": 5009,
      "anis": 5010,
      "tage": 5011,
      "SIG": 5012,
      "mer": 5013,
      "FT": 5014,
      "DU": 5015,
      "PER": 5016,
      "utation": 5017,
      "modified": 5018,
      "000000": 5019,
      "construct": 5020,
      "ĠAt": 5021,
      "seek": 5022,
      "Ġ).": 5023,
      "Ġprovide": 5024,
      "reat": 5025,
      "alth": 5026,
      "Ġexport": 5027,
      "override": 5028,
      "FORM": 5029,
      "comb": 5030,
      "Part": 5031,
      "Ġleg": 5032,
      "utdown": 5033,
      "Ġexecution": 5034,
      "90": 5035,
      "Ġpipeline": 5036,
      "Ġproc": 5037,
      "Ġprimary": 5038,
      "Ġhook": 5039,
      "('{": 5040,
      "Ġts": 5041,
      "dividual": 5042,
      "Ġwell": 5043,
      "Widgets": 5044,
      "Ġregistry": 5045,
      ".'.": 5046,
      "wb": 5047,
      "pal": 5048,
      "']),": 5049,
      "ĠHand": 5050,
      "forward": 5051,
      "fid": 5052,
      "Ġlate": 5053,
      "Ġ],": 5054,
      "Ġpragma": 5055,
      "\"'": 5056,
      "ndim": 5057,
      "bus": 5058,
      "Ġarchive": 5059,
      "ĠFind": 5060,
      "Ġorg": 5061,
      "ĠSpeci": 5062,
      "Ġcols": 5063,
      "Ġbounds": 5064,
      "iterable": 5065,
      "ĠConvert": 5066,
      "Ġsteps": 5067,
      "')]": 5068,
      "Ġfilepath": 5069,
      "CONFIG": 5070,
      "screen": 5071,
      "Tran": 5072,
      "stit": 5073,
      "Ġsecurity": 5074,
      "Ġ])": 5075,
      "refs": 5076,
      "Ġ60": 5077,
      "ks": 5078,
      "Ġonce": 5079,
      "clip": 5080,
      "]],": 5081,
      "All": 5082,
      "assign": 5083,
      "derer": 5084,
      "equal": 5085,
      "LECT": 5086,
      "PIPE": 5087,
      "PL": 5088,
      "Ġtyp": 5089,
      "ĠLOGGER": 5090,
      "tw": 5091,
      "family": 5092,
      "><": 5093,
      "ĠLog": 5094,
      "Ġexplicit": 5095,
      "etrie": 5096,
      "Ġdec": 5097,
      "Ġchoices": 5098,
      "bosity": 5099,
      "Ġactiv": 5100,
      "Can": 5101,
      "mooth": 5102,
      "Ġdot": 5103,
      "havi": 5104,
      "Ġarea": 5105,
      "eries": 5106,
      "ACE": 5107,
      "Ġfailure": 5108,
      "Ġargparse": 5109,
      "dn": 5110,
      "Ġscan": 5111,
      "Min": 5112,
      "keyword": 5113,
      "TC": 5114,
      "Ġembed": 5115,
      "frac": 5116,
      "lier": 5117,
      "choices": 5118,
      "Ġtraceback": 5119,
      "çļ": 5120,
      "TED": 5121,
      "Ġknown": 5122,
      "dian": 5123,
      "pairs": 5124,
      "unset": 5125,
      "ĠResponse": 5126,
      "Variable": 5127,
      "Ġmodified": 5128,
      "auss": 5129,
      "Ġcurr": 5130,
      "glob": 5131,
      "Ġsnapshot": 5132,
      "stmt": 5133,
      "predict": 5134,
      "cryption": 5135,
      "Ġmetavar": 5136,
      "çļĦ": 5137,
      "pending": 5138,
      "pred": 5139,
      "strftime": 5140,
      "publish": 5141,
      "hosts": 5142,
      "åı": 5143,
      "compat": 5144,
      "Ġhostname": 5145,
      "Ġexact": 5146,
      "Ġaccording": 5147,
      "break": 5148,
      "ba": 5149,
      "Ġrelated": 5150,
      "/'": 5151,
      "cred": 5152,
      "Ġ~": 5153,
      "31": 5154,
      "Ġbackground": 5155,
      "=\"\",": 5156,
      "zen": 5157,
      "cost": 5158,
      "ategy": 5159,
      "Ġincluded": 5160,
      "MB": 5161,
      "Ġcir": 5162,
      "78": 5163,
      "ITH": 5164,
      "Ġpartial": 5165,
      "Ġaggreg": 5166,
      "Ġsaved": 5167,
      "Ġknow": 5168,
      "Ġpackages": 5169,
      "aggreg": 5170,
      "vol": 5171,
      "Ġpredict": 5172,
      "Ġremaining": 5173,
      "....": 5174,
      "ĠObject": 5175,
      "501": 5176,
      "normalize": 5177,
      "Ġshutil": 5178,
      "Ġresolve": 5179,
      "[:]": 5180,
      "atter": 5181,
      "Ġ32": 5182,
      "Protocol": 5183,
      "Ġmodules": 5184,
      "cipi": 5185,
      "library": 5186,
      "CTION": 5187,
      "][\"": 5188,
      "riteria": 5189,
      "ONE": 5190,
      "Ġhapp": 5191,
      "Ġoverwrite": 5192,
      "unic": 5193,
      "olders": 5194,
      "WN": 5195,
      "Open": 5196,
      "em": 5197,
      "Ġsep": 5198,
      "Rule": 5199,
      "subprocess": 5200,
      "ĠImage": 5201,
      "Ġtick": 5202,
      "Ġcounts": 5203,
      "Ġretrieve": 5204,
      "estim": 5205,
      "Ġwrapped": 5206,
      "Int": 5207,
      "snapshot": 5208,
      "notification": 5209,
      "CRE": 5210,
      "Ġhour": 5211,
      "âĶ": 5212,
      "wx": 5213,
      "Ġbl": 5214,
      "Ġnested": 5215,
      "255": 5216,
      "Ġfixed": 5217,
      "Ġsec": 5218,
      ")\",": 5219,
      "Ġversions": 5220,
      "prepare": 5221,
      "Ġbasestring": 5222,
      "schedule": 5223,
      ">\\": 5224,
      "Ġacce": 5225,
      "destination": 5226,
      "signed": 5227,
      "Optional": 5228,
      "('.')": 5229,
      "collect": 5230,
      "anti": 5231,
      "Ġord": 5232,
      "Tensor": 5233,
      "andidates": 5234,
      "Ġ[{": 5235,
      "Ġ15": 5236,
      "Ġautomatically": 5237,
      "ips": 5238,
      "Ġepoch": 5239,
      "Ġmesh": 5240,
      "Ġcho": 5241,
      "Ġscheme": 5242,
      "upported": 5243,
      "cheduler": 5244,
      "mq": 5245,
      "marker": 5246,
      "Ġiprot": 5247,
      "Ph": 5248,
      "gl": 5249,
      "ĠSub": 5250,
      "Ġinside": 5251,
      "primary": 5252,
      "Ġfigure": 5253,
      "future": 5254,
      "lies": 5255,
      "Ġsets": 5256,
      "prompt": 5257,
      "detail": 5258,
      "Num": 5259,
      "plugins": 5260,
      "ado": 5261,
      "game": 5262,
      "voke": 5263,
      "peer": 5264,
      "ĠQtGui": 5265,
      ")+": 5266,
      "Ġep": 5267,
      "Ġpower": 5268,
      "Ġrc": 5269,
      "Ġlater": 5270,
      "simple": 5271,
      "priate": 5272,
      "ĠMA": 5273,
      "Ġselection": 5274,
      "lihood": 5275,
      "Search": 5276,
      "reduce": 5277,
      "Ġformatted": 5278,
      "recv": 5279,
      "Ġproblem": 5280,
      "Ġsock": 5281,
      "gr": 5282,
      "dapter": 5283,
      "threads": 5284,
      "flatten": 5285,
      "car": 5286,
      "repository": 5287,
      "mitted": 5288,
      "ULL": 5289,
      "istic": 5290,
      "Ġabsolute": 5291,
      "`:": 5292,
      "Ġprec": 5293,
      "tention": 5294,
      "Ġblocks": 5295,
      "olds": 5296,
      "TA": 5297,
      "Ġve": 5298,
      "uess": 5299,
      "wn": 5300,
      "Header": 5301,
      "clar": 5302,
      "Ġstill": 5303,
      "Ġchannels": 5304,
      "ierarch": 5305,
      "Ġeven": 5306,
      "ĠArguments": 5307,
      "Ġbash": 5308,
      "question": 5309,
      "props": 5310,
      "pars": 5311,
      "accept": 5312,
      "indexes": 5313,
      "ĠOpen": 5314,
      "measure": 5315,
      "Ġfs": 5316,
      "adcast": 5317,
      "Ġedit": 5318,
      "Ġdriver": 5319,
      "ĠTrans": 5320,
      "external": 5321,
      "Ġev": 5322,
      "spl": 5323,
      "Ġgl": 5324,
      "Ġbuilder": 5325,
      "Ġraised": 5326,
      "Ġchecks": 5327,
      "ĠMessage": 5328,
      "Ġmembers": 5329,
      "Ġsupplied": 5330,
      "rupt": 5331,
      "MAP": 5332,
      "quiet": 5333,
      "Ġnull": 5334,
      "Ġstatic": 5335,
      "('<": 5336,
      "ric": 5337,
      "ĠImportError": 5338,
      "Ġbeta": 5339,
      "CODE": 5340,
      "Ġconverted": 5341,
      "ĠBuild": 5342,
      "Ġsmall": 5343,
      "calc": 5344,
      "Ġassign": 5345,
      "Ġut": 5346,
      "Ġmachine": 5347,
      "quival": 5348,
      "Ġdelay": 5349,
      "Ġcore": 5350,
      "terms": 5351,
      "CI": 5352,
      "dependencies": 5353,
      "isinstance": 5354,
      "54": 5355,
      "allet": 5356,
      "Ġnotification": 5357,
      "Back": 5358,
      "Ġplan": 5359,
      "cluding": 5360,
      ">\"": 5361,
      "Python": 5362,
      "Ġuuid": 5363,
      "Ġenviron": 5364,
      "compress": 5365,
      "Ġagainst": 5366,
      "sender": 5367,
      "versed": 5368,
      "Ġwarning": 5369,
      "frequency": 5370,
      "Ġpresen": 5371,
      "Ġtuples": 5372,
      "SM": 5373,
      "Port": 5374,
      "(\"/": 5375,
      "Formatter": 5376,
      "Ġ\"'": 5377,
      "supported": 5378,
      "editor": 5379,
      "Ġappropriate": 5380,
      "ĠId": 5381,
      "soft": 5382,
      "gent": 5383,
      "Ġfreq": 5384,
      "Ġanaly": 5385,
      "Ġalt": 5386,
      "Ġless": 5387,
      "ĠLoad": 5388,
      "Ġowner": 5389,
      "ordered": 5390,
      "Ġgre": 5391,
      "lst": 5392,
      "Ġforward": 5393,
      "Ġpositive": 5394,
      "kip": 5395,
      "70": 5396,
      "distribution": 5397,
      "strap": 5398,
      "clusive": 5399,
      "docker": 5400,
      "phase": 5401,
      "monitor": 5402,
      "Ġregistered": 5403,
      "FIX": 5404,
      "disable": 5405,
      "Ġstage": 5406,
      "pages": 5407,
      "ĠReg": 5408,
      "yment": 5409,
      "Ġinterpol": 5410,
      "Off": 5411,
      "Ġadmin": 5412,
      "Network": 5413,
      "USER": 5414,
      "ĠCan": 5415,
      "week": 5416,
      "django": 5417,
      "Ġcent": 5418,
      "router": 5419,
      "iver": 5420,
      "vc": 5421,
      "Ġvals": 5422,
      "pn": 5423,
      "timer": 5424,
      "Ġdescri": 5425,
      "asis": 5426,
      "Ġvide": 5427,
      "Ġprocessed": 5428,
      "video": 5429,
      "etadata": 5430,
      "dc": 5431,
      "getitem": 5432,
      "logical": 5433,
      "currency": 5434,
      "amera": 5435,
      "Order": 5436,
      "Ġ'{}'": 5437,
      "constants": 5438,
      "ĠIter": 5439,
      "lapsed": 5440,
      "Ġsimp": 5441,
      "Ġoutfile": 5442,
      "With": 5443,
      "Ġexperiment": 5444,
      "TS": 5445,
      "Ġregular": 5446,
      "aris": 5447,
      "Msg": 5448,
      "Ġpg": 5449,
      "css": 5450,
      "Property": 5451,
      "Restricted": 5452,
      "JSON": 5453,
      "linear": 5454,
      "tep": 5455,
      "grad": 5456,
      "Ġssl": 5457,
      "Ne": 5458,
      "blob": 5459,
      "sage": 5460,
      "HER": 5461,
      "rant": 5462,
      "rase": 5463,
      "Target": 5464,
      "ula": 5465,
      "Ġms": 5466,
      "stage": 5467,
      "NG": 5468,
      "lists": 5469,
      "ĠSo": 5470,
      "UID": 5471,
      "ench": 5472,
      "Ġloss": 5473,
      "analy": 5474,
      "MD": 5475,
      "Ġdx": 5476,
      "LS": 5477,
      "Parameters": 5478,
      "Ġescape": 5479,
      "Ġown": 5480,
      "zz": 5481,
      "Ġbig": 5482,
      "Ġqueryset": 5483,
      "grees": 5484,
      "Ġpatch": 5485,
      "CF": 5486,
      "anner": 5487,
      ")-": 5488,
      "Module": 5489,
      "ĠTra": 5490,
      "Ġ*=": 5491,
      "Select": 5492,
      "double": 5493,
      "walk": 5494,
      "98": 5495,
      "Ġvirtual": 5496,
      "ony": 5497,
      "Ġscalar": 5498,
      "Ġworking": 5499,
      "latest": 5500,
      "Ġlinks": 5501,
      "Ġcontroll": 5502,
      "otes": 5503,
      "visible": 5504,
      "[(": 5505,
      "tle": 5506,
      "Ġalong": 5507,
      "pus": 5508,
      "geo": 5509,
      "aws": 5510,
      "virtual": 5511,
      "park": 5512,
      "Ġconnected": 5513,
      "Build": 5514,
      "disc": 5515,
      "Ġdig": 5516,
      "lso": 5517,
      "many": 5518,
      "bottom": 5519,
      "Ġinitialize": 5520,
      ".\".": 5521,
      "~~": 5522,
      "Ġmatched": 5523,
      "Bin": 5524,
      "Ġnone": 5525,
      "Ġwritten": 5526,
      "selector": 5527,
      "You": 5528,
      "Ġproper": 5529,
      "Ġmedia": 5530,
      "}},": 5531,
      "getLogger": 5532,
      "Ġinv": 5533,
      "ĠInput": 5534,
      "Ġfh": 5535,
      "ĠBe": 5536,
      "Ġstrict": 5537,
      "MI": 5538,
      "Ġeval": 5539,
      "cid": 5540,
      "RC": 5541,
      "bias": 5542,
      "Ġsw": 5543,
      "Down": 5544,
      "Option": 5545,
      "Ġtb": 5546,
      "HEAD": 5547,
      "ja": 5548,
      "Wrap": 5549,
      "([\"": 5550,
      "Ġ\")": 5551,
      "Access": 5552,
      "vlan": 5553,
      "ĠStop": 5554,
      "findall": 5555,
      "Ġfore": 5556,
      "ClassType": 5557,
      "Ġprocessing": 5558,
      "{})": 5559,
      "alf": 5560,
      "ability": 5561,
      "Queue": 5562,
      "tod": 5563,
      "Ġquote": 5564,
      "binding": 5565,
      "ritical": 5566,
      "sto": 5567,
      "Ġimplemented": 5568,
      "ctype": 5569,
      "Ġcoords": 5570,
      "Ġseen": 5571,
      "Ġdetermin": 5572,
      "Ġmodifi": 5573,
      "Ġfun": 5574,
      "machine": 5575,
      "eps": 5576,
      "AF": 5577,
      "If": 5578,
      "ĠForm": 5579,
      "Is": 5580,
      "Rece": 5581,
      "Ġrepresen": 5582,
      "iling": 5583,
      "tar": 5584,
      "relative": 5585,
      "fixed": 5586,
      ">>": 5587,
      "previous": 5588,
      "dispatch": 5589,
      "makedirs": 5590,
      "padding": 5591,
      "roy": 5592,
      "evalu": 5593,
      "pointer": 5594,
      "Child": 5595,
      "roid": 5596,
      "Ġglob": 5597,
      "Ġchunks": 5598,
      "bi": 5599,
      "analysis": 5600,
      "Ġapplied": 5601,
      "Ġdependencies": 5602,
      "Ġsequences": 5603,
      "Ġparsing": 5604,
      "Ġdeploy": 5605,
      "most": 5606,
      "addWidget": 5607,
      "Options": 5608,
      "\"][": 5609,
      "workflow": 5610,
      "Ġbad": 5611,
      "Ġhistory": 5612,
      "42": 5613,
      "osid": 5614,
      "Values": 5615,
      "Ali": 5616,
      "hing": 5617,
      "chars": 5618,
      "mas": 5619,
      "Ġunknown": 5620,
      "Width": 5621,
      "Ġexternal": 5622,
      "MODE": 5623,
      "tyle": 5624,
      "Reference": 5625,
      "figure": 5626,
      "Ġpositions": 5627,
      "MIN": 5628,
      "Ġta": 5629,
      "ummy": 5630,
      "FIEL": 5631,
      "ĠCO": 5632,
      "extensions": 5633,
      "Ġaverage": 5634,
      "ĠOut": 5635,
      "Struct": 5636,
      "tempts": 5637,
      "basic": 5638,
      "Ġtables": 5639,
      "Ġsync": 5640,
      "CESS": 5641,
      "ĠST": 5642,
      "Sequence": 5643,
      "Ġ::": 5644,
      "Ġcost": 5645,
      "flux": 5646,
      "]).": 5647,
      "Ġnegative": 5648,
      "RestrictedClassType": 5649,
      "ffff": 5650,
      "Ġidentity": 5651,
      "Bind": 5652,
      "pd": 5653,
      "pm": 5654,
      "tol": 5655,
      "Ġ[-": 5656,
      "TTER": 5657,
      "ygon": 5658,
      "GB": 5659,
      "named": 5660,
      "Ġsolution": 5661,
      "ĠDEFAULT": 5662,
      "Operation": 5663,
      "ĠModel": 5664,
      "Ġpriority": 5665,
      "Layer": 5666,
      "IST": 5667,
      "ette": 5668,
      "tb": 5669,
      "cov": 5670,
      "Ġdefine": 5671,
      "\"%": 5672,
      "Ġchoice": 5673,
      "switch": 5674,
      "onical": 5675,
      "trip": 5676,
      "herit": 5677,
      "lished": 5678,
      "uman": 5679,
      "Application": 5680,
      "oring": 5681,
      "Names": 5682,
      "Ġpixel": 5683,
      "sections": 5684,
      "Ġtakes": 5685,
      "Uni": 5686,
      "Ġ'#": 5687,
      "46": 5688,
      "bad": 5689,
      "Ġlayers": 5690,
      "Ġiterator": 5691,
      "ĠText": 5692,
      "Ġalign": 5693,
      "maps": 5694,
      "Types": 5695,
      "Ġurllib": 5696,
      "spose": 5697,
      "Ġxrange": 5698,
      "Ġiteration": 5699,
      "ims": 5700,
      "conver": 5701,
      "cancel": 5702,
      "Ġbins": 5703,
      "EXT": 5704,
      "Ġmenu": 5705,
      "Ġpretty": 5706,
      "ysical": 5707,
      "DA": 5708,
      "Ġmx": 5709,
      "comments": 5710,
      "stdin": 5711,
      "ĠField": 5712,
      "Ġbuilt": 5713,
      "Ġband": 5714,
      "INTER": 5715,
      "bg": 5716,
      "Ġarch": 5717,
      "Ġprior": 5718,
      "processor": 5719,
      "PTION": 5720,
      "Ġpan": 5721,
      "ĠInitialize": 5722,
      "Ġcertificate": 5723,
      "Write": 5724,
      "itext": 5725,
      "algorithm": 5726,
      "Ġeps": 5727,
      "seg": 5728,
      "Ġsender": 5729,
      "TypeError": 5730,
      "Ġbases": 5731,
      "Pool": 5732,
      "Ġlang": 5733,
      "cookie": 5734,
      "Ġ'/'": 5735,
      "semb": 5736,
      "Ġscreen": 5737,
      "rgb": 5738,
      "Ġtar": 5739,
      "ĠClient": 5740,
      "need": 5741,
      "magic": 5742,
      ")')": 5743,
      "Control": 5744,
      "Ġclosed": 5745,
      "\">": 5746,
      "pology": 5747,
      "ĠHttp": 5748,
      "deepcopy": 5749,
      "Ġoperations": 5750,
      "asarray": 5751,
      "DATE": 5752,
      "tein": 5753,
      "ĠAlso": 5754,
      "ev": 5755,
      "lc": 5756,
      "Location": 5757,
      "Ġ255": 5758,
      "major": 5759,
      "YANG": 5760,
      "Ġrefresh": 5761,
      "statement": 5762,
      "Cache": 5763,
      "Ġtransport": 5764,
      "pout": 5765,
      "logs": 5766,
      "ART": 5767,
      "istration": 5768,
      "ij": 5769,
      "rad": 5770,
      "sli": 5771,
      "onal": 5772,
      "Connect": 5773,
      "Ġobs": 5774,
      "Ġimplementation": 5775,
      "Ġswitch": 5776,
      "Ġrect": 5777,
      "ĠNe": 5778,
      "anded": 5779,
      "Ġspecification": 5780,
      "*.": 5781,
      "scores": 5782,
      "xim": 5783,
      "Ġconv": 5784,
      "sizes": 5785,
      "AUT": 5786,
      "(('": 5787,
      "itespace": 5788,
      "configs": 5789,
      "Ġlatest": 5790,
      "Ġblob": 5791,
      "ixed": 5792,
      "Ġmime": 5793,
      "validation": 5794,
      "ĠWindow": 5795,
      "Ġhelper": 5796,
      "see": 5797,
      "Ġdeprecated": 5798,
      "Ġ'':": 5799,
      "Ġdue": 5800,
      "Ġmatplotlib": 5801,
      "Ġshared": 5802,
      "boolean": 5803,
      "Ġturn": 5804,
      "ulk": 5805,
      "limits": 5806,
      "CL": 5807,
      "ilent": 5808,
      "formatter": 5809,
      "'{": 5810,
      "Ġlineno": 5811,
      "atrix": 5812,
      "Ġtz": 5813,
      "manage": 5814,
      "den": 5815,
      "callpoint": 5816,
      "forms": 5817,
      "wik": 5818,
      "Ġcast": 5819,
      "mes": 5820,
      "Ġauthentication": 5821,
      "devices": 5822,
      "Description": 5823,
      "program": 5824,
      "('{}": 5825,
      "Ġcases": 5826,
      "sistent": 5827,
      "ptime": 5828,
      "Api": 5829,
      "Ġ30": 5830,
      "inder": 5831,
      "Container": 5832,
      "issue": 5833,
      "sr": 5834,
      "Ġ-----": 5835,
      "Ġpickle": 5836,
      "wards": 5837,
      "Ġpresence": 5838,
      ")**": 5839,
      "Ġunpack": 5840,
      "fasta": 5841,
      "Document": 5842,
      "ARNING": 5843,
      "Ġ:]": 5844,
      "Auto": 5845,
      "backup": 5846,
      "Ġuid": 5847,
      "QUE": 5848,
      "city": 5849,
      "Ġnargs": 5850,
      "Ġworkflow": 5851,
      "Ver": 5852,
      "Ġsomething": 5853,
      "dictions": 5854,
      "ĠAc": 5855,
      "ĠHT": 5856,
      "ring": 5857,
      "Enabled": 5858,
      "Ġjobs": 5859,
      "deploy": 5860,
      "ĠQtWidgets": 5861,
      "Ġtxt": 5862,
      "ilon": 5863,
      "ĠFunction": 5864,
      "Ġfree": 5865,
      "Ġthreading": 5866,
      "Match": 5867,
      "Ġmut": 5868,
      "ValueError": 5869,
      "Ġannotation": 5870,
      "arc": 5871,
      "Ġexpand": 5872,
      "Ġasynchronous": 5873,
      "Ġattempt": 5874,
      "ĠStart": 5875,
      "':'": 5876,
      "yntax": 5877,
      "ĠFROM": 5878,
      "Ġdays": 5879,
      "pet": 5880,
      "Delete": 5881,
      "Exit": 5882,
      "LINE": 5883,
      "quivalent": 5884,
      "levels": 5885,
      "Ġvideo": 5886,
      "85": 5887,
      "Ġconstructor": 5888,
      "anization": 5889,
      "va": 5890,
      "tm": 5891,
      "nr": 5892,
      "EV": 5893,
      "FC": 5894,
      "Ġsat": 5895,
      "Ġactually": 5896,
      "sidered": 5897,
      "workers": 5898,
      "Ġnn": 5899,
      "Ġservices": 5900,
      "watch": 5901,
      "ialog": 5902,
      "Ġschedule": 5903,
      "Ġtrigger": 5904,
      "chat": 5905,
      "ĠThere": 5906,
      "Ġmapped": 5907,
      "covery": 5908,
      "Ġfilenames": 5909,
      "********": 5910,
      "']):": 5911,
      "circ": 5912,
      "!\")": 5913,
      "'%": 5914,
      "pin": 5915,
      "runtime": 5916,
      "blue": 5917,
      "enate": 5918,
      "chr": 5919,
      "Ġcells": 5920,
      "Ġå": 5921,
      "redis": 5922,
      "Ġdiag": 5923,
      "ĠDB": 5924,
      "Ġcandidate": 5925,
      "keywords": 5926,
      "wt": 5927,
      "aps": 5928,
      "black": 5929,
      "Ġhidden": 5930,
      "ĠEach": 5931,
      "Ġcomments": 5932,
      "RED": 5933,
      "encoded": 5934,
      "Edit": 5935,
      "128": 5936,
      "My": 5937,
      "ĠCall": 5938,
      "Ġbottom": 5939,
      "ensure": 5940,
      "prog": 5941,
      "positions": 5942,
      "endar": 5943,
      "New": 5944,
      "atory": 5945,
      "mid": 5946,
      "tour": 5947,
      "ierarchy": 5948,
      "rum": 5949,
      "Ġscipy": 5950,
      "Ġspan": 5951,
      "annotation": 5952,
      "ĠNOT": 5953,
      "Ġconsidered": 5954,
      "tor": 5955,
      "LAGS": 5956,
      "lour": 5957,
      ":\",": 5958,
      "nu": 5959,
      "ĠEvent": 5960,
      "ientation": 5961,
      "-+-+-+-+": 5962,
      "using": 5963,
      "ĠMo": 5964,
      "gamma": 5965,
      "Fact": 5966,
      "star": 5967,
      "HERE": 5968,
      "white": 5969,
      "And": 5970,
      "Channel": 5971,
      "sb": 5972,
      "ĠTemp": 5973,
      "=='": 5974,
      "74": 5975,
      "PORT": 5976,
      "____": 5977,
      "noise": 5978,
      "peak": 5979,
      "Url": 5980,
      "cipe": 5981,
      "Ġprecision": 5982,
      "DR": 5983,
      "qs": 5984,
      "ouse": 5985,
      "Ġtheta": 5986,
      "ĠAND": 5987,
      "Template": 5988,
      "bacter": 5989,
      "Ġcontroller": 5990,
      "Ġ\"@": 5991,
      "okies": 5992,
      "Ġnoise": 5993,
      "ĠQuery": 5994,
      "Ġindexes": 5995,
      "Ġpack": 5996,
      "Ġbehavi": 5997,
      "LED": 5998,
      "buff": 5999,
      "connections": 6000,
      "Char": 6001,
      "activity": 6002,
      "Over": 6003,
      "BB": 6004,
      "Gen": 6005,
      "Dec": 6006,
      "existing": 6007,
      "Configuration": 6008,
      "oauth": 6009,
      "Ġisn": 6010,
      "Ġdocker": 6011,
      "Timeout": 6012,
      "ĠLoc": 6013,
      "Ġmanage": 6014,
      "ffic": 6015,
      "ĠAuth": 6016,
      "cells": 6017,
      "inger": 6018,
      "Ġshift": 6019,
      "symbols": 6020,
      "_'": 6021,
      "aving": 6022,
      "Ġvol": 6023,
      "Ġdocumentation": 6024,
      "Ġprompt": 6025,
      "Ġtimezone": 6026,
      "moves": 6027,
      "Ġstmt": 6028,
      "rency": 6029,
      "splitext": 6030,
      "Only": 6031,
      "setting": 6032,
      "Ġformatter": 6033,
      "att": 6034,
      "tected": 6035,
      "PH": 6036,
      "decor": 6037,
      "76": 6038,
      "Ġratio": 6039,
      "Com": 6040,
      "Ġnothing": 6041,
      "LETE": 6042,
      "typ": 6043,
      "Ġanswer": 6044,
      "digit": 6045,
      "Ġ'.'": 6046,
      "Ġprice": 6047,
      "Ġcreating": 6048,
      ":.": 6049,
      "Exist": 6050,
      "coming": 6051,
      "ools": 6052,
      "ä»": 6053,
      "failure": 6054,
      "ĠPO": 6055,
      "Ġrecursive": 6056,
      "servers": 6057,
      "vocab": 6058,
      "gu": 6059,
      "|'": 6060,
      "uation": 6061,
      "Ġinterpre": 6062,
      "kit": 6063,
      "Schema": 6064,
      "listen": 6065,
      "contin": 6066,
      "trigger": 6067,
      "splitlines": 6068,
      "Ġ11": 6069,
      "PT": 6070,
      "descriptor": 6071,
      "Ġgu": 6072,
      "readline": 6073,
      "Ġitself": 6074,
      "Convert": 6075,
      "Ġsha": 6076,
      "pot": 6077,
      "Ġmultip": 6078,
      "getter": 6079,
      "cale": 6080,
      "Send": 6081,
      "jac": 6082,
      "Ġcoordinate": 6083,
      "Ġcatalog": 6084,
      "background": 6085,
      "scalar": 6086,
      "mis": 6087,
      "Ġaltern": 6088,
      "roles": 6089,
      "Ġconfigured": 6090,
      "Ġruntime": 6091,
      "contains": 6092,
      "ixin": 6093,
      "ading": 6094,
      "Ax": 6095,
      "isode": 6096,
      "aussian": 6097,
      "CC": 6098,
      "Ġoccur": 6099,
      "Ġreading": 6100,
      "lastic": 6101,
      "Ġ^": 6102,
      "pose": 6103,
      "ĠNOTE": 6104,
      "legend": 6105,
      "hylo": 6106,
      "So": 6107,
      "atial": 6108,
      "ever": 6109,
      "console": 6110,
      "notify": 6111,
      "patterns": 6112,
      "(\"\"": 6113,
      "ĠProcess": 6114,
      "Missing": 6115,
      "adapter": 6116,
      "DD": 6117,
      "bb": 6118,
      "ĠLETTER": 6119,
      "asc": 6120,
      "imit": 6121,
      "Ġnormalized": 6122,
      "shared": 6123,
      "LOW": 6124,
      "arison": 6125,
      "WORD": 6126,
      "Ġsimilar": 6127,
      "Ġden": 6128,
      "Ġmass": 6129,
      "84": 6130,
      "tection": 6131,
      "experiment": 6132,
      "uest": 6133,
      "ĠHTML": 6134,
      "Ġplay": 6135,
      "ĠCON": 6136,
      "pher": 6137,
      "ti": 6138,
      "Ġpeer": 6139,
      ":',": 6140,
      "Grid": 6141,
      "SL": 6142,
      "Ġdjango": 6143,
      "Ġkeywords": 6144,
      "ulated": 6145,
      "Ġterms": 6146,
      "nail": 6147,
      "ically": 6148,
      "ï¼Į": 6149,
      "Host": 6150,
      "Ġgreater": 6151,
      "Dist": 6152,
      "permission": 6153,
      "dependent": 6154,
      "balance": 6155,
      "rd": 6156,
      "ArgumentParser": 6157,
      "sactions": 6158,
      "ĠState": 6159,
      "ropout": 6160,
      "JE": 6161,
      "NOT": 6162,
      "rozen": 6163,
      "ĠMax": 6164,
      "Ġframes": 6165,
      "Ġpublish": 6166,
      "ee": 6167,
      "geometry": 6168,
      "Ġ|=": 6169,
      "semble": 6170,
      "moving": 6171,
      "multip": 6172,
      "Ġstride": 6173,
      "Ġtests": 6174,
      "utit": 6175,
      "Collection": 6176,
      "SY": 6177,
      "Ġcompare": 6178,
      "ĠWrite": 6179,
      "ĠCode": 6180,
      "Iteration": 6181,
      "')):": 6182,
      "(\"{": 6183,
      "Ġlinear": 6184,
      "authentic": 6185,
      "ĠCur": 6186,
      "segments": 6187,
      "AA": 6188,
      "speed": 6189,
      "ital": 6190,
      "Ġbasic": 6191,
      "Ġupdates": 6192,
      "](": 6193,
      "zoom": 6194,
      "FORMAT": 6195,
      "categories": 6196,
      "iteral": 6197,
      "Ġadjust": 6198,
      "timedelta": 6199,
      "()}": 6200,
      "00000000": 6201,
      "Ġconstant": 6202,
      "Ġboot": 6203,
      "executable": 6204,
      "sol": 6205,
      "Ġpur": 6206,
      "Ġaround": 6207,
      "Ġscores": 6208,
      "ĠNotes": 6209,
      "Stap": 6210,
      "ĠCompute": 6211,
      "GI": 6212,
      "Ġmakes": 6213,
      "Ġallows": 6214,
      "Ġequ": 6215,
      "Ġmerged": 6216,
      "Ġmis": 6217,
      "Ġindividual": 6218,
      "ardware": 6219,
      "Ge": 6220,
      "dm": 6221,
      "Pos": 6222,
      "vance": 6223,
      "sessment": 6224,
      "PU": 6225,
      "alive": 6226,
      "Staphylo": 6227,
      "contract": 6228,
      "Ġselector": 6229,
      "bam": 6230,
      ",),": 6231,
      "Ġfactory": 6232,
      "uer": 6233,
      "Staphylococcus": 6234,
      "subnet": 6235,
      "Storage": 6236,
      "pixel": 6237,
      "404": 6238,
      "queryset": 6239,
      "Ġener": 6240,
      "Ġvalidator": 6241,
      "FS": 6242,
      "bp": 6243,
      "execution": 6244,
      "OB": 6245,
      "locals": 6246,
      "Handle": 6247,
      "Ġtyping": 6248,
      "ĠInter": 6249,
      "nc": 6250,
      "processed": 6251,
      "Ġcv": 6252,
      "VALUE": 6253,
      "resid": 6254,
      ":\"": 6255,
      "Bar": 6256,
      "ĠSE": 6257,
      "Ġsubnet": 6258,
      "Settings": 6259,
      "Ġri": 6260,
      "ubclass": 6261,
      "LY": 6262,
      "viation": 6263,
      "Ġargv": 6264,
      "panel": 6265,
      "ureus": 6266,
      "Ġqs": 6267,
      "average": 6268,
      "thumb": 6269,
      "Keys": 6270,
      "Ġappe": 6271,
      "Style": 6272,
      "ale": 6273,
      "Ġaureus": 6274,
      "Ġuseful": 6275,
      "TEXT": 6276,
      "âĢ": 6277,
      "licies": 6278,
      "=[],": 6279,
      "Ter": 6280,
      "prior": 6281,
      "ullable": 6282,
      "Ġprepare": 6283,
      "ĠSystem": 6284,
      "Ġcloud": 6285,
      "ĠURI": 6286,
      "ĠLe": 6287,
      "license": 6288,
      "Ġcontract": 6289,
      "izing": 6290,
      "Dialog": 6291,
      "Var": 6292,
      "views": 6293,
      "Ġdefaultdict": 6294,
      "BE": 6295,
      "ĠAss": 6296,
      "bundle": 6297,
      "bank": 6298,
      "locked": 6299,
      "Ġpermission": 6300,
      "entifier": 6301,
      "ĠDO": 6302,
      "Ġ50": 6303,
      "Ġlst": 6304,
      "scripts": 6305,
      "ints": 6306,
      "Ġplease": 6307,
      "Ġdirectories": 6308,
      "bra": 6309,
      "templates": 6310,
      "Results": 6311,
      "Pol": 6312,
      "ĠClo": 6313,
      "MT": 6314,
      "Ġ()": 6315,
      "Ġcourse": 6316,
      "Ġpixels": 6317,
      "ffs": 6318,
      "calls": 6319,
      "crease": 6320,
      ":],": 6321,
      "Ġssh": 6322,
      "Ass": 6323,
      "YY": 6324,
      "Ġ19": 6325,
      "ranges": 6326,
      "sla": 6327,
      "Ġthing": 6328,
      "tests": 6329,
      "effect": 6330,
      "iterator": 6331,
      "constraints": 6332,
      "nx": 6333,
      "lica": 6334,
      "Ġ64": 6335,
      "Ġ'+": 6336,
      "ĠGenerate": 6337,
      "Ġcc": 6338,
      "Ġclone": 6339,
      "READ": 6340,
      "ior": 6341,
      "dictionary": 6342,
      "Ġprin": 6343,
      "ĠFilter": 6344,
      "Ġmot": 6345,
      "configure": 6346,
      "Ġthreads": 6347,
      "Ab": 6348,
      "encoder": 6349,
      "Ġfo": 6350,
      "Ġsegments": 6351,
      "/(": 6352,
      "SU": 6353,
      "ike": 6354,
      "Ġstarted": 6355,
      "orth": 6356,
      "Ġgood": 6357,
      "certificate": 6358,
      "Ġ'\"": 6359,
      "ired": 6360,
      "callable": 6361,
      "crete": 6362,
      "Current": 6363,
      "Ġtemperature": 6364,
      "ĠTry": 6365,
      "tun": 6366,
      "Ġreturning": 6367,
      ")],": 6368,
      "RR": 6369,
      "solver": 6370,
      "Ġgradi": 6371,
      "Ġmarket": 6372,
      "Position": 6373,
      "SQL": 6374,
      "(\"{}": 6375,
      "plots": 6376,
      "Ġordered": 6377,
      "ĠCreates": 6378,
      "'}},": 6379,
      "uch": 6380,
      "Ġrespect": 6381,
      "tached": 6382,
      "ges": 6383,
      "Ġtransition": 6384,
      "Ġworks": 6385,
      "Ġok": 6386,
      "iration": 6387,
      "dimensions": 6388,
      "orical": 6389,
      "Ġ24": 6390,
      "Ġsurface": 6391,
      "Ġgate": 6392,
      "ranches": 6393,
      "Ġlimits": 6394,
      "Metadata": 6395,
      "Multi": 6396,
      "enari": 6397,
      "Ġpush": 6398,
      "green": 6399,
      "finished": 6400,
      "ocab": 6401,
      "ĠConstruct": 6402,
      "plain": 6403,
      "rus": 6404,
      "Ġcurve": 6405,
      "mc": 6406,
      "chrom": 6407,
      "Ġreads": 6408,
      "Ġetree": 6409,
      "Ġcookie": 6410,
      "Callback": 6411,
      "Ġseparate": 6412,
      "################################": 6413,
      "Ġvars": 6414,
      "Ġ{}).": 6415,
      "GL": 6416,
      "Ġdevices": 6417,
      "CHE": 6418,
      "AME": 6419,
      "traceback": 6420,
      "avg": 6421,
      "================================": 6422,
      "Ġmem": 6423,
      "Transform": 6424,
      "ĠUnion": 6425,
      "ĠWITH": 6426,
      "ORY": 6427,
      "Bytes": 6428,
      "fficients": 6429,
      "ables": 6430,
      "precision": 6431,
      "ĠFIX": 6432,
      "ini": 6433,
      "ĠOn": 6434,
      "sider": 6435,
      "__))": 6436,
      "ibration": 6437,
      "Ġspeed": 6438,
      "Ġflux": 6439,
      "expect": 6440,
      "ĠWork": 6441,
      "Ġpi": 6442,
      "9999": 6443,
      "cnt": 6444,
      "('/')": 6445,
      "Ġ(:": 6446,
      "submit": 6447,
      "ipher": 6448,
      "manifest": 6449,
      "Tuple": 6450,
      "Ġpred": 6451,
      "chunks": 6452,
      "minimum": 6453,
      "ane": 6454,
      "Ġcalc": 6455,
      "}]": 6456,
      "Menu": 6457,
      "Ġconnections": 6458,
      "SELECT": 6459,
      "Ġcard": 6460,
      "locations": 6461,
      "Ġchecked": 6462,
      "ctools": 6463,
      "Ġvertex": 6464,
      "fr": 6465,
      "outfile": 6466,
      "Ġdataframe": 6467,
      "constant": 6468,
      "wraps": 6469,
      "which": 6470,
      "Ġbytearray": 6471,
      "xs": 6472,
      "gradi": 6473,
      "SD": 6474,
      "={},": 6475,
      "ĠNew": 6476,
      "Ġba": 6477,
      "Bad": 6478,
      "SV": 6479,
      "Please": 6480,
      "xpath": 6481,
      "perm": 6482,
      "Ġversionadded": 6483,
      "solution": 6484,
      "Reader": 6485,
      "addresses": 6486,
      "complex": 6487,
      ",\"": 6488,
      "rypto": 6489,
      "curacy": 6490,
      "fidence": 6491,
      "micro": 6492,
      "\\\"": 6493,
      "maximum": 6494,
      "Ġpermissions": 6495,
      "LOCK": 6496,
      "ĠToken": 6497,
      "clone": 6498,
      "hi": 6499,
      "href": 6500,
      "Factory": 6501,
      "Ġicon": 6502,
      "II": 6503,
      "lying": 6504,
      "ĠPlease": 6505,
      "linalg": 6506,
      "operations": 6507,
      "ĠHow": 6508,
      "(\".": 6509,
      "ĠAR": 6510,
      "LATE": 6511,
      "listdir": 6512,
      "Ġsensor": 6513,
      "ka": 6514,
      "Ġ(-": 6515,
      "poly": 6516,
      "Proxy": 6517,
      "LIST": 6518,
      "Pass": 6519,
      "itch": 6520,
      "Ġdep": 6521,
      "licked": 6522,
      "Ġdelimiter": 6523,
      "absolute": 6524,
      "alan": 6525,
      "Tool": 6526,
      "Ġresid": 6527,
      "Ġgamma": 6528,
      "mx": 6529,
      "Ġaz": 6530,
      "âĶĢ": 6531,
      "atoms": 6532,
      "))]": 6533,
      "Ġflatten": 6534,
      "Ġæ": 6535,
      "servations": 6536,
      "63": 6537,
      "lr": 6538,
      "validator": 6539,
      "izers": 6540,
      "ĠOne": 6541,
      "Ġxy": 6542,
      "urations": 6543,
      "Ġspect": 6544,
      "arest": 6545,
      "country": 6546,
      "Ġconstants": 6547,
      "Ġrev": 6548,
      "Wrapper": 6549,
      "Cre": 6550,
      "based": 6551,
      "diffe": 6552,
      "ĠIDs": 6553,
      "_:": 6554,
      "ef": 6555,
      "Ġparents": 6556,
      "^{": 6557,
      "Ġmade": 6558,
      "ĠElement": 6559,
      "Param": 6560,
      "`)": 6561,
      "uble": 6562,
      "openconfig": 6563,
      "Ent": 6564,
      "ggest": 6565,
      "setText": 6566,
      "Ġtail": 6567,
      "weet": 6568,
      "plus": 6569,
      "Ġsentence": 6570,
      "52": 6571,
      "projects": 6572,
      "Ġ({": 6573,
      "]=": 6574,
      "heel": 6575,
      "({\"": 6576,
      "Ġmodify": 6577,
      "Ġbuff": 6578,
      "Ġconversion": 6579,
      "Ġissubclass": 6580,
      "72": 6581,
      "024": 6582,
      "unary": 6583,
      "locale": 6584,
      "retries": 6585,
      "Ġpull": 6586,
      "ĠMust": 6587,
      "annotations": 6588,
      "Ġauthentic": 6589,
      "ele": 6590,
      "eral": 6591,
      "Ġnumeric": 6592,
      "ĠArray": 6593,
      "ĠWindows": 6594,
      "Ġloader": 6595,
      "ĠTuple": 6596,
      "Ġvs": 6597,
      "Ġgeo": 6598,
      "ĠFirst": 6599,
      "Ġes": 6600,
      "adjust": 6601,
      "abilities": 6602,
      "Ġdispatch": 6603,
      ">',": 6604,
      "gateway": 6605,
      "tip": 6606,
      "decimal": 6607,
      "'},": 6608,
      "('[": 6609,
      "Ġsid": 6610,
      "uffle": 6611,
      "ĠConnection": 6612,
      "Ġlogs": 6613,
      "Ġcomplex": 6614,
      "Val": 6615,
      "live": 6616,
      "Ġcalculated": 6617,
      "fh": 6618,
      "may": 6619,
      "requirements": 6620,
      "deps": 6621,
      "CB": 6622,
      "cycle": 6623,
      "integ": 6624,
      "Ġslot": 6625,
      "produ": 6626,
      "STAT": 6627,
      "phab": 6628,
      "Ġcaller": 6629,
      "coordinates": 6630,
      "Ġcross": 6631,
      "ĠGroup": 6632,
      "gnitude": 6633,
      "Ut": 6634,
      "mime": 6635,
      "STRING": 6636,
      "Ġreduce": 6637,
      "built": 6638,
      "Ġpatterns": 6639,
      "hel": 6640,
      "Ġconsole": 6641,
      "Ġcompatible": 6642,
      "audio": 6643,
      "Tri": 6644,
      "Ġdouble": 6645,
      "cross": 6646,
      "Ġdocs": 6647,
      "Ġaudio": 6648,
      "rho": 6649,
      "character": 6650,
      "Ġassigned": 6651,
      "Ġsur": 6652,
      "erred": 6653,
      "Ġ_(\"": 6654,
      ":\")": 6655,
      "Ġdy": 6656,
      "ĠGraph": 6657,
      "Does": 6658,
      "400": 6659,
      "Ġbackup": 6660,
      "numbers": 6661,
      "Ġserialize": 6662,
      ")\")": 6663,
      "anit": 6664,
      "53": 6665,
      "pull": 6666,
      "Ġmig": 6667,
      "43": 6668,
      "deleted": 6669,
      "permissions": 6670,
      "Ġrdf": 6671,
      "ighted": 6672,
      "revision": 6673,
      "Ġprocesses": 6674,
      "reads": 6675,
      "Rep": 6676,
      "Ġgeometry": 6677,
      "Ġreferences": 6678,
      "Ġconditions": 6679,
      "XML": 6680,
      "outer": 6681,
      "!')": 6682,
      "ace": 6683,
      "should": 6684,
      "Integer": 6685,
      "Ġsymbols": 6686,
      "lengths": 6687,
      "ĠFIXME": 6688,
      "Pub": 6689,
      "itation": 6690,
      "Ġdescriptor": 6691,
      "ĠHandle": 6692,
      "poll": 6693,
      "Ġface": 6694,
      "Ġcpu": 6695,
      "Ġobtain": 6696,
      "ird": 6697,
      "Ġsubscription": 6698,
      "grams": 6699,
      "73": 6700,
      "lv": 6701,
      "click": 6702,
      "ĠResource": 6703,
      "IGN": 6704,
      "/{}": 6705,
      "Ġbus": 6706,
      "specific": 6707,
      "Ġhappen": 6708,
      "Ġwrong": 6709,
      "modifi": 6710,
      "transfer": 6711,
      "Ġseg": 6712,
      "ĠThese": 6713,
      "how": 6714,
      "Ġphi": 6715,
      "dynamic": 6716,
      "Ġsubclass": 6717,
      "Op": 6718,
      "repeat": 6719,
      "zon": 6720,
      "Ġdependency": 6721,
      "phabet": 6722,
      "ection": 6723,
      "beat": 6724,
      "TEMP": 6725,
      "ĠOR": 6726,
      "Ġnu": 6727,
      "ObjectName": 6728,
      "SK": 6729,
      "ĠOutput": 6730,
      "'ll": 6731,
      "luster": 6732,
      "border": 6733,
      "Ġcwd": 6734,
      "vertex": 6735,
      "Ġfinished": 6736,
      "Func": 6737,
      "Ġsto": 6738,
      "Hash": 6739,
      "$',": 6740,
      "dig": 6741,
      "Ġklass": 6742,
      "etrieve": 6743,
      "JECT": 6744,
      "Ġresolution": 6745,
      "errno": 6746,
      "()).": 6747,
      "ached": 6748,
      "Ġinf": 6749,
      "entities": 6750,
      "Ġcountry": 6751,
      "URI": 6752,
      "Ġdeg": 6753,
      "quot": 6754,
      "Ġwa": 6755,
      "ially": 6756,
      "etc": 6757,
      "lify": 6758,
      "Ġlarge": 6759,
      "legate": 6760,
      "}')": 6761,
      "learn": 6762,
      "ARY": 6763,
      "timezone": 6764,
      "'d": 6765,
      "rename": 6766,
      "Ġpie": 6767,
      "cv": 6768,
      "500": 6769,
      "nsupported": 6770,
      "received": 6771,
      "aster": 6772,
      "proj": 6773,
      "agraph": 6774,
      "Items": 6775,
      "Cell": 6776,
      "Ġwatch": 6777,
      "Ġsigned": 6778,
      "Ġpeak": 6779,
      "native": 6780,
      "parents": 6781,
      "expanduser": 6782,
      "Ġpotential": 6783,
      "Ġconfigure": 6784,
      "uplicates": 6785,
      "62": 6786,
      "Ġqual": 6787,
      "alignment": 6788,
      "team": 6789,
      "Component": 6790,
      "}),": 6791,
      "Ġsubset": 6792,
      "Role": 6793,
      "Helper": 6794,
      "Ġblank": 6795,
      "))))": 6796,
      "Ġparticular": 6797,
      "bum": 6798,
      "ĠUnicode": 6799,
      "joint": 6800,
      "Ġhosts": 6801,
      "Local": 6802,
      "Title": 6803,
      "ylabel": 6804,
      "Ġbel": 6805,
      "Remove": 6806,
      "posure": 6807,
      "Ġminutes": 6808,
      "Begin": 6809,
      "TRI": 6810,
      "acc": 6811,
      "Ġhref": 6812,
      "Ġred": 6813,
      "vertical": 6814,
      "bbox": 6815,
      "Vector": 6816,
      "=\"%": 6817,
      "EC": 6818,
      "pat": 6819,
      "yes": 6820,
      "slot": 6821,
      "Any": 6822,
      "Project": 6823,
      "blems": 6824,
      "neg": 6825,
      "bre": 6826,
      "callbacks": 6827,
      "Ġderiv": 6828,
      "energy": 6829,
      "multiple": 6830,
      "Ġserializer": 6831,
      "Find": 6832,
      "aves": 6833,
      "HEADER": 6834,
      "Ġcompleted": 6835,
      "btn": 6836,
      "xlabel": 6837,
      "WARNING": 6838,
      ":'": 6839,
      "}/{": 6840,
      "Ġcontact": 6841,
      "specs": 6842,
      "yang": 6843,
      "Ġconstraints": 6844,
      "specimen": 6845,
      "Ġwhose": 6846,
      "ised": 6847,
      "ox": 6848,
      "cus": 6849,
      "Ġsleep": 6850,
      "andatory": 6851,
      "Ġsli": 6852,
      "clusters": 6853,
      "Ġdirs": 6854,
      "ae": 6855,
      "ĠWHERE": 6856,
      "requencies": 6857,
      "FIELD": 6858,
      "Unit": 6859,
      "ĠAd": 6860,
      "kwds": 6861,
      "Ġrequirements": 6862,
      "Offset": 6863,
      "ATOR": 6864,
      "Ġfails": 6865,
      "contact": 6866,
      "Ġhit": 6867,
      "Use": 6868,
      "åĪ": 6869,
      "Ġnx": 6870,
      "Ġdefinitions": 6871,
      "Ġpointer": 6872,
      "Engine": 6873,
      "Ġencoder": 6874,
      "Ġalignment": 6875,
      "ysql": 6876,
      "finish": 6877,
      "setObjectName": 6878,
      "inja": 6879,
      "constraint": 6880,
      "sites": 6881,
      "Fail": 6882,
      "Profile": 6883,
      "lec": 6884,
      "illar": 6885,
      "ĠOption": 6886,
      "ĠGiven": 6887,
      "Ġdecimal": 6888,
      "cipient": 6889,
      "Ġparallel": 6890,
      "Ġurls": 6891,
      "Ġdialog": 6892,
      "Ġconstraint": 6893,
      "Sample": 6894,
      "calculate": 6895,
      "transition": 6896,
      "LOGGER": 6897,
      "Next": 6898,
      "nl": 6899,
      "Ġcos": 6900,
      "ĠCalculate": 6901,
      "Buffer": 6902,
      "Author": 6903,
      "Dataset": 6904,
      "ildcard": 6905,
      "Ġentire": 6906,
      "Ġdigest": 6907,
      "Ġdocstring": 6908,
      "listener": 6909,
      "neighbors": 6910,
      "dates": 6911,
      "Ġanything": 6912,
      "Sum": 6913,
      "__:": 6914,
      "AUTH": 6915,
      "acl": 6916,
      "ASE": 6917,
      "NotExist": 6918,
      "ttl": 6919,
      "Ġtorch": 6920,
      "UI": 6921,
      "Ġdry": 6922,
      "Ġdynamic": 6923,
      "genes": 6924,
      "endor": 6925,
      "ACHE": 6926,
      "KEN": 6927,
      "ni": 6928,
      "ĠFla": 6929,
      "course": 6930,
      "('#": 6931,
      "Changed": 6932,
      "Ġcar": 6933,
      "ceed": 6934,
      "curr": 6935,
      "ĠOver": 6936,
      "Ġpending": 6937,
      "Ġfamily": 6938,
      "Ġrho": 6939,
      "Vis": 6940,
      "SCRI": 6941,
      "Ġpersist": 6942,
      "Ġchecksum": 6943,
      "Mark": 6944,
      "vr": 6945,
      "600": 6946,
      "RES": 6947,
      "Ġpin": 6948,
      "LD": 6949,
      "deserialize": 6950,
      "sparse": 6951,
      "Ġ\"+": 6952,
      "Directory": 6953,
      "gge": 6954,
      "gap": 6955,
      "87": 6956,
      "=',": 6957,
      "è¯": 6958,
      "Mapping": 6959,
      "Ġredis": 6960,
      "Ġplugins": 6961,
      "sensor": 6962,
      "Ġcred": 6963,
      "isis": 6964,
      "Ġbundle": 6965,
      "ĠMethod": 6966,
      "square": 6967,
      "Ġgame": 6968,
      "=''):": 6969,
      "Ġ:,": 6970,
      "Ġtimedelta": 6971,
      "Ġtemporary": 6972,
      "NUM": 6973,
      "room": 6974,
      "Ġbg": 6975,
      "Ġprops": 6976,
      "Ġrs": 6977,
      "Ġseparator": 6978,
      "'|'": 6979,
      "mig": 6980,
      "ym": 6981,
      "statistics": 6982,
      "Ġindicating": 6983,
      "509": 6984,
      "]}": 6985,
      "Ġdisabled": 6986,
      "player": 6987,
      "standard": 6988,
      "ros": 6989,
      "Ġincluding": 6990,
      "when": 6991,
      "Feature": 6992,
      "rees": 6993,
      "__[": 6994,
      "transpose": 6995,
      "finite": 6996,
      "')))": 6997,
      "formats": 6998,
      "ĠTest": 6999,
      "QUI": 7000,
      "ĠService": 7001,
      "Ġthree": 7002,
      "more": 7003,
      "Ġevaluate": 7004,
      "Ġadapter": 7005,
      "phrase": 7006,
      "Ġtax": 7007,
      "Ġlevels": 7008,
      "')(": 7009,
      "nested": 7010,
      "Ġmonitor": 7011,
      "Ġones": 7012,
      "Ġhandlers": 7013,
      "Ġlocale": 7014,
      "spin": 7015,
      "Ġexecutable": 7016,
      "aN": 7017,
      "pandas": 7018,
      "Ġcreation": 7019,
      "Ġlight": 7020,
      "enc": 7021,
      "Ġsparse": 7022,
      "verts": 7023,
      "actual": 7024,
      "ggered": 7025,
      "initialize": 7026,
      "Ġborder": 7027,
      "Ġconcat": 7028,
      "Ġ\\\\": 7029,
      "dns": 7030,
      "Flow": 7031,
      "nel": 7032,
      "Import": 7033,
      "Ġenergy": 7034,
      "Ġrotation": 7035,
      "iddleware": 7036,
      "Ġcodes": 7037,
      "ĠDictionary": 7038,
      "streams": 7039,
      "Initialize": 7040,
      "97": 7041,
      "Batch": 7042,
      "Ġcause": 7043,
      "fire": 7044,
      "issues": 7045,
      "Execution": 7046,
      "dag": 7047,
      "></": 7048,
      "stems": 7049,
      "impl": 7050,
      "Ġfraction": 7051,
      "Post": 7052,
      "mazon": 7053,
      "appro": 7054,
      "training": 7055,
      "posed": 7056,
      "Ġshare": 7057,
      "Exp": 7058,
      "los": 7059,
      "ĠVersion": 7060,
      "Ġslug": 7061,
      "Properties": 7062,
      "inline": 7063,
      "Ġdiction": 7064,
      "nsure": 7065,
      "([[": 7066,
      "Ġequivalent": 7067,
      "Ġbbox": 7068,
      "ĠAS": 7069,
      "ventory": 7070,
      "warnings": 7071,
      "Ġvectors": 7072,
      "Ġvocab": 7073,
      "sequences": 7074,
      "Ġcmap": 7075,
      "Ġranges": 7076,
      "MPLE": 7077,
      "Ġstarts": 7078,
      "Plugin": 7079,
      "thresh": 7080,
      "Ġthumb": 7081,
      "exe": 7082,
      "Ġeditor": 7083,
      "TYPES": 7084,
      "Ġsampling": 7085,
      "rive": 7086,
      "ĠTensor": 7087,
      "Ġprevent": 7088,
      "Ġresulting": 7089,
      "Ġcomputed": 7090,
      "Ġmanifest": 7091,
      "ĠBack": 7092,
      "ĠResult": 7093,
      "Ġboto": 7094,
      "ingerprint": 7095,
      "Ġpages": 7096,
      "ĠStopIteration": 7097,
      "Interface": 7098,
      ":,": 7099,
      "...\")": 7100,
      "omial": 7101,
      "separator": 7102,
      "Ġvec": 7103,
      "------------": 7104,
      "(\",": 7105,
      "Ġstdin": 7106,
      "Cursor": 7107,
      "Wh": 7108,
      "fpath": 7109,
      "))[": 7110,
      "Ġgive": 7111,
      "share": 7112,
      "Ġgrad": 7113,
      "det": 7114,
      "ĠServer": 7115,
      "setLevel": 7116,
      "hooks": 7117,
      "Ġretval": 7118,
      "Ġaddresses": 7119,
      "generic": 7120,
      "Ġbetter": 7121,
      "Ġconsumer": 7122,
      "mul": 7123,
      "fw": 7124,
      "Lock": 7125,
      "VALID": 7126,
      "WA": 7127,
      "Ġsuccessfully": 7128,
      "Ġvery": 7129,
      "Ġeverything": 7130,
      "cher": 7131,
      "ĠSQL": 7132,
      "Ġindicates": 7133,
      "ĠBlock": 7134,
      "Ġmp": 7135,
      "Expected": 7136,
      "Ġartifact": 7137,
      "Ġinplace": 7138,
      "pdb": 7139,
      "Print": 7140,
      "aliases": 7141,
      "ticks": 7142,
      "irt": 7143,
      "aging": 7144,
      "mutation": 7145,
      "shutdown": 7146,
      "cutoff": 7147,
      "wagger": 7148,
      "DoesNotExist": 7149,
      "BASE": 7150,
      "TAL": 7151,
      "Args": 7152,
      "Web": 7153,
      "ĠTask": 7154,
      "Ġdensity": 7155,
      "Ġclip": 7156,
      "ipant": 7157,
      "started": 7158,
      "('')": 7159,
      "flo": 7160,
      "CLA": 7161,
      "Ġchrom": 7162,
      "ggers": 7163,
      "fully": 7164,
      "Ġcompile": 7165,
      "bet": 7166,
      "sat": 7167,
      "wave": 7168,
      "mitive": 7169,
      "globals": 7170,
      "curve": 7171,
      "\"{": 7172,
      "additional": 7173,
      "Metri": 7174,
      "rx": 7175,
      "ĠDate": 7176,
      "sgi": 7177,
      "completion": 7178,
      "wrapped": 7179,
      "Entity": 7180,
      "ITE": 7181,
      "Ġnever": 7182,
      "Ġadding": 7183,
      "Account": 7184,
      "kill": 7185,
      "STATE": 7186,
      "Symbol": 7187,
      "checksum": 7188,
      "Ġmagic": 7189,
      "roke": 7190,
      "UND": 7191,
      "cles": 7192,
      "world": 7193,
      "ĠShould": 7194,
      "Ġruns": 7195,
      "margin": 7196,
      "concatenate": 7197,
      "Ġannotations": 7198,
      "veloper": 7199,
      "rift": 7200,
      "Ġfg": 7201,
      "/\"": 7202,
      "setattr": 7203,
      "Ġenough": 7204,
      "ĠTable": 7205,
      "Ġteam": 7206,
      "locity": 7207,
      "NotFoundError": 7208,
      "lstrip": 7209,
      "Agent": 7210,
      "Ġear": 7211,
      "ĠExec": 7212,
      "conditions": 7213,
      "Ġrecent": 7214,
      "Ġiterations": 7215,
      "repos": 7216,
      "Ġtimer": 7217,
      "atives": 7218,
      "terest": 7219,
      "resize": 7220,
      "VICE": 7221,
      "yntaxError": 7222,
      "Align": 7223,
      "}',": 7224,
      "erial": 7225,
      "processes": 7226,
      "jid": 7227,
      "sertion": 7228,
      "pie": 7229,
      "Ġtransfer": 7230,
      "king": 7231,
      "Ġ'[": 7232,
      "contrib": 7233,
      "SSL": 7234,
      "resolver": 7235,
      "Builder": 7236,
      "raft": 7237,
      "Ġwhole": 7238,
      "Ġartist": 7239,
      "levant": 7240,
      "cleaned": 7241,
      "hip": 7242,
      "Ġreversed": 7243,
      "sur": 7244,
      "Ġws": 7245,
      "gpu": 7246,
      "Ġchecking": 7247,
      "Font": 7248,
      "Ġss": 7249,
      "shard": 7250,
      "Ġcer": 7251,
      "Ġimmediate": 7252,
      "%%": 7253,
      "localhost": 7254,
      "ancest": 7255,
      "94": 7256,
      ":`.": 7257,
      "Ġ=>": 7258,
      "udit": 7259,
      "Ġreceive": 7260,
      "ĠValidationError": 7261,
      "cognized": 7262,
      "FE": 7263,
      "rr": 7264,
      "Ġdd": 7265,
      "Ġunless": 7266,
      "Ġtrunc": 7267,
      "Ġ_('": 7268,
      "æľ": 7269,
      "Ġeas": 7270,
      "CLI": 7271,
      "pw": 7272,
      "dialog": 7273,
      "partic": 7274,
      "amb": 7275,
      "Ġrouter": 7276,
      "Ġprediction": 7277,
      "Ġlex": 7278,
      "Admin": 7279,
      "Ġsections": 7280,
      "]'": 7281,
      "([(": 7282,
      "OM": 7283,
      "fan": 7284,
      "UST": 7285,
      "Ġplain": 7286,
      "Ġamp": 7287,
      "Ġsupports": 7288,
      "crypto": 7289,
      "agg": 7290,
      "Ġmid": 7291,
      "Ġexplicitly": 7292,
      "pip": 7293,
      "union": 7294,
      "Ġsyntax": 7295,
      "Ġterminal": 7296,
      "loading": 7297,
      "hours": 7298,
      "claration": 7299,
      "Ġfallback": 7300,
      "general": 7301,
      "apps": 7302,
      "bolic": 7303,
      "Step": 7304,
      "candidate": 7305,
      "Ġsel": 7306,
      "support": 7307,
      "Ġboundary": 7308,
      "azure": 7309,
      "riend": 7310,
      "enchmark": 7311,
      "urnal": 7312,
      "likelihood": 7313,
      "fits": 7314,
      "dom": 7315,
      "enario": 7316,
      "USE": 7317,
      "tolist": 7318,
      "java": 7319,
      "consumer": 7320,
      "contig": 7321,
      "bases": 7322,
      "Ġbias": 7323,
      "ĠNow": 7324,
      "ĠCallable": 7325,
      "CR": 7326,
      "isters": 7327,
      "osite": 7328,
      "FFFF": 7329,
      "sentence": 7330,
      "sible": 7331,
      "saved": 7332,
      "Limit": 7333,
      "ĠSim": 7334,
      "detect": 7335,
      "pickle": 7336,
      "Ġresolved": 7337,
      "sembly": 7338,
      "Ġrecur": 7339,
      "Ġ%.": 7340,
      "gui": 7341,
      "lsp": 7342,
      "Ġops": 7343,
      "Icon": 7344,
      "Ġlisten": 7345,
      "laces": 7346,
      "ĠContent": 7347,
      "gramm": 7348,
      "^\\": 7349,
      "same": 7350,
      "browser": 7351,
      "compare": 7352,
      "Ġjs": 7353,
      "motor": 7354,
      "geom": 7355,
      "ully": 7356,
      "300": 7357,
      "Ġplayer": 7358,
      "Ġalle": 7359,
      "vertices": 7360,
      "cmap": 7361,
      "Ġduplicate": 7362,
      "metry": 7363,
      "runner": 7364,
      "rea": 7365,
      "ctl": 7366,
      "scriptions": 7367,
      "PREFIX": 7368,
      "Ġlocations": 7369,
      "[_": 7370,
      "ĠOperation": 7371,
      "Ġfragment": 7372,
      "æĸ": 7373,
      "dfs": 7374,
      "war": 7375,
      "61": 7376,
      "Ids": 7377,
      "ATCH": 7378,
      "Ġquot": 7379,
      "Ġauthorization": 7380,
      "stand": 7381,
      "mkdir": 7382,
      "Popen": 7383,
      "alect": 7384,
      "vor": 7385,
      "lope": 7386,
      "ĠMulti": 7387,
      "ilio": 7388,
      "Ġinc": 7389,
      "getcwd": 7390,
      "setitem": 7391,
      "ĠHttpResponse": 7392,
      "Ġmount": 7393,
      "randint": 7394,
      "tuples": 7395,
      "Ġtrip": 7396,
      "AST": 7397,
      "Ġcycle": 7398,
      "åĲ": 7399,
      "Ġincludes": 7400,
      "Custom": 7401,
      "vered": 7402,
      "Ġrelationship": 7403,
      "Ġdifference": 7404,
      "median": 7405,
      "Ġcr": 7406,
      "gether": 7407,
      "ĠSend": 7408,
      "Ġtempfile": 7409,
      "WOR": 7410,
      "aper": 7411,
      "Matrix": 7412,
      "Inst": 7413,
      "[::-": 7414,
      "UNT": 7415,
      "']},": 7416,
      "Ġeig": 7417,
      "Js": 7418,
      "alloc": 7419,
      "Ġready": 7420,
      "anism": 7421,
      "'})": 7422,
      "met": 7423,
      "rouped": 7424,
      "ios": 7425,
      "Ġ(_": 7426,
      "Ġlonger": 7427,
      "fft": 7428,
      "offsets": 7429,
      "Save": 7430,
      "Ġrevision": 7431,
      "kg": 7432,
      "mtime": 7433,
      "filenames": 7434,
      "]',": 7435,
      "Ġnullable": 7436,
      "Ġ/=": 7437,
      "sky": 7438,
      "compressed": 7439,
      "spf": 7440,
      "001": 7441,
      "ĠDesc": 7442,
      "arrays": 7443,
      "incomplete": 7444,
      "interpol": 7445,
      "Ġserialized": 7446,
      "ĠMan": 7447,
      "Ġresponses": 7448,
      "lecule": 7449,
      "ances": 7450,
      "ess": 7451,
      "fl": 7452,
      "Interrupt": 7453,
      "Ġgradient": 7454,
      "yy": 7455,
      "chemy": 7456,
      "Identifier": 7457,
      "ategorical": 7458,
      "Ġpt": 7459,
      "Ġverbosity": 7460,
      "Ġvisible": 7461,
      "Files": 7462,
      "mol": 7463,
      "ĠVer": 7464,
      "Ġcompression": 7465,
      "]-": 7466,
      "tau": 7467,
      "Ġinline": 7468,
      "Ġmaybe": 7469,
      "fq": 7470,
      "Ġquant": 7471,
      "confirm": 7472,
      "Ġ14": 7473,
      "trl": 7474,
      "ĠSome": 7475,
      "Mon": 7476,
      "Ġur": 7477,
      "ĠCurrent": 7478,
      "Ġhome": 7479,
      "(\"[": 7480,
      "Ġguess": 7481,
      "Ġgets": 7482,
      "Ġactor": 7483,
      "Ġvertices": 7484,
      "void": 7485,
      "Ġ``'": 7486,
      "sensitive": 7487,
      "Ġ1024": 7488,
      "Ġlooking": 7489,
      "Ġprobability": 7490,
      "Ġcompress": 7491,
      "corr": 7492,
      "DC": 7493,
      "follow": 7494,
      "ĠGo": 7495,
      "allen": 7496,
      "Definition": 7497,
      "ĠSM": 7498,
      "literal": 7499,
      "windows": 7500,
      "Ġspaces": 7501,
      "Script": 7502,
      "ulator": 7503,
      "unity": 7504,
      "Ġloading": 7505,
      "Ġsizes": 7506,
      "since": 7507,
      "Ġgeneral": 7508,
      "SUB": 7509,
      "wall": 7510,
      "Ġexecuted": 7511,
      "irtual": 7512,
      "Ġmeas": 7513,
      "Ġextracted": 7514,
      "front": 7515,
      "Ġ\"__": 7516,
      "127": 7517,
      "installed": 7518,
      "ĠPermission": 7519,
      "Ġbehavior": 7520,
      "]|": 7521,
      "Ġprobably": 7522,
      "lb": 7523,
      "ĠSets": 7524,
      "hide": 7525,
      "unce": 7526,
      "defs": 7527,
      "fragment": 7528,
      "Pay": 7529,
      "focus": 7530,
      "iodic": 7531,
      "generated": 7532,
      "Ġdictionaries": 7533,
      "Ġinitialized": 7534,
      "surface": 7535,
      "Ġpredicate": 7536,
      "regions": 7537,
      "coverage": 7538,
      "ĠAWS": 7539,
      "Show": 7540,
      "wiki": 7541,
      "rv": 7542,
      "versal": 7543,
      "hdr": 7544,
      "Ġentities": 7545,
      "Union": 7546,
      "Ġpopulate": 7547,
      "alm": 7548,
      "aign": 7549,
      "mapper": 7550,
      "some": 7551,
      "Rel": 7552,
      "ĠÐ": 7553,
      "Ġdatasets": 7554,
      "pretty": 7555,
      "notes": 7556,
      "uniform": 7557,
      "cursively": 7558,
      "Ġconflict": 7559,
      "Stack": 7560,
      "xies": 7561,
      "riptor": 7562,
      "describe": 7563,
      "Ġlocals": 7564,
      "Ġsol": 7565,
      "VAR": 7566,
      "compiler": 7567,
      "Ġcandidates": 7568,
      "ĠTag": 7569,
      "Ġgenes": 7570,
      "gf": 7571,
      "spac": 7572,
      "Dep": 7573,
      "illi": 7574,
      "ĠClass": 7575,
      "Ġui": 7576,
      "ĠMap": 7577,
      "Ġoverlap": 7578,
      "Ġincorrect": 7579,
      "Ġsla": 7580,
      "Extract": 7581,
      "(\"<": 7582,
      "Ġrepresents": 7583,
      "asses": 7584,
      "retch": 7585,
      "ational": 7586,
      "Ġnative": 7587,
      "examples": 7588,
      "Generator": 7589,
      "tcp": 7590,
      "...,": 7591,
      "stitution": 7592,
      "ĠColumn": 7593,
      "96": 7594,
      "chan": 7595,
      "QUEST": 7596,
      "Ġthrow": 7597,
      "Ġassumed": 7598,
      "Expression": 7599,
      "hexdigest": 7600,
      "VM": 7601,
      "BY": 7602,
      "ĠGe": 7603,
      "Ġpip": 7604,
      "Ġest": 7605,
      "ĠSave": 7606,
      "Ġdicts": 7607,
      "ln": 7608,
      "Ġlongitude": 7609,
      "Mult": 7610,
      "got": 7611,
      "checks": 7612,
      "qq": 7613,
      "START": 7614,
      "Root": 7615,
      "Rect": 7616,
      "ĠSequence": 7617,
      "_=": 7618,
      "vcf": 7619,
      "orders": 7620,
      "cha": 7621,
      "interfaces": 7622,
      "DP": 7623,
      "ov": 7624,
      "One": 7625,
      "Ġpat": 7626,
      "Ġoutside": 7627,
      "CONT": 7628,
      "Ġsever": 7629,
      "ĠDoc": 7630,
      "EP": 7631,
      "remaining": 7632,
      "daemon": 7633,
      "Ġquestion": 7634,
      "routes": 7635,
      "Ġports": 7636,
      "stone": 7637,
      "definitions": 7638,
      "ROOT": 7639,
      "Main": 7640,
      "Ġstatistics": 7641,
      "neighbor": 7642,
      "pied": 7643,
      "Fore": 7644,
      "])[": 7645,
      "Ġpress": 7646,
      "DEX": 7647,
      "hit": 7648,
      "clicked": 7649,
      "fied": 7650,
      "Ġenter": 7651,
      "Ġ90": 7652,
      "bridge": 7653,
      "Ġvisual": 7654,
      "Ġdegrees": 7655,
      "ĠExtract": 7656,
      "rst": 7657,
      "è¿": 7658,
      "inds": 7659,
      "CACHE": 7660,
      "terminal": 7661,
      "precation": 7662,
      "Comm": 7663,
      "Ġweek": 7664,
      "outine": 7665,
      "codeError": 7666,
      "Normal": 7667,
      "scroll": 7668,
      "3333": 7669,
      "quant": 7670,
      "Ġprojection": 7671,
      "critical": 7672,
      "([])": 7673,
      "Ġobservation": 7674,
      "rdf": 7675,
      "Ġlegend": 7676,
      "irror": 7677,
      "DELETE": 7678,
      "digits": 7679,
      "Ġinstanti": 7680,
      "Top": 7681,
      "Ġdecoded": 7682,
      "Mixin": 7683,
      "must": 7684,
      "vg": 7685,
      "ĠLine": 7686,
      "under": 7687,
      "Ġhandling": 7688,
      "bsocket": 7689,
      "density": 7690,
      "filtered": 7691,
      "jectory": 7692,
      "iles": 7693,
      "ĠPrint": 7694,
      "\"\"\",": 7695,
      "(\"_": 7696,
      "minion": 7697,
      "cay": 7698,
      "Ġconsider": 7699,
      "objective": 7700,
      "boardInterrupt": 7701,
      "jar": 7702,
      "Ġsolver": 7703,
      "Ġcreates": 7704,
      "Plot": 7705,
      "graphic": 7706,
      "clock": 7707,
      "...')": 7708,
      "æķ": 7709,
      "oter": 7710,
      "()])": 7711,
      "Ġgoogle": 7712,
      "NN": 7713,
      "Empty": 7714,
      "')),": 7715,
      "82": 7716,
      "Sec": 7717,
      "horizontal": 7718,
      "ĠSalt": 7719,
      "Ġabort": 7720,
      "liance": 7721,
      "Ġsmooth": 7722,
      "resolved": 7723,
      "COM": 7724,
      "Flags": 7725,
      "udo": 7726,
      "IZ": 7727,
      "->": 7728,
      "Ġcurrency": 7729,
      "ĠFormat": 7730,
      "Ġtranslation": 7731,
      "Ġ\"\".": 7732,
      "COMM": 7733,
      "dicts": 7734,
      "Den": 7735,
      "IR": 7736,
      "Ġdates": 7737,
      "executor": 7738,
      "decoder": 7739,
      "Cond": 7740,
      "Volume": 7741,
      "Ġol": 7742,
      "numeric": 7743,
      "nonce": 7744,
      "dicator": 7745,
      "_):": 7746,
      "LIC": 7747,
      "relationship": 7748,
      "Ġinject": 7749,
      "activate": 7750,
      "Lib": 7751,
      "Ġer": 7752,
      "Ġtok": 7753,
      "quee": 7754,
      "Ġraises": 7755,
      "Ġpoly": 7756,
      "Ġbra": 7757,
      "Ġexamples": 7758,
      "dating": 7759,
      "Ġbook": 7760,
      "except": 7761,
      "Ġspecifying": 7762,
      "Ġintegers": 7763,
      "inx": 7764,
      "Ġbasis": 7765,
      "_[": 7766,
      "health": 7767,
      "Ġrgb": 7768,
      "cipal": 7769,
      "markup": 7770,
      "Hist": 7771,
      "odb": 7772,
      "inspect": 7773,
      "shapes": 7774,
      "2000": 7775,
      "Copy": 7776,
      "Pattern": 7777,
      "Ġcategories": 7778,
      "Ġhashlib": 7779,
      "+\"": 7780,
      "Ġthings": 7781,
      "Err": 7782,
      "Writer": 7783,
      "gas": 7784,
      "Json": 7785,
      "Ġls": 7786,
      "Ġpkt": 7787,
      "six": 7788,
      "uber": 7789,
      "Ġcanvas": 7790,
      "UNK": 7791,
      "sertionError": 7792,
      "Raw": 7793,
      "Ġcancel": 7794,
      "artist": 7795,
      "\":\"": 7796,
      "Ġroom": 7797,
      "ĠPY": 7798,
      "ashboard": 7799,
      "Active": 7800,
      "serted": 7801,
      "Ġwhite": 7802,
      "working": 7803,
      "LOAD": 7804,
      "angles": 7805,
      "seline": 7806,
      "ĠParameter": 7807,
      "Ġ','.": 7808,
      "Ġecho": 7809,
      "Ġ13": 7810,
      "completed": 7811,
      "Display": 7812,
      "'m": 7813,
      "URCE": 7814,
      "removed": 7815,
      "RAN": 7816,
      "Ġforms": 7817,
      "sume": 7818,
      "resolution": 7819,
      "DEN": 7820,
      "Ġ{!": 7821,
      "ĠPri": 7822,
      "ĠMark": 7823,
      "STATUS": 7824,
      "Ġfront": 7825,
      "dry": 7826,
      "mongo": 7827,
      "cuit": 7828,
      "Ġlatitude": 7829,
      "Comple": 7830,
      "ĠDelete": 7831,
      "maybe": 7832,
      "ji": 7833,
      "gid": 7834,
      "Ġcs": 7835,
      "initializer": 7836,
      "kv": 7837,
      "litude": 7838,
      "OPTION": 7839,
      "mts": 7840,
      "nm": 7841,
      "Ġformats": 7842,
      "objs": 7843,
      "Ġdetail": 7844,
      "Ġhyper": 7845,
      "TP": 7846,
      "Pe": 7847,
      "Ġlogical": 7848,
      "Word": 7849,
      "inator": 7850,
      "datasets": 7851,
      "LAB": 7852,
      "Ġcriteria": 7853,
      "Ġactivity": 7854,
      "Ho": 7855,
      "ĠPass": 7856,
      "calar": 7857,
      "minor": 7858,
      "UTF": 7859,
      "ĠUsed": 7860,
      "Ġsubparsers": 7861,
      "Ġcomparison": 7862,
      "cally": 7863,
      "Ġinstruction": 7864,
      "Ġrather": 7865,
      "Ġ\"{}\"": 7866,
      "Ġtaken": 7867,
      "Ġaccepted": 7868,
      "CD": 7869,
      "mouse": 7870,
      "ADD": 7871,
      "Ġperm": 7872,
      "priv": 7873,
      "Ġ'-'": 7874,
      "Ġgithub": 7875,
      "subplot": 7876,
      "written": 7877,
      "Ġdiv": 7878,
      "secure": 7879,
      "market": 7880,
      "??": 7881,
      "negative": 7882,
      "Loader": 7883,
      "Cloud": 7884,
      "chart": 7885,
      "ĠWeb": 7886,
      "Ġencrypted": 7887,
      "tls": 7888,
      "SSAGE": 7889,
      "Ġdetected": 7890,
      "Bit": 7891,
      "GIN": 7892,
      "ĠEX": 7893,
      "`):": 7894,
      "Ġam": 7895,
      "Binary": 7896,
      "hest": 7897,
      "Attr": 7898,
      "Make": 7899,
      "Ġlc": 7900,
      "regular": 7901,
      "Ġperformed": 7902,
      "matched": 7903,
      "Ġtesting": 7904,
      "normalized": 7905,
      "ggle": 7906,
      "Ġcatch": 7907,
      "Ġcipher": 7908,
      "achine": 7909,
      "Interval": 7910,
      "(',')": 7911,
      "HOST": 7912,
      "usr": 7913,
      "Ġdepending": 7914,
      "Ġcalculation": 7915,
      "evaluate": 7916,
      "101": 7917,
      "information": 7918,
      "MC": 7919,
      "ĠSearch": 7920,
      "Ġitertools": 7921,
      "Ġblue": 7922,
      "Unsupported": 7923,
      "ctrl": 7924,
      "rices": 7925,
      "Ġroles": 7926,
      "ĠSign": 7927,
      "ĠEnsure": 7928,
      "ssib": 7929,
      "quick": 7930,
      "GA": 7931,
      "capacity": 7932,
      "}\")": 7933,
      "imal": 7934,
      "sumed": 7935,
      "Ġcombined": 7936,
      "azard": 7937,
      "structions": 7938,
      "subscribe": 7939,
      "ACT": 7940,
      "POINT": 7941,
      "ValidationError": 7942,
      "operand": 7943,
      "ĠTemplate": 7944,
      "ye": 7945,
      "Ġrestart": 7946,
      "Ġsimply": 7947,
      "tice": 7948,
      "Ġdatatype": 7949,
      "Region": 7950,
      "Tags": 7951,
      "Float": 7952,
      "hot": 7953,
      "Ġwave": 7954,
      "TOKEN": 7955,
      "ĠIPv": 7956,
      "Stats": 7957,
      "('\"": 7958,
      "artbeat": 7959,
      "Ġregions": 7960,
      "GP": 7961,
      "Height": 7962,
      "Ġqueries": 7963,
      "ipy": 7964,
      ">,": 7965,
      "eration": 7966,
      "define": 7967,
      "velength": 7968,
      "âĶĢâĶĢ": 7969,
      "AML": 7970,
      "nor": 7971,
      "erce": 7972,
      "aring": 7973,
      "learning": 7974,
      "Ġaux": 7975,
      "Ġimported": 7976,
      "Ġ{:": 7977,
      "\"}": 7978,
      "Ġten": 7979,
      "Ġdebu": 7980,
      "Ġaws": 7981,
      "subscription": 7982,
      "/.": 7983,
      "ging": 7984,
      "acquire": 7985,
      "Ġassignment": 7986,
      "pixels": 7987,
      "tenant": 7988,
      "Loop": 7989,
      "requires": 7990,
      "ĠTake": 7991,
      "Ġidentify": 7992,
      ".'''": 7993,
      "blank": 7994,
      "mn": 7995,
      "person": 7996,
      "funcs": 7997,
      "initialized": 7998,
      "ĠFe": 7999,
      "Ġinherit": 8000,
      "ĠNetwork": 8001,
      "TAG": 8002,
      "nick": 8003,
      "enotype": 8004,
      "Ġgp": 8005,
      "Ġroll": 8006,
      "oute": 8007,
      "formatted": 8008,
      "Register": 8009,
      "Database": 8010,
      "Ġexactly": 8011,
      "za": 8012,
      "Ġnotebook": 8013,
      "={\"": 8014,
      "mtree": 8015,
      ":].": 8016,
      "TF": 8017,
      "Ġ'$": 8018,
      "livery": 8019,
      "Ġfinish": 8020,
      "iving": 8021,
      "updates": 8022,
      "Ġpmag": 8023,
      "Ġoffsets": 8024,
      "Ġleaf": 8025,
      "Ġactivation": 8026,
      "ulative": 8027,
      "Ġtrim": 8028,
      "Ġlab": 8029,
      "033": 8030,
      "Encoder": 8031,
      "Ġconfirm": 8032,
      "theme": 8033,
      "Ġissues": 8034,
      "Net": 8035,
      "Ġ256": 8036,
      "DateTime": 8037,
      "Ġpanel": 8038,
      "wcs": 8039,
      "Ġusu": 8040,
      "sampling": 8041,
      "93": 8042,
      "92": 8043,
      "bri": 8044,
      "Ġshard": 8045,
      "Ġwalk": 8046,
      "Ġtogether": 8047,
      "customer": 8048,
      "Ġtwilio": 8049,
      "appa": 8050,
      "pur": 8051,
      "recursive": 8052,
      "Ġct": 8053,
      "Ġchat": 8054,
      "Success": 8055,
      "Ġoper": 8056,
      "minutes": 8057,
      "Ġacc": 8058,
      "Ġquiet": 8059,
      "Ġincrement": 8060,
      "Ġxs": 8061,
      "Ġobserved": 8062,
      "Ġreplaced": 8063,
      "Generate": 8064,
      "ĠSource": 8065,
      "svg": 8066,
      "Ġintervals": 8067,
      "receive": 8068,
      "FIN": 8069,
      "linspace": 8070,
      "large": 8071,
      "vp": 8072,
      "inct": 8073,
      "urther": 8074,
      "ĠUN": 8075,
      "(\"'": 8076,
      "Ġoperand": 8077,
      "lens": 8078,
      "gradient": 8079,
      "Pix": 8080,
      "notebook": 8081,
      "Sup": 8082,
      "Flag": 8083,
      "41": 8084,
      "Ġ[%": 8085,
      "Ġtemplates": 8086,
      "Ġmaps": 8087,
      "Stop": 8088,
      "difference": 8089,
      "strptime": 8090,
      "queeze": 8091,
      "species": 8092,
      "klass": 8093,
      "Construct": 8094,
      "Ġwaiting": 8095,
      "vocation": 8096,
      "Ġfi": 8097,
      ":{": 8098,
      "Package": 8099,
      "Ġ25": 8100,
      "Ġcompatibility": 8101,
      "ĠPol": 8102,
      "Ġ\"\":": 8103,
      ":]:": 8104,
      "ftp": 8105,
      "going": 8106,
      "eta": 8107,
      "Ġrhs": 8108,
      "scatter": 8109,
      "hits": 8110,
      "Ġstatements": 8111,
      "dataframe": 8112,
      "Ġextended": 8113,
      "Ġexecutor": 8114,
      "MQ": 8115,
      "fraction": 8116,
      "Ġcoefficients": 8117,
      "Ġtrying": 8118,
      "slots": 8119,
      "seudo": 8120,
      "subset": 8121,
      "Ġec": 8122,
      "aker": 8123,
      "two": 8124,
      "disabled": 8125,
      "mous": 8126,
      "Init": 8127,
      "viders": 8128,
      "genome": 8129,
      "clared": 8130,
      "currence": 8131,
      "Ġ'(": 8132,
      "station": 8133,
      "Ġworld": 8134,
      "Ġanchor": 8135,
      "Ġdesign": 8136,
      "relu": 8137,
      "Ġ\"#": 8138,
      "ĠDon": 8139,
      "Ġsignals": 8140,
      "ĠSeries": 8141,
      "cipher": 8142,
      "Serialize": 8143,
      "Ġinterpolation": 8144,
      "coun": 8145,
      "])]": 8146,
      "iming": 8147,
      "mapped": 8148,
      "combo": 8149,
      "Ġderived": 8150,
      "COLOR": 8151,
      "charge": 8152,
      "Ġboard": 8153,
      "unicate": 8154,
      "Ġhours": 8155,
      "Total": 8156,
      "Ġsq": 8157,
      "intersection": 8158,
      "arrow": 8159,
      "Ġpp": 8160,
      "renderer": 8161,
      ",**": 8162,
      "çĶ": 8163,
      "answer": 8164,
      "Ġbasename": 8165,
      "Enter": 8166,
      "placeholder": 8167,
      "GRO": 8168,
      "DED": 8169,
      "Ġsending": 8170,
      "Ġ{}:": 8171,
      "Ġage": 8172,
      "ĠXXX": 8173,
      "Ġblack": 8174,
      "inity": 8175,
      "ceil": 8176,
      "Ġkeyid": 8177,
      "iteration": 8178,
      "Ġwon": 8179,
      "ĠSup": 8180,
      "Ġrouting": 8181,
      "Elements": 8182,
      "Ġsimulation": 8183,
      "lations": 8184,
      "Ġhuman": 8185,
      "ĠStore": 8186,
      "ĠPh": 8187,
      "/',": 8188,
      "unded": 8189,
      "syntax": 8190,
      "Ġcapture": 8191,
      "Unexpected": 8192,
      "Ġbinding": 8193,
      "utcnow": 8194,
      "ĠSpecifi": 8195,
      "ĠWill": 8196,
      "bing": 8197,
      "ĠGET": 8198,
      "Ġobjective": 8199,
      "Ġcomma": 8200,
      "Cor": 8201,
      "utine": 8202,
      "])))": 8203,
      "Bool": 8204,
      "vention": 8205,
      "ptide": 8206,
      "Ġsuc": 8207,
      "Ġgenome": 8208,
      ")._": 8209,
      "sequ": 8210,
      "Ġflush": 8211,
      "Ġrepeat": 8212,
      "Ġbeginning": 8213,
      "cmp": 8214,
      "ailab": 8215,
      "ĠStream": 8216,
      "Ġdims": 8217,
      "ĠQtCore": 8218,
      "fastq": 8219,
      "ĠIs": 8220,
      "Prefix": 8221,
      "ech": 8222,
      "km": 8223,
      "mav": 8224,
      "ĠVM": 8225,
      "cleanup": 8226,
      "ANCE": 8227,
      "small": 8228,
      "++": 8229,
      "Failure": 8230,
      "mega": 8231,
      "temperature": 8232,
      "bootstrap": 8233,
      "Ġrepe": 8234,
      "]{": 8235,
      "attachment": 8236,
      "adow": 8237,
      "probab": 8238,
      "rich": 8239,
      "lar": 8240,
      "hat": 8241,
      "Ġ500": 8242,
      "Rate": 8243,
      "bgp": 8244,
      "problem": 8245,
      "Sets": 8246,
      "Ġcss": 8247,
      "Ġapps": 8248,
      "Ġarc": 8249,
      "accounts": 8250,
      "Ġwriting": 8251,
      "Ġpredictions": 8252,
      "Cho": 8253,
      "IME": 8254,
      "Ġglobals": 8255,
      "Ġdigits": 8256,
      "wers": 8257,
      "Ġgeneric": 8258,
      "={}):": 8259,
      "ĠAssertionError": 8260,
      "='%": 8261,
      "rsplit": 8262,
      "trunc": 8263,
      "widgets": 8264,
      "}:{": 8265,
      "Ġchart": 8266,
      "Ġir": 8267,
      "Ġnan": 8268,
      "statements": 8269,
      "Ġhandled": 8270,
      "latitude": 8271,
      "unct": 8272,
      "Denied": 8273,
      "Ġpdf": 8274,
      "perform": 8275,
      "associ": 8276,
      "\")[": 8277,
      "ToString": 8278,
      "Space": 8279,
      "references": 8280,
      "ante": 8281,
      "Ġgoing": 8282,
      "hint": 8283,
      "disconnect": 8284,
      "TIMEOUT": 8285,
      "artifact": 8286,
      "Ġnewline": 8287,
      "CATE": 8288,
      "gence": 8289,
      "Ġdct": 8290,
      "bacterium": 8291,
      "Dim": 8292,
      "means": 8293,
      "Ġcomputation": 8294,
      "vrf": 8295,
      "vided": 8296,
      "readlines": 8297,
      "Ġlogic": 8298,
      "alette": 8299,
      "phone": 8300,
      "runs": 8301,
      "ARD": 8302,
      "Ġclusters": 8303,
      "retrie": 8304,
      "utype": 8305,
      "cks": 8306,
      "mapp": 8307,
      "Ġzoom": 8308,
      "()['": 8309,
      "ĠTran": 8310,
      "vanced": 8311,
      "1024": 8312,
      "Ġcod": 8313,
      "udy": 8314,
      "tin": 8315,
      "xb": 8316,
      "Ġsilent": 8317,
      "()``": 8318,
      "arger": 8319,
      "ledge": 8320,
      "Ġmicro": 8321,
      "Ġapplic": 8322,
      "Usage": 8323,
      "(\"\")": 8324,
      "visor": 8325,
      "Ġdaemon": 8326,
      "Ġestimate": 8327,
      "alancer": 8328,
      "lays": 8329,
      "ctypes": 8330,
      "exact": 8331,
      "verbosity": 8332,
      "ĠInstance": 8333,
      "Ġ128": 8334,
      "TEMPLATE": 8335,
      "ĠAct": 8336,
      "ĠMin": 8337,
      "Ġmet": 8338,
      "cial": 8339,
      "Ġzer": 8340,
      "allenge": 8341,
      "represent": 8342,
      "ĠDec": 8343,
      "Ġurlparse": 8344,
      "intervals": 8345,
      "seen": 8346,
      "Ġreally": 8347,
      "ĠInst": 8348,
      "nado": 8349,
      "Ġpassing": 8350,
      "RPC": 8351,
      "Ġbp": 8352,
      "workspace": 8353,
      "legal": 8354,
      "BACK": 8355,
      "scheduler": 8356,
      "Ġpagin": 8357,
      "Ġverb": 8358,
      "Tab": 8359,
      "Memory": 8360,
      "Ġcorrectly": 8361,
      "OD": 8362,
      "REQUEST": 8363,
      "Ġdl": 8364,
      "variants": 8365,
      "51": 8366,
      "./": 8367,
      "Ġinstrument": 8368,
      "without": 8369,
      "quality": 8370,
      "PP": 8371,
      "Ġcons": 8372,
      "Ġchr": 8373,
      "Ġcompiler": 8374,
      "83": 8375,
      "Ġtranslate": 8376,
      "ravel": 8377,
      "cons": 8378,
      "Ġinverse": 8379,
      "Ġrunner": 8380,
      "Descriptor": 8381,
      "dy": 8382,
      "xc": 8383,
      "voked": 8384,
      "cannot": 8385,
      "ĠSkip": 8386,
      "exchange": 8387,
      "Ġmk": 8388,
      "ĠMay": 8389,
      "ĠPOST": 8390,
      "ilename": 8391,
      "take": 8392,
      "Ġspecifies": 8393,
      "__'):": 8394,
      "ldp": 8395,
      "Ġcm": 8396,
      "Ġattrib": 8397,
      "styles": 8398,
      "article": 8399,
      "prin": 8400,
      "queries": 8401,
      "matching": 8402,
      "Ġmuch": 8403,
      "dk": 8404,
      "Ġfully": 8405,
      "Stat": 8406,
      "Enum": 8407,
      "interp": 8408,
      "((\"": 8409,
      "trim": 8410,
      "Ġscaling": 8411,
      "atal": 8412,
      "cookies": 8413,
      "ĠAb": 8414,
      "Ġcid": 8415,
      "ĠSp": 8416,
      "ĠRo": 8417,
      "BC": 8418,
      "Ġextend": 8419,
      "Ġproblems": 8420,
      "COMP": 8421,
      "Ġapproxim": 8422,
      "=('": 8423,
      "Last": 8424,
      "Ġretries": 8425,
      "wind": 8426,
      "Ġ{}\\": 8427,
      "Attributes": 8428,
      "ĠAllow": 8429,
      "mpaign": 8430,
      "Ġlengths": 8431,
      "ĠKeyboardInterrupt": 8432,
      "Ġacross": 8433,
      "Ġdirname": 8434,
      "Socket": 8435,
      "vidence": 8436,
      "SOURCE": 8437,
      "Ġ(`": 8438,
      "Ġonto": 8439,
      "delimiter": 8440,
      "Ġgzip": 8441,
      "preview": 8442,
      "Ġcertain": 8443,
      "Len": 8444,
      "did": 8445,
      "Ġhalf": 8446,
      "minute": 8447,
      "vd": 8448,
      "}\",": 8449,
      "Ġhistogram": 8450,
      "ighest": 8451,
      "REF": 8452,
      "Ġpreviously": 8453,
      "eig": 8454,
      "iterations": 8455,
      "(\"\"\"": 8456,
      "XY": 8457,
      "Ġoptimizer": 8458,
      "Controller": 8459,
      "inations": 8460,
      "Ġcrypto": 8461,
      "dicates": 8462,
      "[[": 8463,
      "Ġfoo": 8464,
      "coin": 8465,
      "restart": 8466,
      "Ġnotify": 8467,
      "Transaction": 8468,
      "'ve": 8469,
      "Ġtoler": 8470,
      "Ġlaunch": 8471,
      "OLD": 8472,
      "Ġmajor": 8473,
      "Ġcharset": 8474,
      "utures": 8475,
      "Ġcoverage": 8476,
      "Ġexpanded": 8477,
      "Ġsr": 8478,
      "strategy": 8479,
      "Ġlocalctx": 8480,
      "ĠDist": 8481,
      "Ġmandatory": 8482,
      "ocus": 8483,
      "Ġunderlying": 8484,
      "criteria": 8485,
      "Shape": 8486,
      "ailability": 8487,
      "Non": 8488,
      "edu": 8489,
      "Ġet": 8490,
      "Ġprob": 8491,
      "imize": 8492,
      "RUN": 8493,
      "omy": 8494,
      "aming": 8495,
      "Ġbug": 8496,
      "compatible": 8497,
      "WE": 8498,
      "``:": 8499,
      "ĠBad": 8500,
      "QtCore": 8501,
      "osome": 8502,
      "xlim": 8503,
      "__',": 8504,
      "asked": 8505,
      "Ġreplacement": 8506,
      "Ġsin": 8507,
      "Ġminor": 8508,
      "Close": 8509,
      "Ġproperly": 8510,
      "BL": 8511,
      "quad": 8512,
      "LIB": 8513,
      "tzinfo": 8514,
      "mv": 8515,
      "Che": 8516,
      "rations": 8517,
      "Ġtun": 8518,
      "Ġrelevant": 8519,
      "deriv": 8520,
      "clause": 8521,
      "degree": 8522,
      "requested": 8523,
      "Ġmoment": 8524,
      "spacing": 8525,
      "lored": 8526,
      "partitions": 8527,
      "ĠSession": 8528,
      "Ġ{{": 8529,
      "xF": 8530,
      "Ġâ": 8531,
      "Ġtol": 8532,
      "ĠIterable": 8533,
      "Ġinterfaces": 8534,
      "assignment": 8535,
      "LAY": 8536,
      "Ġneighbors": 8537,
      "Ðµ": 8538,
      "Ġocc": 8539,
      "vailable": 8540,
      "Ġaff": 8541,
      "ellow": 8542,
      "ĠConfiguration": 8543,
      "ylim": 8544,
      "Ġattached": 8545,
      "Ġable": 8546,
      "tell": 8547,
      "ĠPlot": 8548,
      "Ġwhitespace": 8549,
      "ĠLAT": 8550,
      "bindings": 8551,
      "+',": 8552,
      "ĠProject": 8553,
      "Ġvertical": 8554,
      "TES": 8555,
      "ĠDjango": 8556,
      "RF": 8557,
      "leting": 8558,
      "Ġbrowser": 8559,
      "ĠKeyword": 8560,
      "cular": 8561,
      "Parent": 8562,
      "Expr": 8563,
      "special": 8564,
      "Ġattachment": 8565,
      "ĠSMALL": 8566,
      "raries": 8567,
      "Ġchosen": 8568,
      "Skip": 8569,
      "onymous": 8570,
      "71": 8571,
      "Coord": 8572,
      "FromString": 8573,
      "æķ°": 8574,
      "ĠVariable": 8575,
      "errHandler": 8576,
      "Ġcleanup": 8577,
      "SHA": 8578,
      "ĠEnd": 8579,
      "creation": 8580,
      "Ġquality": 8581,
      ">')": 8582,
      "Ġfid": 8583,
      "FLAGS": 8584,
      "Ġbalance": 8585,
      "acce": 8586,
      "81": 8587,
      "FOR": 8588,
      "lobs": 8589,
      "Ġaliases": 8590,
      "\"]))": 8591,
      "prefixes": 8592,
      "Allow": 8593,
      "Ġchoose": 8594,
      "TERN": 8595,
      "ĠColor": 8596,
      "wsgi": 8597,
      "295": 8598,
      "DL": 8599,
      "Ġffi": 8600,
      "Ġsites": 8601,
      "Ð°": 8602,
      "åħ": 8603,
      "Ġemit": 8604,
      "clients": 8605,
      "Ġsubmit": 8606,
      "broadcast": 8607,
      "ERS": 8608,
      "serialized": 8609,
      "IGHT": 8610,
      "ĠChange": 8611,
      "riendly": 8612,
      "Ð¾": 8613,
      "Ġfc": 8614,
      "Section": 8615,
      "ĠGit": 8616,
      "6666": 8617,
      "SERVER": 8618,
      "lets": 8619,
      "erica": 8620,
      "Ġftype": 8621,
      "quantity": 8622,
      "returncode": 8623,
      "CHAR": 8624,
      "mor": 8625,
      "Cons": 8626,
      "Ġdepends": 8627,
      "Ġ\"[": 8628,
      "Ġappear": 8629,
      "Http": 8630,
      "Ġund": 8631,
      "Ġprog": 8632,
      "Conv": 8633,
      "Ġdegree": 8634,
      "rections": 8635,
      "ĠGtk": 8636,
      "pkt": 8637,
      "Ġpoll": 8638,
      "Compute": 8639,
      "NC": 8640,
      "KET": 8641,
      "parallel": 8642,
      "ĠSc": 8643,
      "Cmd": 8644,
      "adapt": 8645,
      "imports": 8646,
      "Folder": 8647,
      "getvalue": 8648,
      "CHAN": 8649,
      "AV": 8650,
      "mappings": 8651,
      ":')": 8652,
      "Es": 8653,
      "Wait": 8654,
      "Ġneighbor": 8655,
      "TEST": 8656,
      ")``": 8657,
      "into": 8658,
      "Ġexchange": 8659,
      "Ġsoft": 8660,
      "Ġtp": 8661,
      "endpoints": 8662,
      "Mask": 8663,
      "Ġcallbacks": 8664,
      "Ġii": 8665,
      "fileobj": 8666,
      "Ġcompletion": 8667,
      "ipeline": 8668,
      "activation": 8669,
      "camera": 8670,
      "Ġke": 8671,
      "Ġins": 8672,
      "Ġbecome": 8673,
      "sistency": 8674,
      "429": 8675,
      "air": 8676,
      "Ġmeasurement": 8677,
      "Ġplots": 8678,
      "SB": 8679,
      "Ġaffect": 8680,
      "tok": 8681,
      "Ġcov": 8682,
      "'^": 8683,
      "starting": 8684,
      "SPACE": 8685,
      "optimizer": 8686,
      "Ġtrailing": 8687,
      "SES": 8688,
      "Ġimmediately": 8689,
      "responses": 8690,
      "masked": 8691,
      "Jo": 8692,
      "ongs": 8693,
      "ĠEither": 8694,
      "Ġatoms": 8695,
      "Bound": 8696,
      "gres": 8697,
      ".+": 8698,
      "VEL": 8699,
      "instrument": 8700,
      "pay": 8701,
      "]\"": 8702,
      "Ġrr": 8703,
      "ĠMO": 8704,
      "---+": 8705,
      "Signal": 8706,
      "Ġ400": 8707,
      "ctest": 8708,
      "ĠUp": 8709,
      "ĠApi": 8710,
      "Ġrename": 8711,
      "thers": 8712,
      "dirty": 8713,
      "usted": 8714,
      "Ġdc": 8715,
      "Ġdummy": 8716,
      "predicate": 8717,
      "ĠLATIN": 8718,
      "ĠBoolean": 8719,
      "Ġhdr": 8720,
      "Report": 8721,
      "ĠAddress": 8722,
      "chdir": 8723,
      "groupby": 8724,
      "Ġlistener": 8725,
      "ups": 8726,
      "directories": 8727,
      "Sim": 8728,
      "!\"": 8729,
      "Ġcompressed": 8730,
      "Ġvariance": 8731,
      "Ġcutoff": 8732,
      "intf": 8733,
      "Ġproj": 8734,
      "Ġgetting": 8735,
      "Ġseparated": 8736,
      "taint": 8737,
      "anning": 8738,
      "Ġends": 8739,
      "Ġ'\\\\": 8740,
      "Authorization": 8741,
      "composition": 8742,
      "bn": 8743,
      "peg": 8744,
      "caller": 8745,
      "datatype": 8746,
      "hyper": 8747,
      "overflow": 8748,
      "Ġagg": 8749,
      "Required": 8750,
      "registered": 8751,
      "Ġdecorated": 8752,
      "Ġoverrid": 8753,
      "INGS": 8754,
      "vie": 8755,
      "LENG": 8756,
      "Ġepsilon": 8757,
      "Random": 8758,
      "lename": 8759,
      "prod": 8760,
      "999": 8761,
      "Ġerrno": 8762,
      "longitude": 8763,
      "Ġindicate": 8764,
      "Cluster": 8765,
      "Ġspecies": 8766,
      "rune": 8767,
      "expires": 8768,
      "Ġbs": 8769,
      "dependency": 8770,
      "æĪ": 8771,
      "Operator": 8772,
      "argparse": 8773,
      "assessment": 8774,
      "plane": 8775,
      "å¤": 8776,
      "adj": 8777,
      "rigin": 8778,
      "Ġrm": 8779,
      "policies": 8780,
      "?',": 8781,
      "Password": 8782,
      "alo": 8783,
      "ĠContext": 8784,
      "rotation": 8785,
      "journal": 8786,
      "Ġfontsize": 8787,
      "land": 8788,
      "GO": 8789,
      "ĠCloud": 8790,
      "rmtree": 8791,
      "512": 8792,
      "izable": 8793,
      "Ġdownloaded": 8794,
      "payment": 8795,
      "Ġalloc": 8796,
      "histogram": 8797,
      "Ġrand": 8798,
      "Ġperson": 8799,
      "projection": 8800,
      "Ġna": 8801,
      "Ġlearning": 8802,
      "ĠMaximum": 8803,
      "LENGTH": 8804,
      "NV": 8805,
      "but": 8806,
      "ãĢ": 8807,
      "TABLE": 8808,
      "equ": 8809,
      "Ġpot": 8810,
      "Ġ80": 8811,
      "each": 8812,
      "extent": 8813,
      "maker": 8814,
      "Ġcontained": 8815,
      "xtick": 8816,
      "Ġ31": 8817,
      "Ġworkers": 8818,
      "unused": 8819,
      "xyz": 8820,
      "phan": 8821,
      "CREATE": 8822,
      "routing": 8823,
      "()`": 8824,
      "Ġphone": 8825,
      "ĠISO": 8826,
      "Ġbroadcast": 8827,
      "domains": 8828,
      "ITS": 8829,
      "Ġpf": 8830,
      "Segment": 8831,
      "Ġcorrelation": 8832,
      "bf": 8833,
      "anchor": 8834,
      "mails": 8835,
      "west": 8836,
      "Ġpositional": 8837,
      "Ġpopulation": 8838,
      "Ġstrategy": 8839,
      "Ġcopied": 8840,
      "Ġcrop": 8841,
      "HTML": 8842,
      "extended": 8843,
      "dapt": 8844,
      "widths": 8845,
      "Ġworkspace": 8846,
      "SIGN": 8847,
      "candidates": 8848,
      "ulus": 8849,
      "ertificate": 8850,
      "oct": 8851,
      "Ġ'').": 8852,
      "REG": 8853,
      "~~~~": 8854,
      "wo": 8855,
      "tem": 8856,
      "wallet": 8857,
      "Ġexponent": 8858,
      "zed": 8859,
      "Ġtic": 8860,
      "ĠRO": 8861,
      "hd": 8862,
      "Ġfurther": 8863,
      "lator": 8864,
      "Ġsi": 8865,
      "Ġmedi": 8866,
      "ĠQueue": 8867,
      "Running": 8868,
      "acked": 8869,
      "gc": 8870,
      "Ġfl": 8871,
      "Ġoauth": 8872,
      "prediction": 8873,
      "gi": 8874,
      "Ġhard": 8875,
      "Ġmail": 8876,
      "Ġ':'": 8877,
      "Ġorientation": 8878,
      "äº": 8879,
      "Creates": 8880,
      "mf": 8881,
      "tot": 8882,
      "ĠConst": 8883,
      "percentage": 8884,
      "increment": 8885,
      "Myco": 8886,
      "helpers": 8887,
      "Statement": 8888,
      "authorization": 8889,
      "Ġ[]):": 8890,
      "Ġoccurred": 8891,
      "Track": 8892,
      "sudo": 8893,
      "LU": 8894,
      "udent": 8895,
      "Ġvlan": 8896,
      "hashes": 8897,
      "BER": 8898,
      "Mod": 8899,
      "Ġsquare": 8900,
      "destroy": 8901,
      "100000": 8902,
      "mysql": 8903,
      "Ġrpc": 8904,
      "TIFI": 8905,
      "}-": 8906,
      "Ġdns": 8907,
      "Ġclients": 8908,
      "boto": 8909,
      "Area": 8910,
      "Ġpprint": 8911,
      "Ġstar": 8912,
      "Ġgap": 8913,
      ")['": 8914,
      "ĠSH": 8915,
      "LT": 8916,
      "provision": 8917,
      "idxs": 8918,
      "bitrary": 8919,
      "collections": 8920,
      "DIS": 8921,
      "Ġhigher": 8922,
      "Ġiterate": 8923,
      "Ġwindows": 8924,
      "Ġpdb": 8925,
      "letter": 8926,
      "Ġplane": 8927,
      "Setting": 8928,
      "Gets": 8929,
      "ners": 8930,
      "MESSAGE": 8931,
      "Ġ------": 8932,
      "ĠCor": 8933,
      "acket": 8934,
      "between": 8935,
      "Ġtodo": 8936,
      "ĠPost": 8937,
      "encryption": 8938,
      "interpre": 8939,
      "Ġprocessor": 8940,
      "(':')": 8941,
      "Internal": 8942,
      "Nodes": 8943,
      "Ġ\"(": 8944,
      "rier": 8945,
      "aking": 8946,
      "observation": 8947,
      "--+": 8948,
      "aux": 8949,
      "ĠPoint": 8950,
      "floor": 8951,
      "CG": 8952,
      "RU": 8953,
      "ned": 8954,
      "ĠLO": 8955,
      "episode": 8956,
      "compound": 8957,
      "lopen": 8958,
      "Timestamp": 8959,
      "containers": 8960,
      "gain": 8961,
      "RECT": 8962,
      "Ġalternative": 8963,
      "namespaces": 8964,
      "Ġnonce": 8965,
      "Ġcum": 8966,
      "asing": 8967,
      "Login": 8968,
      "ĠTType": 8969,
      "Ġordering": 8970,
      "Ġmanually": 8971,
      "Ġreached": 8972,
      "relations": 8973,
      "volumes": 8974,
      "Ġmagnitude": 8975,
      "ĠNULL": 8976,
      "ĠDetermine": 8977,
      "seqs": 8978,
      "ĠDef": 8979,
      "Ġavg": 8980,
      "Ġouter": 8981,
      "ATURE": 8982,
      "ACTION": 8983,
      "CCESS": 8984,
      "Ġpriv": 8985,
      "illa": 8986,
      "Ġstreams": 8987,
      "Ġdocuments": 8988,
      "Ġrecomm": 8989,
      "anging": 8990,
      "encrypt": 8991,
      "'+": 8992,
      "Ġcd": 8993,
      "todo": 8994,
      "\\.": 8995,
      "velope": 8996,
      "=[\"": 8997,
      "asyn": 8998,
      "Ġlarger": 8999,
      "ĠMy": 9000,
      "Ġcanonical": 9001,
      "Ġfits": 9002,
      "Ġdag": 9003,
      "Ġ(``": 9004,
      "nonzero": 9005,
      "ssibly": 9006,
      "Ġsheet": 9007,
      "Ġnamespaces": 9008,
      "appings": 9009,
      "Creating": 9010,
      "Go": 9011,
      "restore": 9012,
      "Ġkill": 9013,
      "Ġ40": 9014,
      "egg": 9015,
      "Ġhaving": 9016,
      "ĠEnvironment": 9017,
      "Ġser": 9018,
      "Ġnc": 9019,
      "aggregate": 9020,
      "reload": 9021,
      "Ġtk": 9022,
      "Ġstuff": 9023,
      "calcul": 9024,
      "Ġelapsed": 9025,
      "urb": 9026,
      "Ġ[('": 9027,
      "Ġosid": 9028,
      "Ġcompound": 9029,
      "Ġcn": 9030,
      "Ġneg": 9031,
      "Ġfake": 9032,
      "Domain": 9033,
      "infile": 9034,
      "feat": 9035,
      "ĠON": 9036,
      "SizePolicy": 9037,
      "Ġattempts": 9038,
      "compression": 9039,
      "Ġminion": 9040,
      "Equal": 9041,
      "Ġdeepcopy": 9042,
      "boundary": 9043,
      "isnan": 9044,
      "Ġrendered": 9045,
      "ĠSerial": 9046,
      "}.{": 9047,
      "mand": 9048,
      "pex": 9049,
      "Ġshutit": 9050,
      "communicate": 9051,
      "Ġsl": 9052,
      "conj": 9053,
      "Ġfloats": 9054,
      "Ġadds": 9055,
      "Columns": 9056,
      "PASS": 9057,
      "Ġleading": 9058,
      "Ġlive": 9059,
      "vcs": 9060,
      "iate": 9061,
      "least": 9062,
      "xture": 9063,
      "Cap": 9064,
      "lax": 9065,
      "Ġpredicted": 9066,
      "ao": 9067,
      "catch": 9068,
      "Cells": 9069,
      "rated": 9070,
      "Ġ###": 9071,
      "pared": 9072,
      "123": 9073,
      "modes": 9074,
      "Ġevaluation": 9075,
      ")?": 9076,
      "letes": 9077,
      "chanism": 9078,
      "ĠRetrieve": 9079,
      "EVENT": 9080,
      "Syn": 9081,
      "Ġtc": 9082,
      "xff": 9083,
      "Ġ17": 9084,
      "Ġfilled": 9085,
      "hardware": 9086,
      "Ġfrozen": 9087,
      "Ġhandles": 9088,
      "Example": 9089,
      "trade": 9090,
      "Ġoptionally": 9091,
      "Ġcoli": 9092,
      "Ġttl": 9093,
      "Ġ18": 9094,
      "possible": 9095,
      "packed": 9096,
      "periods": 9097,
      "crop": 9098,
      "lazy": 9099,
      "quared": 9100,
      "fileno": 9101,
      "ĠPermissionDenied": 9102,
      "scene": 9103,
      "Ġsoup": 9104,
      "Ġfrag": 9105,
      "estimator": 9106,
      "Ġwsaction": 9107,
      "Ġretrieved": 9108,
      "Ġsmaller": 9109,
      "ripts": 9110,
      "ichia": 9111,
      "APP": 9112,
      "decorator": 9113,
      "cherichia": 9114,
      "modify": 9115,
      "ĠPRO": 9116,
      "SerializeToString": 9117,
      "vectors": 9118,
      "Ġdp": 9119,
      "Ġ404": 9120,
      "THON": 9121,
      "canonical": 9122,
      "ĠRequired": 9123,
      "Left": 9124,
      "Ġnl": 9125,
      "=\"{": 9126,
      "Ġmarkers": 9127,
      "inux": 9128,
      "Ġrestore": 9129,
      "mpath": 9130,
      "Ġservers": 9131,
      "lexer": 9132,
      "OrderedDict": 9133,
      "Idx": 9134,
      "Ġdecoder": 9135,
      "Ġnotes": 9136,
      "Help": 9137,
      "ug": 9138,
      "measurement": 9139,
      "Ġln": 9140,
      "COUNT": 9141,
      "åĽ": 9142,
      "Ġmargin": 9143,
      "Ġcontig": 9144,
      "Ġinterest": 9145,
      "Ġzeros": 9146,
      "hdf": 9147,
      "infos": 9148,
      "overwrite": 9149,
      "ynomial": 9150,
      "MAGE": 9151,
      "Ġtenant": 9152,
      "Escherichia": 9153,
      "kb": 9154,
      "Ġrenderer": 9155,
      "bulk": 9156,
      "hub": 9157,
      "}_": 9158,
      "QUIRED": 9159,
      "ĠPub": 9160,
      "ILD": 9161,
      "oral": 9162,
      "Ġsubmission": 9163,
      "Ġdoing": 9164,
      "ĠAdds": 9165,
      "Points": 9166,
      "CUR": 9167,
      "inet": 9168,
      "Ġbr": 9169,
      "orn": 9170,
      "Ġ\"*": 9171,
      "elta": 9172,
      "LEVEL": 9173,
      "Ġdetermined": 9174,
      "Body": 9175,
      "inject": 9176,
      "ANT": 9177,
      "Ġestimated": 9178,
      "specified": 9179,
      "folders": 9180,
      "relpath": 9181,
      "Ġflu": 9182,
      "topology": 9183,
      "Received": 9184,
      "nom": 9185,
      "ĠTarget": 9186,
      "Ġformula": 9187,
      "attempts": 9188,
      "cipients": 9189,
      "persist": 9190,
      "smooth": 9191,
      "mgr": 9192,
      "authenticated": 9193,
      ",,": 9194,
      "Te": 9195,
      "ience": 9196,
      "atar": 9197,
      "orientation": 9198,
      "ĠNAME": 9199,
      "Member": 9200,
      "ctime": 9201,
      "Ġmeth": 9202,
      "ambda": 9203,
      "Ġaggregate": 9204,
      "meas": 9205,
      "covered": 9206,
      "ĠAccess": 9207,
      "ĠKE": 9208,
      "Analysis": 9209,
      "converter": 9210,
      "__),": 9211,
      "signals": 9212,
      "CM": 9213,
      "riterion": 9214,
      "atched": 9215,
      "qubits": 9216,
      "probs": 9217,
      "4967": 9218,
      "Ġspin": 9219,
      "Ġexpressions": 9220,
      "Ġarticle": 9221,
      "Ġnumer": 9222,
      "overlay": 9223,
      "illiseconds": 9224,
      "Ġtools": 9225,
      "TRAN": 9226,
      "Ġplaceholder": 9227,
      "ĠSchema": 9228,
      "INDEX": 9229,
      "Ġminute": 9230,
      "æĹ": 9231,
      "ĠCustom": 9232,
      "Ġ\\'": 9233,
      "Security": 9234,
      "Ġothers": 9235,
      "REE": 9236,
      "Ġprojects": 9237,
      "limited": 9238,
      "outdir": 9239,
      "solve": 9240,
      "Ġdescribe": 9241,
      "Sizer": 9242,
      "ĠNaN": 9243,
      "Ġdead": 9244,
      "Ġcustomer": 9245,
      "Imp": 9246,
      "Ġpreserve": 9247,
      "umption": 9248,
      "utool": 9249,
      "pf": 9250,
      "ĠStringIO": 9251,
      "fac": 9252,
      "Counter": 9253,
      "Ġresolver": 9254,
      "ĠMAX": 9255,
      "../": 9256,
      "('.',": 9257,
      "charset": 9258,
      "Split": 9259,
      "logits": 9260,
      "PRI": 9261,
      "Ġfall": 9262,
      "else": 9263,
      "ĠNormal": 9264,
      "portal": 9265,
      "Ġiteritems": 9266,
      "ĠDescription": 9267,
      "Ġquad": 9268,
      "ceeded": 9269,
      "ĠAdditional": 9270,
      "secondary": 9271,
      "*',": 9272,
      "Ġeq": 9273,
      "Ġliteral": 9274,
      "Encoding": 9275,
      ")})": 9276,
      "SN": 9277,
      "Dest": 9278,
      "Ġdisplayed": 9279,
      "GHT": 9280,
      "Ġstation": 9281,
      "Ġreject": 9282,
      "WORK": 9283,
      "assets": 9284,
      "ĠMag": 9285,
      "``)": 9286,
      ",%": 9287,
      "OFF": 9288,
      "gal": 9289,
      "è®": 9290,
      "Ġunused": 9291,
      "Asset": 9292,
      "Ġbootstrap": 9293,
      "ĠDocument": 9294,
      "developer": 9295,
      "checkpoint": 9296,
      "ribution": 9297,
      "Ġconfigs": 9298,
      "transactions": 9299,
      "mainder": 9300,
      "titles": 9301,
      "Ġupgrade": 9302,
      "rength": 9303,
      "outcome": 9304,
      "Seq": 9305,
      "stitute": 9306,
      "Ġrepos": 9307,
      "tailed": 9308,
      "questions": 9309,
      "scaling": 9310,
      "batches": 9311,
      "Ġexcluded": 9312,
      "500000": 9313,
      "Ġkm": 9314,
      "Ġoverrides": 9315,
      "ĠSince": 9316,
      "Ġunable": 9317,
      "ĠThread": 9318,
      "ListType": 9319,
      "boxes": 9320,
      "good": 9321,
      "dh": 9322,
      "Accept": 9323,
      "Pr": 9324,
      "Ġ([": 9325,
      "subparsers": 9326,
      "Ġrequirement": 9327,
      "highlight": 9328,
      "10000": 9329,
      "Ġcf": 9330,
      "upgrade": 9331,
      "ĠMapping": 9332,
      "tbl": 9333,
      "ĠAnd": 9334,
      "Objects": 9335,
      "Ġ'?": 9336,
      "Ġ({})": 9337,
      "']=": 9338,
      "Ġencryption": 9339,
      "Namespace": 9340,
      "Ġpercentage": 9341,
      "ancy": 9342,
      "(\".\")": 9343,
      "Ġshutdown": 9344,
      "Ġdeps": 9345,
      "Ġcovariance": 9346,
      ")`": 9347,
      "erance": 9348,
      "ĠRecord": 9349,
      "sequent": 9350,
      "Using": 9351,
      "buted": 9352,
      "Ġipv": 9353,
      "iloc": 9354,
      "å®": 9355,
      "lapse": 9356,
      "Global": 9357,
      "ĠVAL": 9358,
      "Ġexpires": 9359,
      "Try": 9360,
      "Ġmaking": 9361,
      "nic": 9362,
      "who": 9363,
      "scopes": 9364,
      "}`": 9365,
      "half": 9366,
      "Keep": 9367,
      "Extension": 9368,
      "Fin": 9369,
      "Mycobacterium": 9370,
      "ĠSimple": 9371,
      "constructor": 9372,
      "uit": 9373,
      "Ġ'&": 9374,
      "Ġiso": 9375,
      "population": 9376,
      "Transport": 9377,
      "ĠHowever": 9378,
      "Rad": 9379,
      "isoformat": 9380,
      "Ġld": 9381,
      "recognized": 9382,
      "pagin": 9383,
      "reqs": 9384,
      "Right": 9385,
      "ĠCopy": 9386,
      "ĠLabel": 9387,
      "onic": 9388,
      "Ġsuggest": 9389,
      "bold": 9390,
      "ipt": 9391,
      "vy": 9392,
      "capture": 9393,
      "organization": 9394,
      "mix": 9395,
      "deserializer": 9396,
      "thernet": 9397,
      "Ġconverter": 9398,
      "GR": 9399,
      "lag": 9400,
      "Ġlogged": 9401,
      "newaxis": 9402,
      "alert": 9403,
      "iness": 9404,
      "tions": 9405,
      "Ġrh": 9406,
      "=[]": 9407,
      "QtGui": 9408,
      "Ġtolerance": 9409,
      "Ġinp": 9410,
      "ĠDevice": 9411,
      "published": 9412,
      "........": 9413,
      "Ġsynchronous": 9414,
      "DecodeError": 9415,
      "Ġdae": 9416,
      "checked": 9417,
      "===": 9418,
      "today": 9419,
      "uz": 9420,
      "Ġgas": 9421,
      "Ġindexed": 9422,
      "quit": 9423,
      "ĠSSL": 9424,
      "Ġnor": 9425,
      "getenv": 9426,
      "Ġcolour": 9427,
      "crets": 9428,
      "Ġdeployment": 9429,
      "Ip": 9430,
      "hierarchy": 9431,
      "Ġintern": 9432,
      "Ġenc": 9433,
      "Ġtransformed": 9434,
      "squeeze": 9435,
      "Ġtransformation": 9436,
      "Ġconsistent": 9437,
      "URN": 9438,
      "ĠGenerated": 9439,
      "Ġbroker": 9440,
      "Ġalert": 9441,
      "Ġwind": 9442,
      "Ġ[_": 9443,
      "logfile": 9444,
      "Ġleave": 9445,
      "thro": 9446,
      "Ġpayment": 9447,
      "Conf": 9448,
      "Ġ---": 9449,
      "Axis": 9450,
      "idle": 9451,
      "Ġcleaned": 9452,
      "NX": 9453,
      "SR": 9454,
      "NOWN": 9455,
      "Ġxpath": 9456,
      "('__": 9457,
      "4967295": 9458,
      "*\\": 9459,
      "MAC": 9460,
      "]')": 9461,
      "Ġfew": 9462,
      "ĠOK": 9463,
      "AI": 9464,
      "-+-+-+-+-+-+-+-+": 9465,
      "GRA": 9466,
      "AX": 9467,
      "ales": 9468,
[...]
